<unk>	0
<s>	0
</s>	0
ን	-3.84873
ና	-4.05632
ም	-4.14528
▁በ	-4.45162
▁	-4.55412
▁የ	-4.60516
▁ላይ	-4.69449
▁ከ	-4.73572
▁እና	-4.96395
▁ነው	-5.14977
ው	-5.31483
▁ለ	-5.3324
▁ወደ	-5.43048
▁ጋር	-5.4792
ት	-5.6102
▁አቶ	-5.62508
▁ውስጥ	-5.71628
▁አበባ	-5.76856
▁ከተማ	-5.84222
▁ሲሆን	-5.89712
▁ቤት	-5.94542
▁መሆኑን	-6.02563
▁ስራ	-6.06643
▁አም	-6.09897
▁አዲስ	-6.10439
▁አመት	-6.12321
▁የኢትዮጵያ	-6.14646
▁መንግስት	-6.1514
▁ጊዜ	-6.19036
በት	-6.26804
▁ሚኒስትር	-6.30493
▁ቀን	-6.30749
▁ኢትዮጵያ	-6.34401
▁በላይ	-6.36304
▁ክልል	-6.38545
▁ብር	-6.42024
▁ብለዋል	-6.42076
▁ከፍተኛ	-6.42529
▁ሰዎች	-6.42991
▁ገልፀዋል	-6.45893
▁ደግሞ	-6.47283
▁ሺህ	-6.48219
▁ሲ	-6.49915
▁ጉዳይ	-6.61873
▁ጠቅላይ	-6.64259
▁እንደ	-6.64721
▁ተናግረዋል	-6.64947
▁በኋላ	-6.67453
▁መሰረት	-6.68555
▁ወቅት	-6.68656
▁ግን	-6.68993
▁ነበር	-6.69506
▁እንዲሁም	-6.69527
ስ	-6.71017
በ	-6.71601
▁ዋና	-6.72163
▁ደረጃ	-6.73131
▁ቡድን	-6.74963
▁መካከል	-6.75681
ል	-6.76304
▁እስከ	-6.76581
▁በኢትዮጵያ	-6.76853
የ	-6.76998
▁ምክንያት	-6.78634
▁ሚሊዮን	-6.79401
▁ሚኒስቴር	-6.80676
ር	-6.81124
▁ጨዋታ	-6.82354
▁ሁኔታ	-6.82901
▁አመታት	-6.83734
▁ድጋፍ	-6.84487
▁አ	-6.85463
▁ያለው	-6.85864
▁ምክር	-6.87801
▁መረጃ	-6.88332
▁ይህ	-6.90425
▁አገልግሎት	-6.90467
▁ቤቱ	-6.90873
▁አንድ	-6.91224
ነት	-6.9494
▁ናቸው	-6.95872
▁ዛሬ	-6.96426
▁የስራ	-6.98454
▁ከዚህ	-6.98462
▁ልማት	-7.00607
▁አቀፍ	-7.01497
▁ቢ	-7.01828
▁ጉዳዮች	-7.01901
▁ዶክተር	-7.0191
▁የሚ	-7.01972
▁መንገድ	-7.0228
▁አሁን	-7.02562
▁በመቶ	-7.02876
▁የውጭ	-7.03944
▁ድርጅት	-7.04784
▁በፊት	-7.0549
▁ብሄራዊ	-7.05643
▁ባንክ	-7.05744
▁ሁለት	-7.0628
▁–	-7.0633
▁ሀይል	-7.07608
▁አስተዳደር	-7.0816
▁የተለያዩ	-7.08166
▁ያሉት	-7.08671
ከ	-7.09024
▁ፕሬዚዳንት	-7.09544
▁ምክትል	-7.10364
▁ህግ	-7.11801
▁ጀምሮ	-7.11841
ች	-7.12033
▁ብቻ	-7.13181
▁ሌሎች	-7.14392
▁ወር	-7.14817
▁ቁጥር	-7.15518
▁መግለጫ	-7.15895
▁እንደሆነ	-7.1627
▁በዚህ	-7.17046
ዎች	-7.17407
▁ችግር	-7.18383
▁መ	-7.18387
▁አባላት	-7.1841
▁ሀገራት	-7.19334
▁ፍርድ	-7.19409
▁ሚኒስትሩ	-7.19434
▁ፖሊስ	-7.19748
▁ነጥብ	-7.2037
▁ሊ	-7.21799
▁ሳምንት	-7.22555
▁አለም	-7.23018
ባቸው	-7.23826
ውን	-7.23916
ብ	-7.25533
▁ተ	-7.25538
▁በአዲስ	-7.2576
▁ውይይት	-7.2668
▁ሀላፊ	-7.26764
▁ተቋማት	-7.26812
▁በኩል	-7.2734
▁ግንኙነት	-7.27543
▁ግብ	-7.27933
▁ዘመን	-7.27976
▁እንዲ	-7.28566
▁ፅህፈት	-7.28596
▁ግንባታ	-7.29386
▁ጨምሮ	-7.30212
▁ዶላር	-7.30262
▁በተለያዩ	-7.30323
▁ነገር	-7.30427
▁ለማድረግ	-7.30741
▁አስታውቋል	-7.30747
▁በመሆኑ	-7.32197
▁ተብሎ	-7.32895
▁ለማግኘት	-7.32936
▁አካላት	-7.3354
▁በማድረግ	-7.33769
▁ቤቶች	-7.34677
▁ህዝብ	-7.35432
▁ቀናት	-7.35535
ዋ	-7.35942
▁ቢሊዮን	-7.36217
▁አህመድ	-7.36701
▁ድረስ	-7.36843
ክ	-7.37136
ለ	-7.37575
▁ጥረት	-7.38232
▁ሲሉ	-7.39664
▁ሊግ	-7.39971
▁በርካታ	-7.40087
▁የመንግስት	-7.40106
▁ቀደም	-7.40109
ያ	-7.40394
▁የአፍሪካ	-7.40611
▁ይታወሳል	-7.41077
▁ጥያቄ	-7.41118
▁ጉዳት	-7.41546
▁ይ	-7.41569
▁ትምህርት	-7.41831
▁ዘርፍ	-7.41975
▁መሆኑ	-7.42756
▁ኤፍቢሲ	-7.43191
▁እለት	-7.43759
▁ተከትሎ	-7.44418
ድ	-7.44654
▁ስምምነት	-7.45405
▁ምርጫ	-7.45477
▁ያለውን	-7.46292
▁ስር	-7.46443
▁ሆኖ	-7.46471
▁እንቅስቃሴ	-7.46642
▁ቡና	-7.46869
▁የነበረው	-7.47304
▁በተጨማሪ	-7.47493
▁ወራት	-7.48237
▁ኮሚሽን	-7.48338
▁የአዲስ	-7.49078
▁መሆናቸውን	-7.49251
▁ዜጎች	-7.49632
▁ተገልጿል	-7.49919
▁አስታወቀ	-7.50241
▁ውሳኔ	-7.50383
▁ባለፈው	-7.51316
ታ	-7.51396
▁ውጤት	-7.51426
▁ጉባኤ	-7.51476
▁ሰአት	-7.51991
▁ቫይረስ	-7.52388
▁ቃል	-7.52389
▁ዙሪያ	-7.53094
▁አካባቢ	-7.53287
▁ቢሆንም	-7.53308
▁ሙሉ	-7.53812
▁እድል	-7.53915
▁ስራዎች	-7.54614
▁ያለ	-7.54909
▁ስለ	-7.55046
▁በሚል	-7.55072
▁ተብሏል	-7.551
▁ቢሮ	-7.55839
▁ሶስት	-7.55854
▁ንግድ	-7.5655
▁አስታውቀዋል	-7.56717
▁የሚገኙ	-7.56802
ማ	-7.57036
▁አፍሪካ	-7.57123
▁ኳስ	-7.57123
▁ፓርቲ	-7.57545
▁እንደገለፁት	-7.57612
▁ኛ	-7.57795
▁ጥሪ	-7.57805
▁ታውቋል	-7.58105
▁ያ	-7.58404
▁ኮሚቴ	-7.5863
▁ዳይሬክተር	-7.5877
▁እ	-7.60081
▁ያሉ	-7.60681
▁ስርአት	-7.60942
ሳ	-7.61398
▁ዶር	-7.61588
▁ጥቃት	-7.61945
▁አስረድተዋል	-7.62191
▁አካባቢዎች	-7.62225
▁ሚሊየን	-7.62254
▁ዞን	-7.62564
▁እንደሚ	-7.63541
▁ሀገር	-7.63543
▁ሰላም	-7.64191
▁ዳር	-7.64301
▁የአለም	-7.64693
▁የጤና	-7.64833
▁የህዝብ	-7.65538
▁ሱዳን	-7.66694
▁ተጫዋቾች	-7.6676
▁ልዩ	-7.66906
▁ማ	-7.68765
▁የተ	-7.69747
▁እርምጃ	-7.69892
▁ይፋ	-7.70316
▁የፖለቲካ	-7.70387
▁አሰልጣኝ	-7.70629
▁አገር	-7.71768
▁በጀት	-7.71877
▁ማድረግ	-7.7214
ላ	-7.72536
ቱ	-7.72582
▁እቅድ	-7.72751
▁እስካሁን	-7.72961
▁ባ	-7.73047
▁ደቂቃ	-7.73374
▁በቀጣይ	-7.7348
ላቸው	-7.73773
▁የክልሉ	-7.74025
▁ምርመራ	-7.74882
▁ትኩረት	-7.74897
▁በበኩላቸው	-7.75071
▁የንግድ	-7.7586
ሽ	-7.76552
▁ኤፍ	-7.76678
▁ጥሩ	-7.76765
▁ተጨማሪ	-7.76835
▁ጠቁመዋል	-7.76866
▁በተለይ	-7.77319
▁ጨዋታዎች	-7.77433
▁ሆነው	-7.77436
▁መንግስታት	-7.77659
▁አገራት	-7.77672
▁በአሁኑ	-7.77676
▁በቅርቡ	-7.77782
▁አመራሮች	-7.78245
▁የልማት	-7.79049
▁እንደነበር	-7.79214
ግ	-7.79299
▁በጋራ	-7.79696
▁መብት	-7.80024
▁ዝግጅት	-7.80423
▁ገቢ	-7.80471
▁ክስ	-7.8048
▁በማለት	-7.80916
▁ወይም	-7.81074
▁ሲል	-7.81305
▁የፋና	-7.81607
▁አደጋ	-7.81661
▁መሪ	-7.81939
▁ለውጥ	-7.82037
▁መከላከያ	-7.82232
▁አገሮች	-7.82292
▁ምላሽ	-7.82371
▁በመሆን	-7.82426
▁ሂደት	-7.82641
▁ሆነ	-7.8282
▁ቦታ	-7.82969
▁አል	-7.83104
▁መረጃዎችን	-7.83142
▁ይገኛል	-7.83247
▁አቅም	-7.83709
▁አቃቤ	-7.83738
ፍ	-7.83779
▁ወንጀል	-7.83982
▁ሀብት	-7.84239
▁የገለፁት	-7.84668
▁ባለፉት	-7.84673
▁ድርጅቶች	-7.85052
▁በመ	-7.85215
ሮ	-7.85236
▁ሰው	-7.85277
▁ይጠበቃል	-7.85392
ተባበሩት	-7.85955
▁በተጨማሪም	-7.86282
▁ይሆናል	-7.86581
▁ህይወት	-7.86909
▁አብይ	-7.86913
▁ብዙ	-7.87462
▁ቡድኑ	-7.87718
▁የነበሩ	-7.87858
▁ያላቸው	-7.87887
▁እየ	-7.88358
▁ግድብ	-7.88616
▁የፀጥታ	-7.88647
ተ	-7.8891
▁መልኩ	-7.88912
▁ተወካዮች	-7.89177
▁ባለ	-7.90084
▁ገልጿል	-7.90089
▁የፌዴራል	-7.9036
ዎ	-7.90411
ይ	-7.90566
▁ተግባር	-7.90658
▁ገንዘብ	-7.90834
▁ውድድር	-7.90962
ዉ	-7.91087
▁ማእከል	-7.91121
ቸው	-7.9124
▁ይህንን	-7.91404
ራ	-7.91527
▁የህግ	-7.92101
▁ዋንጫ	-7.92115
▁አንዱ	-7.92607
▁ሀሳብ	-7.92899
▁ካ	-7.93769
▁የአሜሪካ	-7.93916
▁አይነት	-7.94165
▁አራት	-7.94579
▁ድምፅ	-7.95402
▁መሆኑንም	-7.95459
▁እየተ	-7.95573
ህ	-7.96036
ቶ	-7.96095
▁አካል	-7.96129
▁ይህን	-7.96328
▁በሙሉ	-7.9634
▁በተመለከተ	-7.96368
ዝ	-7.96545
▁ሰራተኞች	-7.96624
▁የኮሮና	-7.96692
▁ወጣቶች	-7.96807
▁ሺ	-7.96897
ሉ	-7.97163
▁ስቴትስ	-7.97169
▁አምባሳደር	-7.97339
▁በቁጥጥር	-7.97477
▁መልእክት	-7.97699
▁ትናንት	-7.97726
▁ሁሉም	-7.97811
▁ምርት	-7.9805
▁በአለም	-7.98264
▁ሀላፊዎች	-7.98345
▁ዙር	-7.9838
▁መጠን	-7.9846
▁ጊዮርጊስ	-7.98642
▁ችግሮች	-7.98825
▁በአንድ	-7.98843
▁ዋጋ	-7.98886
▁አባል	-7.98939
▁አምስት	-7.98974
▁ፕሮጀክት	-7.9988
▁የጋራ	-8.00053
▁ክፍል	-8.00115
▁ገፃችን	-8.00357
▁ሜትር	-8.00619
▁ያህል	-8.00724
▁የሰላም	-8.00738
▁አጋማሽ	-8.0075
▁በፍጥነት	-8.00755
▁ሀይሎች	-8.0113
▁ምንም	-8.01156
▁ውጪ	-8.01447
▁እድገት	-8.01525
▁በሰጡት	-8.01687
▁ስብሰባ	-8.01828
▁አስፈፃሚ	-8.01847
▁ባለስልጣን	-8.02009
▁ብሏል	-8.0246
▁የሚል	-8.02771
▁ውሀ	-8.02996
▁ተግባራዊ	-8.0358
▁አዋጅ	-8.03766
▁ከተሞች	-8.04186
▁የሚገኘው	-8.0435
▁የሚያስችል	-8.0461
ጠቅላይ	-8.04794
▁ከኢትዮጵያ	-8.04907
▁ግብር	-8.04908
▁ህብረት	-8.05009
▁ፍላጎት	-8.05166
▁ነዋሪዎች	-8.05174
▁ውጭ	-8.05432
▁ሁለቱ	-8.05601
▁ዩኒቨርሲቲ	-8.05742
▁ለመከላከል	-8.05769
▁ሳይ	-8.0606
▁ጥቅምት	-8.06473
ሰ	-8.06474
ቅ	-8.06654
▁ባህር	-8.07055
▁ባለው	-8.07069
▁ኩባንያ	-8.07143
▁ወረዳ	-8.07231
▁በክልሉ	-8.07268
▁መሀመድ	-8.07292
▁መሬት	-8.07329
▁በሚ	-8.07504
▁ኢትዮጵያውያን	-8.07549
▁ወጪ	-8.07769
▁ሁሉ	-8.07838
ጋ	-8.07986
ዳ	-8.08081
▁አየር	-8.08424
ባ	-8.08435
▁ባለሙያዎች	-8.08469
ዎቹ	-8.08481
▁ክልሎች	-8.08513
▁ሰራዊት	-8.08589
▁ደቡብ	-8.08651
▁ነፃ	-8.09383
▁ሚና	-8.09447
▁ጤና	-8.09514
▁በተያያዘ	-8.09522
▁የገንዘብ	-8.09662
መ	-8.10098
▁መስሪያ	-8.1029
▁የውሀ	-8.1036
▁ፓርቲዎች	-8.10415
▁የትምህርት	-8.1046
▁አመቱ	-8.10478
▁ርእሰ	-8.1067
▁በዛሬው	-8.11031
▁በዚህም	-8.11608
ሪ	-8.11766
▁በተለይም	-8.11769
▁አስተዋፅኦ	-8.11868
▁ግጭት	-8.12071
ረ	-8.12186
ደ	-8.12457
▁የሆነው	-8.12639
▁ብለው	-8.12687
▁ክፍለ	-8.12811
▁ጥር	-8.12883
▁መርሀ	-8.13427
ካ	-8.1345
▁በአጠቃላይ	-8.13725
▁ቆይታ	-8.14033
▁ሪፖርት	-8.14518
▁መስከረም	-8.14603
▁ወረርሽኝ	-8.14849
ከዚህ	-8.14879
▁ያገኘነው	-8.14958
▁የአማራ	-8.1525
▁የሆነ	-8.15512
▁በሀገሪቱ	-8.15553
▁ዘግቧል	-8.15721
▁እንደሚገባ	-8.15752
▁አይ	-8.15801
▁ትልቅ	-8.1617
▁የውድድር	-8.16247
ሩ	-8.16404
▁መሆን	-8.16594
▁በአል	-8.16683
ኢፌዴሪ	-8.167
▁ክለቦች	-8.16984
▁ክለብ	-8.17113
▁ኩባንያዎች	-8.17321
▁ሀ	-8.17552
▁ወይዘሮ	-8.17573
▁ሰኔ	-8.17733
ነ	-8.18154
▁በአፍሪካ	-8.18207
አዲስ	-8.18301
▁የሀገሪቱ	-8.18985
▁ህዝቦች	-8.19049
▁እንጂ	-8.19371
▁ስጋት	-8.1963
▁ቦርድ	-8.19685
ለት	-8.19741
▁የነበረ	-8.20139
▁የተሻለ	-8.20263
▁ወቅታዊ	-8.20344
ጥ	-8.20419
▁ሴቶች	-8.20554
▁ኢንዱስትሪ	-8.2064
▁ስነ	-8.20712
▁ብሎ	-8.20751
▁ተማሪዎች	-8.21189
▁መስራት	-8.21243
▁ትብብር	-8.21396
▁ተጠቃሚ	-8.21522
▁የሰብአዊ	-8.21714
▁ይገባል	-8.22319
▁ቻናል	-8.22452
▁የደቡብ	-8.2249
▁ሳይሆን	-8.22555
▁ሀላፊነት	-8.22761
▁ግንቦት	-8.22875
▁ባለስልጣናት	-8.22928
▁አቅርበዋል	-8.23134
▁የተባለው	-8.23255
▁መሪዎች	-8.23315
▁አለ	-8.23339
▁ጥናት	-8.23529
▁ፕሬዝዳንት	-8.23531
▁ተችሏል	-8.23732
▁ጥበቃ	-8.23835
▁ውል	-8.24747
▁ምን	-8.24958
▁ታህሳስ	-8.25253
▁ግለሰቦች	-8.25263
▁አላማ	-8.25272
▁በአገሪቱ	-8.25347
▁የሆኑ	-8.25516
▁የነበሩት	-8.25809
▁መድረክ	-8.26095
▁በኛው	-8.26138
ሞ	-8.26616
▁ንብረት	-8.26725
▁አመልክተዋል	-8.26815
▁ያመለክታል	-8.27103
▁በደቡብ	-8.27162
▁ጥቅም	-8.27363
▁ትኩስ	-8.27538
▁የሚያ	-8.27555
▁ለሪፖርተር	-8.28034
▁መስመር	-8.28247
▁ገለፃ	-8.28271
▁ባለፈ	-8.28409
▁እንደሚገኝ	-8.28694
▁አቢይ	-8.28887
▁ባደረጉት	-8.28908
▁ዘገባ	-8.29164
ሲ	-8.29716
▁አሜሪካ	-8.29834
▁እየተሰራ	-8.29838
▁ፕሪምየር	-8.29921
▁ለመስጠት	-8.29983
▁ቡድኖች	-8.30198
▁ለኢትዮጵያ	-8.30208
▁እየሰራ	-8.303
▁የኢኮኖሚ	-8.30644
▁በታች	-8.30679
▁አባ	-8.3076
▁ገልፀው	-8.30886
▁ገበያ	-8.31138
▁እንዲሆን	-8.3137
ኝ	-8.31806
▁ክፍሎች	-8.31985
▁አድርጓል	-8.32129
ቀ	-8.32192
▁በከፍተኛ	-8.32227
ሎ	-8.32628
ኒ	-8.33126
▁ለመፍታት	-8.33136
▁ፈቃድ	-8.3382
▁አይደለም	-8.33957
▁የመጀመሪያ	-8.34034
አቶ	-8.34164
ታል	-8.3418
▁መልካም	-8.34187
▁ጎል	-8.34231
▁መጋቢት	-8.34278
▁ጨዋታው	-8.34309
▁ህገ	-8.34564
▁በተ	-8.34746
▁ጠንካራ	-8.34764
▁ተሳትፎ	-8.34774
▁ንግግር	-8.35072
▁ትእዛዝ	-8.35299
▁እንዳይ	-8.35324
▁የድምፅ	-8.35592
▁ይታወቃል	-8.35674
▁አፈፃፀም	-8.35714
▁በቀለ	-8.35741
አ	-8.35882
▁ቫይረሱ	-8.3595
▁አንፃር	-8.35954
▁የተናገሩት	-8.35958
▁ስድስት	-8.36264
ኑ	-8.36438
▁መልክ	-8.36521
▁ከንቲባ	-8.36523
▁ለማወቅ	-8.36575
▁አመራር	-8.36835
ዶ	-8.36906
▁የጦር	-8.36951
▁ተጫዋች	-8.37091
▁ስልጠና	-8.37242
▁እንደሚችል	-8.37262
▁ክለቡ	-8.37508
▁ሜዳ	-8.37515
▁አዲሱ	-8.37586
▁ተስፋዬ	-8.37653
▁ምንጮች	-8.37689
▁እየተካሄደ	-8.3772
▁ፕሮግራም	-8.37764
▁ብዙሀን	-8.37841
▁የካቲት	-8.37843
▁የአገሪቱ	-8.37877
ሊ	-8.37978
▁ኤሌክትሪክ	-8.38018
ቃ	-8.38095
ኛ	-8.38197
▁ሀዋሳ	-8.38392
▁የምርጫ	-8.38534
▁አሰራር	-8.3858
ሌ	-8.38643
▁ኢኮኖሚ	-8.3876
▁አድርገዋል	-8.39151
▁ቅዱስ	-8.39293
▁ስልጣን	-8.39554
▁የህክምና	-8.3995
▁አጠቃላይ	-8.40193
▁እንደተናገሩት	-8.40312
▁የግል	-8.40384
▁ለዚህ	-8.40473
▁ኪሎ	-8.40488
▁ቴክኖሎጂ	-8.40601
ገ	-8.40638
▁በሆነ	-8.40734
ጣ	-8.40825
▁የመከላከያ	-8.40862
▁አዳዲስ	-8.40878
▁አድርጎ	-8.40905
▁አብመድ	-8.41191
▁ኮርፖሬት	-8.41252
▁ተቋም	-8.41441
▁ከፍ	-8.41479
▁ቦታዎች	-8.41521
▁አስመልክቶ	-8.41899
▁በሀላ	-8.41994
▁የቀድሞ	-8.42058
▁የአየር	-8.42067
▁ያላቸውን	-8.42413
▁እንዳለበት	-8.42542
▁ማለት	-8.42559
▁ድርሻ	-8.42562
ዛ	-8.42969
▁የነበረውን	-8.43309
▁እያ	-8.43558
▁ነሀሴ	-8.43959
▁ሀምሌ	-8.44154
▁ከተ	-8.44164
▁ተፅእኖ	-8.44223
▁ያደረጉት	-8.4446
▁በመንግስት	-8.44481
▁ይገኛሉ	-8.44673
▁ጉብኝት	-8.44818
▁ታደሰ	-8.45202
ሚ	-8.45358
ዊ	-8.45723
▁ፕሮጀክቶች	-8.45869
▁አሸናፊ	-8.4603
▁የትግራይ	-8.46245
▁ከሆነ	-8.46257
▁ህክምና	-8.46281
▁ሊያ	-8.46439
▁ችሎት	-8.46542
ችው	-8.46658
▁እርዳታ	-8.4679
ትዊተር	-8.46899
▁አዳማ	-8.47075
▁እጥረት	-8.47089
▁ሆኗል	-8.47137
▁እያደረገ	-8.47577
▁በኦሮሚያ	-8.47756
▁ባለሀብቶች	-8.47851
▁ያድርጉ	-8.47914
▁በሌሎች	-8.47917
▁የሚሆኑ	-8.47931
▁አቅርቦት	-8.47978
▁እየተደረገ	-8.48119
▁በአጭር	-8.48185
▁ተገለፀ	-8.49007
▁የኦሮሚያ	-8.4911
▁ኤጀንሲ	-8.4916
▁ሊቀመንበር	-8.49298
▁ህዳር	-8.49302
▁ተስፋ	-8.49366
▁ሰብስክራይ	-8.49495
▁ለመስራት	-8.49719
▁የምግብ	-8.49775
▁በትግራይ	-8.49798
▁እንዳ	-8.49944
▁ታሪክ	-8.50255
▁መንገዶች	-8.50464
▁በማ	-8.50854
ፈ	-8.50921
▁ሰፊ	-8.51107
▁የሆኑት	-8.51151
▁እጅግ	-8.51228
▁ለማ	-8.51355
ናል	-8.51392
▁ባወጣው	-8.5152
▁እንዳሉት	-8.51571
▁ይሁን	-8.51872
▁ደህንነት	-8.51904
ሀ	-8.52051
▁ህዳሴ	-8.52154
▁በተመሳሳይ	-8.52159
▁ኮሚሽነር	-8.5218
▁ገፅ	-8.52267
▁ሲሆኑ	-8.52302
▁ብሮድካስቲንግ	-8.52359
▁መስጠት	-8.52396
ዋል	-8.52574
▁መስተዳድር	-8.52577
▁በቫይረሱ	-8.52627
▁ብድር	-8.52645
▁የመ	-8.52657
▁ከአዲስ	-8.52695
▁ሁለተኛ	-8.52755
▁መቶ	-8.52869
ፋ	-8.52898
▁መኮንን	-8.53023
▁ከባድ	-8.53069
▁ሌላ	-8.53237
▁ሰባት	-8.53517
▁ኛው	-8.53627
▁አስ	-8.53682
▁ሊጉ	-8.53834
▁ክፍያ	-8.53848
ኮ	-8.53895
▁ደሳለኝ	-8.54172
▁ቋሚ	-8.54305
▁የሚታወስ	-8.54436
ዬ	-8.54916
ሶ	-8.54955
▁ቅጣት	-8.55046
▁ችሏል	-8.5515
▁ዘርፎች	-8.55308
▁የሰው	-8.5571
ሙ	-8.55735
▁ሙከራ	-8.55753
▁ስፍራ	-8.55854
▁ቁጥጥር	-8.55997
▁ስራዎችን	-8.56103
ቆ	-8.56136
▁አስተዳደሩ	-8.56148
▁እንዳለ	-8.56235
▁በጣም	-8.56371
▁ቴሌቪዥን	-8.56609
▁መፍትሄ	-8.56693
▁አሳስበዋል	-8.56707
ኖ	-8.56773
▁መሆናቸው	-8.57083
▁ረገድ	-8.57231
▁ትራምፕ	-8.57347
▁ጉዞ	-8.57525
ቸውን	-8.57808
▁መደበኛ	-8.57879
▁ገለፁ	-8.5792
▁ለህዝብ	-8.58035
ቦ	-8.58278
▁ግርማ	-8.58488
▁ተጫዋቾችን	-8.5853
▁ድሬዳዋ	-8.58727
▁በአማራ	-8.58807
ዲ	-8.58832
▁ፋይል	-8.58916
▁ቀጠሮ	-8.59332
▁የሀገር	-8.59371
▁ግብፅ	-8.59375
▁መረጃዎች	-8.59423
▁እኤአ	-8.59429
ሬ	-8.5959
▁ወዲህ	-8.59616
▁ወሮ	-8.59619
▁ሰላማዊ	-8.59677
▁አስኪያጅ	-8.59688
▁ማብራሪያ	-8.59931
▁ነገ	-8.59958
▁ዝርዝር	-8.59963
▁ከአንድ	-8.59977
▁ሰጥተዋል	-8.60036
▁የከተማ	-8.60058
▁ሰጥቷል	-8.60543
▁ህፃናት	-8.60623
ሻ	-8.60661
▁ጎን	-8.60814
▁ያዳምጡ	-8.61046
▁ወሳኝ	-8.61071
▁ዘንድ	-8.61083
የኢትዮጵያ	-8.61131
▁የብሄራዊ	-8.61268
▁ሆቴል	-8.61841
▁ረቂቅ	-8.61844
▁ተመሳሳይ	-8.61892
▁ምድብ	-8.62005
▁ለማሳደግ	-8.62205
▁ከሚ	-8.62227
▁ወታደራዊ	-8.62257
▁አቀባይ	-8.62351
በዚህም	-8.62475
▁መጨረሻ	-8.62636
▁ቢሊየን	-8.62716
ሜ	-8.62977
▁ኢንቨስትመንት	-8.63098
ነው	-8.63189
▁ምንጭ	-8.63489
▁ክትትል	-8.63555
▁መሳሪያ	-8.63617
▁የማ	-8.63706
▁በመጠቀም	-8.63772
▁እንዳለው	-8.64104
▁አስር	-8.64342
▁ጠይቀዋል	-8.64378
▁ጫና	-8.64524
▁ደብዳቤ	-8.64579
▁ዘመቻ	-8.6479
ኢትዮጵያ	-8.64811
ችን	-8.64843
▁ህጋዊ	-8.64911
▁ስፖርት	-8.65038
▁ድረ	-8.65279
ቴ	-8.65346
▁ዋስትና	-8.6553
▁ሳ	-8.65604
▁ኢንጂነር	-8.6567
▁ተደርጓል	-8.65689
▁ላ	-8.65718
▁አስተያየት	-8.65947
▁እግርኳስ	-8.65981
ዘ	-8.66113
▁ድርድር	-8.66157
▁መደረጉን	-8.66208
▁ድቻ	-8.66274
▁ለመፍጠር	-8.6637
▁እንደሚገኙ	-8.66647
▁በቂ	-8.66676
▁የሁለቱ	-8.66723
▁እግር	-8.66821
▁የግብርና	-8.66865
ዎችን	-8.66967
ጅ	-8.67069
ቲ	-8.67291
▁ከውጭ	-8.67319
ቢ	-8.67441
▁በወቅቱ	-8.67513
▁አስፈላጊ	-8.67598
▁ዴሞክራሲያዊ	-8.67642
▁ወጥ	-8.67908
▁ማክሰኞ	-8.68144
▁የኤሌክትሪክ	-8.68263
▁በተደጋጋሚ	-8.68328
▁አቋም	-8.68384
▁በሚገኘው	-8.68492
▁ድል	-8.68675
▁ዜና	-8.68772
▁አንድነት	-8.68903
▁እንደሚሆን	-8.68933
▁ዘገባው	-8.68958
▁ሰ	-8.69007
▁ማህበረሰብ	-8.69184
▁በመግለፅ	-8.69339
ባት	-8.69407
▁ፌዴሬሽን	-8.69477
እ	-8.69549
▁በስልክ	-8.69691
ጭ	-8.69745
▁የማይ	-8.69793
▁ኢ	-8.69852
▁ስርጭት	-8.69872
▁በመስጠት	-8.69886
▁ቅድመ	-8.69889
▁በአግባቡ	-8.70007
▁ባንኮች	-8.70018
▁ይችላል	-8.70084
▁መድረሱን	-8.70261
▁ይዞ	-8.70267
ወ	-8.70277
▁ስም	-8.704
▁የለም	-8.70407
▁ጥያቄዎች	-8.70555
▁ያመላክታል	-8.70558
በትን	-8.70897
▁ሰነድ	-8.70978
▁ኢዜአ	-8.7104
▁መከላከል	-8.71225
▁በአ	-8.71244
ዮ	-8.7144
▁ሄክታር	-8.71492
▁ቻይና	-8.71696
ዩ	-8.71822
▁ሀይሉ	-8.72139
ቡ	-8.72194
▁በዚሁ	-8.72201
▁ሰላምና	-8.72271
ኩ	-8.72368
▁ወገኖች	-8.72375
▁የፌደራል	-8.72393
▁ሀገሮች	-8.72498
▁በይፋ	-8.7269
▁ከተለያዩ	-8.72742
▁ያደረገ	-8.72764
▁በሁለት	-8.73005
▁እሁድ	-8.73194
▁ጌታቸው	-8.73296
▁ባሻገር	-8.73373
▁በመሆኑም	-8.73488
▁ባደረገው	-8.73535
▁ተግባራት	-8.73541
▁ጅማ	-8.73551
▁ጠቅላላ	-8.74069
▁ተነግሯል	-8.74098
▁አቅጣጫ	-8.74113
▁አለበት	-8.74265
▁ቅዳሜ	-8.74309
▁ዳይሬክተሩ	-8.74326
▁በተካሄደው	-8.74447
▁ተያይዞ	-8.74599
▁በአካባቢው	-8.74641
▁የአገር	-8.74762
▁ኮርፖሬሽን	-8.74787
▁አብራርተዋል	-8.74804
▁ሆስፒታል	-8.74875
▁ልምድ	-8.74969
▁የግብ	-8.75225
▁የአ	-8.75265
▁አመልክቷል	-8.75327
▁አማካኝነት	-8.75345
ሱ	-8.75355
▁ያደረገው	-8.75467
▁ምርቶች	-8.75554
▁ሰኞ	-8.75625
▁ማህበራዊ	-8.75637
▁ውጤታማ	-8.75713
▁ሀላፊው	-8.75839
▁አርብ	-8.75868
በተጨማሪም	-8.76063
▁ወረዳዎች	-8.76116
▁ብርሀኑ	-8.76128
ቁ	-8.76534
ሁ	-8.76956
▁ለማጠናከር	-8.77191
▁ተጠቁሟል	-8.7732
▁አርሶ	-8.7736
▁የዩናይትድ	-8.77398
▁የመጀመርያ	-8.77424
ታቸው	-8.77528
▁ህብረተሰቡ	-8.77536
ምድብ	-8.77567
▁ሰብሳቢ	-8.77653
▁አቀፉ	-8.77784
አስቸኳይ	-8.77816
▁ሀገሪቱ	-8.77961
▁ኮሚቴው	-8.78026
▁ማሀበር	-8.78146
▁ከነማ	-8.78242
▁መንግስቱ	-8.78406
▁ከበደ	-8.78472
▁እውቅና	-8.78474
▁ከሁለት	-8.78475
▁ስ	-8.78485
▁አስታወቁ	-8.78641
▁ስላሉ	-8.78651
▁ጦርነት	-8.78664
▁በሁለቱ	-8.78908
▁በነበረው	-8.79161
▁እንዲደርስ	-8.79172
ጎ	-8.79375
▁ስታዲየም	-8.79398
▁ድንበር	-8.79495
▁ይበልጥ	-8.79676
▁ቶን	-8.79766
▁የፋይናንስ	-8.80177
▁በውጭ	-8.80185
▁ዝግጁ	-8.80189
▁በተደረገው	-8.80274
▁ትራንስፖርት	-8.80371
▁እንደሆነም	-8.80414
▁በአሜሪካ	-8.80612
▁ምግብ	-8.80729
ሶከር	-8.8074
▁ለመ	-8.80831
▁ስራው	-8.80953
ኪ	-8.81077
▁ዘንድሮ	-8.81151
▁የቀድሞው	-8.81243
▁በኮሮና	-8.81245
▁አንስተዋል	-8.81338
▁ችግሮችን	-8.81416
▁ሰብአዊ	-8.81716
▁ማሻሻያ	-8.81751
▁አንዳንድ	-8.81767
▁ዘመናዊ	-8.82122
▁በህግ	-8.82233
▁ሽልማት	-8.82389
▁በሌላ	-8.82446
▁ከሌሎች	-8.82584
▁ተቃውሞ	-8.82607
▁ጣቢያ	-8.82669
▁ባለቤት	-8.8276
▁የሱዳን	-8.82847
▁ታ	-8.83262
▁ፋብሪካ	-8.83269
▁ጠቅሰዋል	-8.8339
▁ሀብረት	-8.83405
▁ቤተ	-8.8346
▁መንግስታዊ	-8.83461
▁ከመ	-8.83717
▁ጦር	-8.83934
▁ላለፉት	-8.83939
▁ባንኩ	-8.83973
▁ድርጊት	-8.83998
▁ድርጅቱ	-8.84086
አሁን	-8.84116
▁ማስከበር	-8.84202
▁የፅሁፍ	-8.84225
▁ፈጣን	-8.84485
▁ለአዲስ	-8.84489
▁ኢትዮጵያን	-8.8471
ጫ	-8.84835
▁የኢንዱስትሪ	-8.84871
▁ነፃነት	-8.84904
▁ህገወጥ	-8.84947
▁በሀገር	-8.84987
ዱ	-8.84989
ሰበር	-8.85171
▁አበበ	-8.85187
▁ተሳታፊ	-8.85211
▁አጥቂ	-8.8526
▁እን	-8.85331
▁በሁሉም	-8.85342
▁ዘ	-8.85439
ዩብ	-8.85466
ኔ	-8.85626
▁ተጠናክሮ	-8.85664
▁ከእኛ	-8.85752
▁ሳቢያ	-8.85773
▁ጊዜያት	-8.86152
▁ስርአቱ	-8.862
▁እንደተ	-8.86237
▁እነዚህ	-8.86285
▁ለማረጋገጥ	-8.86685
▁አቻ	-8.86807
▁ማግኘት	-8.8689
ቶች	-8.86912
▁ዮሀንስ	-8.8697
▁ዶናልድ	-8.87066
▁ወጣት	-8.87212
ዘወትር	-8.87242
▁በሰላም	-8.87282
▁ነበሩ	-8.87357
▁የተገኘው	-8.87445
▁ስምንት	-8.87491
▁በድጋሚ	-8.87533
▁አገሪቱ	-8.87569
▁የምርመራ	-8.87734
▁የህወሀት	-8.87784
ክለቡ	-8.87874
በር	-8.8788
▁የቻይና	-8.87906
▁ምስራቅ	-8.87959
ሴ	-8.87967
▁አውሮፕላን	-8.87971
▁በአገር	-8.88006
▁የኢንቨስትመንት	-8.88023
▁ሲዳማ	-8.88024
▁ኦ	-8.88048
▁ማድረጉን	-8.88161
በዚህ	-8.88191
▁እንኳን	-8.88291
▁ስደተኞች	-8.88384
▁ትክክለኛውን	-8.88394
▁የጠቅላይ	-8.88551
▁መልስ	-8.88862
▁ለመገንባት	-8.89036
▁የሚገኙት	-8.89113
▁ኮሚሽኑ	-8.89127
▁ስታድየም	-8.89163
▁የትራንስፖርት	-8.89472
▁ምት	-8.89555
▁ሀሙስ	-8.89829
▁አረቢያ	-8.89836
▁የመጨረሻ	-8.89847
▁የአውሮፓ	-8.8989
▁መገናኛ	-8.89901
▁ተመልክቷል	-8.89967
▁ሲያ	-8.90181
▁ገ	-8.90297
▁ኬንያ	-8.90357
▁ሲሉም	-8.90488
▁የአንድ	-8.90546
▁ግቦች	-8.90601
▁እናመሰግናለን	-8.90766
▁ህዝቡ	-8.90917
▁ምስሎችን	-8.90945
ተው	-8.90978
▁ካሳ	-8.91301
መጪው	-8.91399
ሸ	-8.91449
▁ጋዜጣዊ	-8.91592
▁አስፈላጊውን	-8.92083
▁ጨዋታውን	-8.92446
▁ወላይታ	-8.92558
▁ማህበር	-8.92662
▁ኢኮኖሚያዊ	-8.92706
▁የዩቲ	-8.92824
▁በሚገኙ	-8.92902
▁ደደቢት	-8.92959
▁በስራ	-8.93034
▁አነስተኛ	-8.93063
▁ጭምር	-8.93121
▁ቴሌግራም	-8.93127
▁ጠቁመው	-8.93326
▁ምቹ	-8.9333
▁ዘላቂ	-8.93361
▁ይወዳጁን	-8.93419
▁ይቀላቀሉ	-8.93425
▁ቆይቷል	-8.93518
▁ቀዳሚ	-8.93652
▁አሰፋ	-8.93837
▁ደርሷል	-8.94007
▁ጠባቂ	-8.94103
▁ባህል	-8.94109
▁የመሬት	-8.94193
▁የመንገድ	-8.94237
▁ኮሪያ	-8.94382
▁ሀገራዊ	-8.94496
▁የተደረገው	-8.94751
ጡ	-8.94813
▁ይጎብኙ	-8.94872
ለው	-8.94911
▁ሰሞኑን	-8.94957
ንግ	-8.94963
▁የሚሆኑት	-8.95003
▁ግዛት	-8.95109
▁አዋጁ	-8.95143
▁ለአንድ	-8.95402
▁አድርገው	-8.95526
ጉ	-8.95532
▁ሀይለማርያም	-8.95549
▁ፋሲል	-8.95643
▁የተሟሉ	-8.9574
▁ወ	-8.95918
▁መብቶች	-8.96089
▁ሰለሞን	-8.96202
▁መኖሪያ	-8.96209
▁ጄኔራል	-8.96283
▁የሀይል	-8.96394
ጠ	-8.96395
▁ይደረጋል	-8.96554
▁አጋጣሚ	-8.96562
▁የሚኖሩ	-8.96634
▁አማካሪ	-8.96746
▁ቱሪዝም	-8.96782
▁መሰረተ	-8.96939
▁የመጀመሪያው	-8.9698
ሁሉም	-8.97095
▁ተደርጎ	-8.97117
▁እንዳለባቸው	-8.97137
▁ለመመለስ	-8.97197
▁የተጀመረው	-8.97225
▁ፕሮፌሰር	-8.97322
▁ፍፁም	-8.97376
▁ደመቀ	-8.97379
ጃ	-8.97482
▁ተጠርጣሪዎች	-8.9765
▁አቅርቧል	-8.97794
▁አሉ	-8.97911
▁ልምምድ	-8.98002
▁ለሚ	-8.98278
▁ኢትዮ	-8.98362
▁ደስታ	-8.98464
▁ለመቆጣጠር	-8.98526
▁ስራውን	-8.98574
▁ዳግም	-8.98602
ባለፈው	-8.98973
▁ምንዛሪ	-8.99002
▁ተጠናቋል	-8.99254
እንደ	-8.99377
▁ከእነዚህ	-8.99485
ዋን	-8.99599
▁ጠቅሰው	-8.99612
ይህ	-8.99645
▁ቀጣይ	-8.99827
▁እንደማይ	-8.99929
ፕ	-8.99968
▁አክለዋል	-9.00003
ጨ	-9.00106
▁ተብለው	-9.00123
▁ሁሉን	-9.00157
▁እምነት	-9.00167
▁ትላንት	-9.00354
▁ሚያዝያ	-9.00728
▁ቱ	-9.00835
▁በቀጥታ	-9.00856
▁ሰአታት	-9.01
▁ሀይለ	-9.01095
▁ትስስር	-9.011
▁በተደረገ	-9.01132
▁እንዲያ	-9.01232
▁ለሁለት	-9.01271
▁ሊሆን	-9.01429
▁ዜናዎችን	-9.01538
▁የዋጋ	-9.01642
▁ክልላዊ	-9.01659
▁መሆኑም	-9.0169
▁ሳይጠብቁ	-9.01721
▁በየአመቱ	-9.01764
▁አንቀፅ	-9.01868
▁የወንጀል	-9.02015
▁ኤምባሲ	-9.02082
▁ሳምንታት	-9.02134
▁የሀይማኖት	-9.02178
▁ይላኩ	-9.02272
▁ብሄር	-9.02618
ፀ	-9.0266
▁የበለጠ	-9.03045
▁አፈ	-9.03159
▁ንቅናቄ	-9.03193
▁እንደሚቀጥል	-9.03251
▁እንደሆኑ	-9.03257
▁ምእራፍ	-9.03261
▁ጥንቃቄ	-9.03597
▁ብልፅግና	-9.03659
▁አደሮች	-9.03663
▁እንደሚደረግ	-9.03734
▁በስፋት	-9.03795
▁ጭማሪ	-9.03835
▁የግንባታ	-9.0389
▁እያደረጉ	-9.0406
▁ዩናይትድ	-9.04178
▁የግብፅ	-9.04215
▁ሚኒስትሯ	-9.04242
▁በመተባበር	-9.04263
▁ፈጠራ	-9.04354
▁ሰዎችን	-9.04372
▁ያል	-9.04382
ኬ	-9.04458
▁ጉዳዩን	-9.04464
▁ፀጥታ	-9.04607
▁መቐለ	-9.04624
▁አማራጭ	-9.04701
▁የሚችል	-9.04708
▁ዘጠኝ	-9.04934
ቡድኑ	-9.04957
▁ሪፖርተር	-9.05042
▁ፀሀፊ	-9.0507
▁ቀውስ	-9.05093
የፋና	-9.05119
▁የሴቶች	-9.05184
▁አረጋግጠዋል	-9.05236
▁እንደሚያደርግ	-9.05258
▁አስተባባሪ	-9.05417
▁መቻሉን	-9.05559
▁የምክር	-9.05676
▁ቢቢሲ	-9.05689
▁ፕሬዚዳንቱ	-9.05693
▁ኢንተርናሽናል	-9.05755
ቷ	-9.05763
▁የህዳሴ	-9.05856
▁ህዝባዊ	-9.05892
▁ገለፀ	-9.05992
▁እንዲሆኑ	-9.06035
▁ህይወታቸው	-9.06112
▁ኤርትራ	-9.06117
▁ሚ	-9.06136
▁መነሻ	-9.06289
ጀ	-9.06411
▁ሰልፍ	-9.06419
▁መሰል	-9.06446
▁የተገለፀው	-9.06515
▁ጉባኤው	-9.06523
▁ልዩነት	-9.06642
▁መጀመሩን	-9.06657
▁በመሆናቸው	-9.06664
▁ባለድርሻ	-9.06843
▁የነዳጅ	-9.07122
▁ቡድኑን	-9.07337
▁ረዳት	-9.07384
ኩንታል	-9.0741
▁ችግሩን	-9.07677
▁ስለሆነ	-9.07786
▁አንስቶ	-9.07968
▁በሁለተኛው	-9.08198
▁ተቀባይነት	-9.08205
▁ማርያም	-9.0822
▁የጠቆሙት	-9.08345
▁አማካይ	-9.08503
▁የኦሮሞ	-9.0852
▁ያስ	-9.08613
ዚ	-9.08779
▁በሰሜን	-9.08837
▁ደንብ	-9.08848
▁ጋዜጣ	-9.091
▁እንደሚያ	-9.09106
▁ፓርክ	-9.09151
▁ግ	-9.09178
▁ደሀንነት	-9.09241
▁ካለ	-9.09277
▁ለፍርድ	-9.09302
▁በጎ	-9.09407
▁ተገቢ	-9.09418
▁ቢሆን	-9.09694
▁በሰጠው	-9.0975
▁የክልል	-9.10002
▁መሳሪያዎች	-9.10078
▁ጨረታ	-9.10089
▁የሚውል	-9.10116
▁የቤት	-9.10357
ቻ	-9.1053
▁ህንፃ	-9.1058
▁ፖለቲካዊ	-9.1059
ለተጨማሪ	-9.10592
ከፌስቡክ	-9.10805
▁ልማትና	-9.1087
▁ሀዳር	-9.10967
▁ምዝገባ	-9.11234
▁ራሱን	-9.11267
▁በዘርፉ	-9.11426
▁ታከለ	-9.11606
▁አልፎ	-9.11632
▁ተገኝተዋል	-9.11841
ቤ	-9.11916
▁ቅሬታ	-9.11927
▁የህብረተሰብ	-9.11999
▁በሶስት	-9.12111
▁መፍጠር	-9.12441
▁ወደፊት	-9.12444
▁የሚያስችሉ	-9.12472
▁አለው	-9.12476
በሌላ	-9.12673
▁ለመቀነስ	-9.12706
▁መጫወት	-9.12733
▁የቆየው	-9.12817
▁አብርሀም	-9.12881
▁መጠቀም	-9.12973
▁ግንባር	-9.12989
ቱን	-9.13048
▁እንደሚችሉ	-9.13056
▁ተከላካይ	-9.13122
▁እንዳላቸው	-9.13166
▁ሚኒስትሮች	-9.13191
▁ነዳጅ	-9.13193
አምስት	-9.13333
▁ከመንግስት	-9.13344
▁ተመስገን	-9.1335
▁በዋናነት	-9.13445
▁ፈተና	-9.13478
▁በተገኙበት	-9.13545
▁የተባለ	-9.13645
ምንጭ	-9.13744
▁ለመቅረፍ	-9.13774
▁ገፃቸው	-9.13897
▁ለማቅረብ	-9.13897
▁ተከታታይ	-9.13984
▁የተባሉ	-9.1403
▁ሀገራቸው	-9.14114
▁እኛ	-9.14146
▁የበጀት	-9.14172
▁በህዝብ	-9.14226
▁አጠናክሮ	-9.14263
▁እንዳሉ	-9.14264
▁እንዲያደርጉ	-9.1427
▁የሚደረገው	-9.14353
▁በመግለጫው	-9.14376
▁የኮቪድ	-9.14442
▁ጠቁሟል	-9.14509
▁ማንኛው	-9.14562
▁ኮንስትራክሽን	-9.14703
በኢትዮጵያ	-9.14797
▁ግለሰብ	-9.14817
▁ፖሊሲ	-9.14818
▁በሱዳን	-9.14838
▁ወታደሮች	-9.14898
▁በበኩሉ	-9.1491
▁ደጋፊዎች	-9.15059
▁ይዘው	-9.15145
▁ብቃት	-9.15167
▁ዜጎችን	-9.15204
▁መልሶ	-9.15268
በታል	-9.15306
▁ትግል	-9.15383
▁ሴት	-9.15441
▁ተሾመ	-9.15482
▁ከአለም	-9.15502
ቷል	-9.15509
▁ሰሜን	-9.15568
▁የገለፀው	-9.15586
▁ኢትዮጵያዊያን	-9.15597
ዴ	-9.15602
▁ኮሙዩኒኬሽን	-9.15621
▁የቴክኒክ	-9.15943
▁የሽብር	-9.15958
ተር	-9.16083
▁የሚቆጠሩ	-9.16177
ፊ	-9.162
▁ገብረ	-9.16281
▁′	-9.16312
▁ደ	-9.16464
▁አስገንዝበዋል	-9.16495
▁የምት	-9.16504
▁የከፍተኛ	-9.16518
▁የጊዜ	-9.16566
▁ጎንደር	-9.16573
▁ርቀት	-9.16736
▁ብልጫ	-9.16873
▁ይልቅ	-9.16875
▁መንገዱ	-9.16896
▁ምርምር	-9.16915
▁እቃዎች	-9.16972
▁ያደርጋል	-9.1725
▁የብድር	-9.17279
▁ጥራት	-9.17285
▁የሚካሄደው	-9.17338
▁የተፈጥሮ	-9.17433
▁ኩባንያው	-9.1771
▁አስቸኳይ	-9.18041
▁መግባባት	-9.18044
▁ክብር	-9.18078
▁የገበያ	-9.18249
▁ማረፊያ	-9.1829
▁ምክክር	-9.18425
▁ኤ	-9.18441
▁መሰረታዊ	-9.18448
▁የኤርትራ	-9.18503
ፈጣን	-9.18504
▁ቦርዱ	-9.18647
▁በፌዴራል	-9.18783
▁ዳንኤል	-9.18892
▁መግለጫው	-9.18893
▁ምሽት	-9.18919
▁በማቅረብ	-9.19036
▁የተያዙ	-9.19071
▁የሚሆን	-9.19098
▁የሚገኝ	-9.19189
▁ዋነኛ	-9.19271
▁በጠቅላይ	-9.19317
▁ባሉ	-9.19319
▁መሆኗን	-9.19341
▁የሚችሉ	-9.19392
አአ	-9.19406
▁ታሀሳስ	-9.19441
▁የሚለው	-9.19447
▁ረቡእ	-9.19572
▁ሶስተኛ	-9.19857
▁ግብረ	-9.19898
▁በከተማዋ	-9.19916
▁እንደሚሰራ	-9.19921
▁አለባቸው	-9.20007
ነቱ	-9.20076
▁ቀድሞ	-9.20114
ቸ	-9.20149
▁አማካይነት	-9.20177
▁ጥላሁን	-9.202
እንዲሁም	-9.20428
▁ግድያ	-9.20462
▁ጠይቋል	-9.20586
▁አደባባይ	-9.20602
▁ለሙሉ	-9.2086
▁ሚንስትር	-9.21016
▁የተያያዘው	-9.21129
▁ካሉ	-9.21251
▁ፊት	-9.21258
▁ትውልድ	-9.21473
▁ግንባታው	-9.21559
▁ግዥ	-9.2156
▁መመሪያ	-9.21581
▁የተፈጠረው	-9.21693
▁ግንዛቤ	-9.21893
▁የተገኙት	-9.22016
አንዳንድ	-9.22057
▁ግልፅ	-9.22125
▁ምስጋና	-9.22205
▁ጥቂት	-9.22245
▁ዴኤታ	-9.22254
▁ገደብ	-9.22298
▁ሙስና	-9.22561
▁ምሁራን	-9.22667
▁ሁለተኛው	-9.22692
ጂ	-9.2281
▁አማራ	-9.22818
▁ማሀበረሰብ	-9.22899
▁የታላቁ	-9.22904
▁ቢራ	-9.22918
▁የክለቡ	-9.22968
▁እየሰሩ	-9.23005
▁ማህበራት	-9.2302
▁ገብተዋል	-9.23105
▁መረጋጋት	-9.23346
▁ያቀረበው	-9.23349
▁ብዛት	-9.23507
▁ተጠቃሚነት	-9.23526
▁አግባብ	-9.23566
▁ሚኒስቴሩ	-9.23643
▁ተሽከርካሪዎች	-9.23777
▁ውድቅ	-9.23785
▁በሀዋሳ	-9.23833
▁ምክንያቶች	-9.23912
▁የተነሳ	-9.23921
ተንቀሳቃሽ	-9.24017
▁ሞ	-9.24181
▁ዳኞች	-9.242
ጌ	-9.24267
▁አመታዊ	-9.24338
▁የቡድኑ	-9.24392
▁ታሪካዊ	-9.24409
▁አገራዊ	-9.24413
▁እንዲቀጥል	-9.24465
▁እንዲህ	-9.2452
▁ፀረ	-9.24576
▁ዳዊት	-9.24647
▁ሲነፃፀር	-9.24724
▁ጣቢያዎች	-9.24773
▁እንዴት	-9.24862
▁ተልእኮ	-9.2503
▁የባንኩ	-9.25301
▁ግዙፍ	-9.25319
▁ዝውውር	-9.25379
▁ያልተ	-9.254
▁ዞኖች	-9.25436
▁ደቂቃዎች	-9.25486
▁በመስራት	-9.25564
▁ትግራይ	-9.25604
▁ያላ	-9.25734
▁የኛ	-9.25768
▁ሀሰን	-9.25837
▁አረብ	-9.25896
▁በዋና	-9.26067
▁የሰጡት	-9.26133
▁ሽመልስ	-9.26191
▁አበራ	-9.2627
▁ሌላው	-9.26271
▁የፖሊስ	-9.26297
▁እጅ	-9.26297
▁ማቆያ	-9.26317
▁የመረጃ	-9.26355
▁በጉዳዩ	-9.26535
▁ፍትህ	-9.26573
▁አለመ	-9.26774
▁የአካባቢው	-9.26824
▁መመርያ	-9.26858
▁ካለፈው	-9.26935
▁እኔ	-9.2697
▁ለማካሄድ	-9.27211
▁አስቀድሞ	-9.27522
በአሁኑ	-9.27564
▁አንደኛ	-9.2758
▁ጉሙዝ	-9.27684
▁ሆሳእና	-9.27738
▁ተገኝተው	-9.2777
ሪያ	-9.27791
▁በባህር	-9.27866
ሰራ	-9.27935
▁የኮሮናቫይረስ	-9.28069
▁አሊ	-9.28169
▁ማስ	-9.2822
▁ቅድሚያ	-9.28273
▁አላ	-9.28304
▁ገና	-9.28348
▁የሚያደርግ	-9.28378
▁አሰልጣኞች	-9.28524
▁ፀጋዬ	-9.28531
▁ህወሀት	-9.28547
▁ሆነዋል	-9.28698
▁ሁኔታዎች	-9.28759
ፉ	-9.28775
▁ቤታቸው	-9.28862
ቢያ	-9.28912
▁እንዲወጡ	-9.28934
▁ተወካይ	-9.29037
▁ሳይንስ	-9.2911
▁ያለመ	-9.29282
▁ባካሄደው	-9.29355
▁ለመጀመሪያ	-9.29393
▁ተናገሩ	-9.29586
▁የሚደረግ	-9.29593
▁አሰጣጥ	-9.29607
▁ክፍተት	-9.29648
▁መስፍን	-9.29795
▁ለዋልታ	-9.29815
▁ግብርና	-9.29855
▁የፀረ	-9.29964
▁ተከሳሾች	-9.30103
▁የተገኘባቸው	-9.3029
▁ዘውዴ	-9.30324
▁ማእከላዊ	-9.30402
▁ደም	-9.30402
▁የተሰማሩ	-9.30451
▁አይዘነጋም	-9.30468
▁የባንክ	-9.3052
▁ጉዳዩ	-9.30604
▁ምግባር	-9.30613
▁በሚደረገው	-9.3064
▁ማድረጋቸውን	-9.30676
▁ስዩም	-9.30696
▁አዳነች	-9.31104
▁እንደሚያስፈልግ	-9.31201
▁ከአፍሪካ	-9.31322
▁ካለው	-9.31419
▁ስለሚ	-9.31501
▁የመሰረተ	-9.31541
▁ቃለ	-9.31563
▁የቅድመ	-9.31846
▁የኢትዮ	-9.31858
▁የድርጅቱ	-9.3195
▁የቆየ	-9.32183
▁ጊዜያዊ	-9.32187
▁የገቢ	-9.32188
▁ሰጥቶ	-9.32317
▁ያደረጉ	-9.32455
▁ሀብታሙ	-9.32697
▁ተጫዋቹ	-9.32712
▁ሳሙኤል	-9.32729
▁ብለዋልየ	-9.32824
▁ፌዴሬሽኑ	-9.32866
▁ዝቅተኛ	-9.32871
▁የስነ	-9.32917
ብን	-9.33002
▁ቀላል	-9.33023
▁ማስረጃ	-9.3312
▁የቦርድ	-9.33197
▁በንግድ	-9.33263
▁እንዲያገኙ	-9.33399
▁ዝናብ	-9.33421
▁ለሚገኙ	-9.33648
▁የምስራቅ	-9.33729
▁በብሄራዊ	-9.33839
▁አስተላልፈዋል	-9.33841
▁ቀርበው	-9.33896
የአዲስ	-9.339
▁በህገ	-9.33915
▁አንዳርጋቸው	-9.33956
ለን	-9.33962
▁በሰላማዊ	-9.33985
▁አስታውሰዋል	-9.3399
▁ለማሳካት	-9.34013
▁የስደተኞች	-9.34222
ኤ	-9.34229
▁በህገወጥ	-9.34259
▁መጀመሪያ	-9.34385
▁ወጥቶ	-9.34463
▁ለሀገር	-9.34541
▁የባህር	-9.3461
▁አዳራሽ	-9.34617
▁ሸዋ	-9.34777
ስለ	-9.3496
▁ተሳታፊዎች	-9.35032
▁ለማምጣት	-9.35077
▁ተከትሎም	-9.35133
▁ልክ	-9.35166
▁ውጤቶች	-9.35185
▁ለማድረስ	-9.35366
▁የምን	-9.35405
▁የሚሰጥ	-9.35419
ሰው	-9.35478
▁እየጨመረ	-9.35498
የዜና	-9.35533
ገባ	-9.35534
▁የለውጥ	-9.3561
▁እንዲሰሩ	-9.35682
▁ሞት	-9.35693
▁ምእራብ	-9.35727
▁ቀሪ	-9.35787
▁ያስረዳል	-9.35799
▁በመፍጠር	-9.35799
▁አቤቱታ	-9.35824
ቹ	-9.35841
▁ከሚገኙ	-9.35936
ፎ	-9.35977
▁የተለየ	-9.35984
▁ልጅ	-9.36132
▁ሀይሌ	-9.36176
▁በመያዝ	-9.36199
▁አለማየሁ	-9.36428
▁ነዋሪ	-9.36429
▁ራሳቸውን	-9.36432
▁ውድድሮች	-9.36474
▁አክሲዮን	-9.3649
▁ካርድ	-9.36504
▁የዜና	-9.36553
ረው	-9.36634
▁ለማሻሻል	-9.37027
▁ትረምፕ	-9.37132
▁አስራ	-9.37144
▁ሙ	-9.3726
▁ሚዲያ	-9.37358
▁ፓርኮች	-9.37398
▁ፕሮጀክቱ	-9.37465
▁ምርጥ	-9.37523
▁መወሰኑን	-9.37608
በመሆኑም	-9.37689
▁ስለዚህ	-9.37742
▁ከማ	-9.37839
▁ኡማ	-9.3786
▁አሰልጣኙ	-9.38025
▁በትናንትናው	-9.38091
▁ኦሮሚያ	-9.38169
▁ዲ	-9.38409
▁መርማሪ	-9.38439
▁የሆነውን	-9.38506
▁ነገሮች	-9.38525
▁ወንዝ	-9.38576
▁ከዚያ	-9.38589
▁ኮ	-9.38593
▁የኢትዮጵያን	-9.38627
▁የተደረገ	-9.38693
▁አለመሆኑን	-9.38848
▁አደረጃጀት	-9.38937
▁መቆየቱን	-9.38943
▁ያላትን	-9.39017
▁ማቅረብ	-9.39048
▁ፈንድ	-9.39206
▁ከሶስት	-9.39231
▁አን	-9.39237
ላት	-9.39361
ፅ	-9.39385
▁ምክንያቱ	-9.39419
▁የመገናኛ	-9.39497
▁ግምገማ	-9.39508
▁ፓርቲው	-9.39567
▁ኤል	-9.39612
▁ወገን	-9.39633
▁የሀገሪቱን	-9.39669
▁አባይ	-9.39704
▁ችግሩ	-9.39723
▁በጥሩ	-9.39744
▁የእድገት	-9.39883
▁ባሉት	-9.39979
▁ኢህአዴግ	-9.39999
▁በጨዋታው	-9.40001
▁ማመንጫ	-9.40002
▁የሁለት	-9.40047
▁ወደብ	-9.40054
መንግስት	-9.40063
▁ሁሴን	-9.40151
▁ብርሀን	-9.40162
▁መድን	-9.40178
▁ተሰማ	-9.40183
ፌ	-9.40556
▁ሲባል	-9.40559
▁ያሉትን	-9.40594
▁መስኮች	-9.40789
▁አርባምንጭ	-9.4079
▁ለመደገፍ	-9.4079
▁ዳኛ	-9.40797
▁እውን	-9.40806
▁የማስከበር	-9.40949
▁የኢህአዴግ	-9.41075
▁ያስፈልጋል	-9.41109
▁እየተከናወነ	-9.41113
▁ሽያጭ	-9.41118
▁ቴሌኮም	-9.41154
▁በማሸነፍ	-9.41156
▁የሚሰሩ	-9.41161
▁ክፍት	-9.41192
▁መለስ	-9.412
▁መናገራቸውን	-9.41246
▁በመግባት	-9.4127
▁በየ	-9.41272
▁ሽረ	-9.41298
▁ሶስቱ	-9.41577
▁አስቸጋሪ	-9.41612
▁ለመሆን	-9.41636
▁ባለሙያ	-9.41652
▁እንደሚገባም	-9.41688
▁በትኩረት	-9.41696
▁ተቋሙ	-9.41836
▁ችለዋል	-9.41914
▁ለጋዜጠኞች	-9.41928
▁ኢንስቲትዩት	-9.4193
▁አጀንዳ	-9.41944
▁የቡና	-9.41947
▁አብሮ	-9.41951
▁ፍትሀዊ	-9.41964
▁የስፖርት	-9.42064
መራ	-9.42093
▁በምስራቅ	-9.42152
▁ግጭቶች	-9.42152
▁ቀርቦ	-9.42171
▁እንዲያደርግ	-9.42184
▁እስራት	-9.4224
▁ማሸነፍ	-9.42288
▁አቀባበል	-9.42451
▁የፓርቲው	-9.42458
▁እንደሚሰጥ	-9.42661
ታቸውን	-9.42767
▁በትብብር	-9.42787
▁የሚመራው	-9.42849
▁ለአለም	-9.4291
▁ከነበረው	-9.42927
▁በውይይቱ	-9.42991
▁ፅቤት	-9.43053
▁ስት	-9.43121
▁የጀመረው	-9.43131
ቼ	-9.43155
▁ተጠቅሷል	-9.43216
▁ተጠርጥረው	-9.43217
▁ኢነርጂ	-9.4324
▁ስህተት	-9.43247
ታዊ	-9.43268
▁አስረድቷል	-9.4338
▁ፋብሪካዎች	-9.43418
ወደ	-9.43477
▁ካፒታል	-9.43578
▁በረከት	-9.43581
▁የመልካም	-9.43621
▁የሚሆነው	-9.43652
▁ግምት	-9.43704
▁እንዲመለሱ	-9.43729
▁የአገሪቱን	-9.43748
▁ዋናው	-9.43758
▁ኢትዮጵያዊ	-9.43795
▁ጋዜጠኞች	-9.43923
▁ኢንፎርሜሽን	-9.43969
▁ሽግግር	-9.44073
▁የባቡር	-9.4431
▁የጨዋታ	-9.44324
▁ይችላሉ	-9.44369
▁ተገቢውን	-9.44395
▁እንደሚሰሩ	-9.44421
▁የአካል	-9.44432
ሂ	-9.44564
▁ፕሬዚደንት	-9.44606
ያን	-9.44769
▁ቀበሌ	-9.44812
▁ቆይተዋል	-9.44867
▁የሙስና	-9.44868
▁በሽታ	-9.44935
ኦ	-9.44992
▁እንቅስቃሴዎች	-9.4516
▁ትራንስፎርሜሽን	-9.45202
▁ሜጋ	-9.45236
▁ተጠያቂ	-9.45272
▁ዳ	-9.45307
▁አባቶች	-9.45318
ኢ	-9.45384
▁በአዳማ	-9.45395
▁የስልጣን	-9.45505
▁ሊቀ	-9.4551
▁አለሙ	-9.45548
▁ል	-9.45576
▁ትርፍ	-9.45621
▁የከተማው	-9.45626
ዛሬ	-9.45677
▁ያቀረቡት	-9.45747
▁ገልፀዋልየ	-9.45795
▁ባይ	-9.458
▁የተገኙ	-9.45804
▁እነዚህን	-9.45837
▁ስነስርአት	-9.45893
▁ፅሁፍ	-9.45919
▁ተካሂዷል	-9.45989
▁የሰሜን	-9.46085
▁እንደሚያደርጉ	-9.46153
▁የተሰጠው	-9.46209
▁ሳህለወርቅ	-9.46209
▁ኦባማ	-9.46276
ኛው	-9.46363
▁በቀን	-9.46381
▁በማሰብ	-9.46403
▁ስሜት	-9.46461
▁እንደሚጠበቅ	-9.46462
▁ክሱ	-9.46527
▁ነጋዴዎች	-9.4653
በርካታ	-9.46543
ስምምነት	-9.46569
▁አገልግሎቶች	-9.4665
▁በትምህርት	-9.46712
ምክትል	-9.46714
▁መላኩ	-9.46724
▁ምጣኔ	-9.46862
▁በመጀመሪያው	-9.46867
▁የተቋቋመው	-9.46895
▁የፍትህ	-9.46959
▁ሰጪ	-9.47146
▁መድሀኒት	-9.47219
▁በቻይና	-9.47223
▁እንዳስታወቁት	-9.47397
▁እድሜ	-9.47492
▁ለማከናወን	-9.47597
ኢዜአ	-9.47601
▁ተፈጥሮ	-9.4778
▁ለጎን	-9.47782
▁የመከላከል	-9.47796
▁ቴዎድሮስ	-9.47801
ቴሌግራም	-9.47906
▁ከቫይረሱ	-9.47934
▁ዘርፉ	-9.47955
▁አኳያ	-9.48085
▁ሂደቱ	-9.48271
▁የተወሰነ	-9.48275
ናቸው	-9.4831
▁ፋይናንስ	-9.48404
▁ሀሳቦች	-9.48548
▁የሚገኘውን	-9.48583
▁ተጠናቆ	-9.486
▁አስተዳዳሪ	-9.48607
ጊ	-9.48681
▁እርምጃዎች	-9.48683
▁ያስታወቀው	-9.48699
▁ተናግረዋልየ	-9.48724
▁ይካሄዳል	-9.48773
▁የኬንያ	-9.48786
▁ከተያያዘው	-9.48792
▁ሶማሊያ	-9.48875
▁ዜጋ	-9.48895
▁ቤተሰቦች	-9.48899
▁ነጥቦች	-9.48901
▁ፍቃድ	-9.49025
▁ክለቡን	-9.49038
▁እንዲደረግ	-9.4924
▁ቢያንስ	-9.49304
▁እስኪ	-9.49439
▁ገልፆ	-9.49468
ፍፁም	-9.49474
ፓ	-9.49541
▁አር	-9.49569
▁የሚባል	-9.49579
▁ክልሉ	-9.49651
▁አአ	-9.49669
▁የሚሉ	-9.49685
▁በግብፅ	-9.49695
▁እንደሚካሄድ	-9.49721
▁በዘላቂነት	-9.49822
▁አጠቃቀም	-9.49876
▁መምሪያ	-9.49958
▁ፕሪሚየር	-9.49966
▁ከተማን	-9.50224
▁መድረኩ	-9.50239
▁ኮከብ	-9.50362
▁ማረጋገጫ	-9.50381
▁በክለቡ	-9.50402
▁እንዲሰጥ	-9.50478
▁አሳስቧል	-9.50519
▁እንዲሰጡ	-9.50749
▁ተወያይተዋል	-9.5077
▁ዘይት	-9.50811
▁እጣ	-9.50923
▁የከተማዋ	-9.51003
▁ከደቡብ	-9.51013
▁ያሳያል	-9.5105
▁ሚያዚያ	-9.51052
▁እገዛ	-9.51092
▁ግብሩ	-9.5114
እረፍት	-9.51205
▁መዘገባችን	-9.51227
▁ሙላቱ	-9.51229
▁ሲያደርግ	-9.51233
▁ታጣቂዎች	-9.5125
▁ልጆች	-9.51295
▁የዚህ	-9.51312
▁አምራች	-9.51324
▁ፍሬ	-9.51439
▁ይዞታ	-9.51478
▁ብለዋልበ	-9.51482
▁ስኳር	-9.51554
ላከው	-9.51624
▁በሰው	-9.51668
▁ገልፀዋልበ	-9.51705
ቻቸው	-9.51751
ልን	-9.51775
▁ዋት	-9.51846
▁ይቅርታ	-9.51978
▁ሶ	-9.51987
▁ሲደረግ	-9.52007
▁መኖራቸውን	-9.52027
▁የማድረግ	-9.52029
▁በአዲሱ	-9.52047
▁ያለበት	-9.52049
▁ሁከት	-9.52056
▁ለኛ	-9.52127
▁ብሎም	-9.52278
▁ክርስቲያን	-9.52346
▁ግድቡ	-9.52369
▁ልደታ	-9.52586
▁ሪፖርቱ	-9.52598
▁ለተ	-9.52653
▁በቀላሉ	-9.52657
▁የውሳኔ	-9.52715
ቭ	-9.52746
▁በአመት	-9.52761
▁መዝገብ	-9.52766
▁ባለስልጣኑ	-9.5283
▁የመስመር	-9.52867
▁ገዱ	-9.52948
▁ዘር	-9.52973
▁ሚካኤል	-9.53045
ሮች	-9.53145
▁ሙያ	-9.53203
▁በምእራብ	-9.53245
▁የሚለውን	-9.53297
▁ፕሬስ	-9.53308
▁ህይወታቸውን	-9.53344
▁የምርት	-9.53364
▁በመላ	-9.5357
▁የሁለቱን	-9.53576
▁ማሀበራት	-9.53609
ቋ	-9.53672
▁የአገልግሎት	-9.53682
▁አዛዥ	-9.53744
▁ለማቋቋም	-9.53748
▁ግማሽ	-9.53753
▁ማረጋገጥ	-9.53755
▁ማሞ	-9.53759
▁ቅርንጫፍ	-9.53813
▁ምርጫው	-9.53851
▁የተካሄደው	-9.5389
▁ለመግታት	-9.53933
▁እንዳስታወቀው	-9.53951
▁ስትራቴጂ	-9.5401
▁ስምምነቱ	-9.5402
▁ወርቅ	-9.54213
▁በአስቸኳይ	-9.5423
የክልሉ	-9.54247
▁ኮሚሽነሩ	-9.54278
▁እንዲፈቱ	-9.54315
▁ሹመት	-9.54358
▁ፍፃሜ	-9.54461
▁ጥሰት	-9.54511
▁በተሻለ	-9.54532
▁ለህግ	-9.54533
▁ባቡር	-9.54549
▁መጠናቀቁን	-9.54626
▁ናት	-9.54665
ቪ	-9.54704
▁ፖለቲካ	-9.54718
▁ህጉ	-9.54736
ምክር	-9.54795
ግንቦት	-9.54847
ደር	-9.54916
▁የመስኖ	-9.54929
አራት	-9.54968
▁አካዳሚ	-9.54996
▁ገብቷል	-9.55027
ፕሬዚዳንት	-9.55148
▁እስር	-9.55297
▁ያለፈ	-9.55314
▁ይላል	-9.55433
▁ፍቃዱ	-9.55436
▁በመቀጠል	-9.55458
▁ዙርያ	-9.55516
▁ቀ	-9.55579
▁ያልሆኑ	-9.55581
▁ማሳያ	-9.55672
▁ሆ	-9.55732
▁የበላይነት	-9.55736
▁ኢሳያስ	-9.55765
▁ለሌሎች	-9.55788
▁በተያዘው	-9.55863
▁እንደነበረ	-9.55947
▁ለሶስት	-9.55955
▁ማጣሪያ	-9.56067
▁የመጀመርያው	-9.56088
ሰባት	-9.56105
▁አሳ	-9.56157
▁ቋንቋ	-9.56167
▁ከጠቅላይ	-9.56197
▁የወጣው	-9.56201
▁የተመሰረተ	-9.56316
▁ፎረም	-9.56323
▁ማጠናከር	-9.5633
▁ቀጥሎ	-9.56377
ሁለቱ	-9.56414
▁የደረሰው	-9.56445
▁ግብይት	-9.56489
ጥቂት	-9.56549
ራቸው	-9.56582
▁ከአ	-9.56592
▁የቻለው	-9.5662
▁ለአፍሪካ	-9.56723
▁ከሜዳ	-9.5673
ውያን	-9.56738
▁ተከላ	-9.56747
▁አያያዝ	-9.56768
▁እያለ	-9.56801
▁በቅርብ	-9.56828
▁በሚካሄደው	-9.56841
▁ሶከር	-9.56866
▁የጠቆመው	-9.56902
ነታቸው	-9.5701
▁በማስገባት	-9.57073
▁በእለቱ	-9.57076
▁ደስ	-9.57118
▁የሁለትዮሽ	-9.57144
▁የአለማችን	-9.57167
▁በሚያ	-9.57217
ገኝ	-9.57268
▁እንዲገቡ	-9.57301
ነቱን	-9.57397
▁ማእረግ	-9.57531
▁ደንበኞች	-9.5775
▁ስልክ	-9.57855
▁በመላው	-9.57906
▁ቤቶችን	-9.57994
▁አልፏል	-9.58028
▁በጤና	-9.58032
▁ዩኒቨርስቲ	-9.58036
▁ሙሉጌታ	-9.58069
▁ክርክር	-9.5809
▁በየነ	-9.58164
▁ለመንግስት	-9.58211
▁ሽማግሌዎች	-9.58233
▁በምክትል	-9.58322
▁ይገኙበታል	-9.58399
▁እንደሌለ	-9.58408
▁በእስር	-9.58436
▁የሌለው	-9.585
▁የሚገቡ	-9.58548
▁ከሰሞኑ	-9.5861
▁ብዬ	-9.5861
▁የቀረበው	-9.58624
ግብ	-9.58627
▁አሸናፊነት	-9.58646
▁ለምን	-9.58709
▁ውድድሩ	-9.58718
▁መግባት	-9.58788
▁አልተ	-9.5879
ኖች	-9.58794
▁ዋልታ	-9.58971
ተን	-9.58983
▁ነውየ	-9.58986
▁የቴክኖሎጂ	-9.59024
▁ሲካሄድ	-9.59029
ዶክተር	-9.59087
▁የከፋ	-9.59124
▁አጋር	-9.5919
▁ጥፋት	-9.59207
▁በቀጣዩ	-9.59301
▁ሀያ	-9.59339
▁ሲሳይ	-9.59363
▁የሚሰጠው	-9.5956
▁አባላትን	-9.59561
▁ቦ	-9.59561
▁እንደነበሩ	-9.59589
▁አባተ	-9.59644
▁ስያሜ	-9.59649
▁ሰራተኛ	-9.59802
▁እንድት	-9.59924
▁ከእስር	-9.59962
▁ብሄረሰቦችና	-9.60012
▁ስኬታማ	-9.60089
▁አብዲ	-9.60176
▁ጠባቂው	-9.60203
▁ታላቁ	-9.60218
▁የተገኘ	-9.60233
ባለፉት	-9.60263
▁የተውጣጡ	-9.60274
▁በግልፅ	-9.60314
▁ማሀበራዊ	-9.60324
▁አደሩ	-9.60371
▁የተገለፀ	-9.60379
▁ባሳለፍነ	-9.6047
▁ጣልቃ	-9.60518
▁እንዳልሆነ	-9.60521
▁ዋኢማ	-9.60774
▁ከመሆኑ	-9.60823
▁ወልዋሎ	-9.6092
▁መደረጉ	-9.60976
▁ጋ	-9.61101
▁ከወዲሁ	-9.61118
▁መምጣቱን	-9.61144
▁እንዲኖር	-9.61154
▁የላቦራቶሪ	-9.61347
▁ርብርብ	-9.61349
ሊግ	-9.61433
▁ግብአት	-9.61441
▁ገቢዎች	-9.61457
▁ማድረጉ	-9.61543
አመታት	-9.61639
▁በቀል	-9.61669
▁ተናግሯል	-9.61694
▁ነኝ	-9.61711
▁አገራቸው	-9.61833
ክል	-9.61858
▁ለውጭ	-9.61897
▁ምድር	-9.61902
▁በኬንያ	-9.61913
ተዋል	-9.61922
▁ማእከላት	-9.61936
▁ምህረት	-9.62005
▁ያሬድ	-9.62018
ትኩስ	-9.62037
▁የባህል	-9.62039
▁ዩኒቨርሲቲዎች	-9.6205
▁ከክልሉ	-9.62099
▁መንፈስ	-9.62157
▁ሰበታ	-9.62183
▁መስጫ	-9.62195
▁መኖሩን	-9.62235
▁የጉዞ	-9.62286
▁የሽግግር	-9.62326
▁ተያያዥ	-9.62379
▁ኮሎኔል	-9.62396
▁በወቅታዊ	-9.62441
▁ብ	-9.62722
▁በኤርትራ	-9.62754
▁መያዙን	-9.62872
▁ቀርቧል	-9.62884
▁ግዜ	-9.62916
▁በሊጉ	-9.62965
▁በምርመራ	-9.63037
▁ስርአቱን	-9.63071
ጆ	-9.63149
▁ግዴታ	-9.63165
–	-9.63242
▁ጀምሯል	-9.63283
▁የማእድን	-9.63288
▁የድጋፍ	-9.63301
▁ተከሳሾቹ	-9.63321
▁የተቀናጀ	-9.6337
▁ብረት	-9.63399
▁በድምሩ	-9.63483
▁ቦሌ	-9.63484
▁እያደገ	-9.63495
▁ጨምረው	-9.63511
▁ዴሞክራሲ	-9.63578
▁ስኬት	-9.63587
▁አልባ	-9.63615
▁ተማሪዎችን	-9.63668
▁የንግድና	-9.63677
▁የጎላ	-9.63703
▁እንደርታ	-9.63719
▁ጆ	-9.63739
አዲሱ	-9.63758
▁ለአሜሪካ	-9.63794
▁በገንዘብ	-9.63828
▁ሸ	-9.6389
▁በሚመለከት	-9.63896
▁ሲያደርጉ	-9.63906
▁በመገኘት	-9.63954
▁ለመጫወት	-9.64115
▁ከትናንት	-9.6413
▁እዝ	-9.64156
▁በመከላከያ	-9.64211
▁መረብ	-9.64212
መጣ	-9.64252
▁ተናግረዋልበ	-9.64329
▁ማሳደግ	-9.64493
▁እጩ	-9.64537
▁ፅኑ	-9.64621
▁አካሂዷል	-9.64688
▁ሽፋን	-9.64694
▁መቆጣጠር	-9.6471
▁የመኖሪያ	-9.64711
▁ሂሳብ	-9.64734
▁ሲሚንቶ	-9.64754
ላቸዋል	-9.65086
▁ለመግባት	-9.65101
▁የትራፊክ	-9.65127
▁ቁልፍ	-9.65141
▁ማለታቸውን	-9.65148
▁ማእቀፍ	-9.65154
▁ማድረጋቸው	-9.65167
▁ከመቶ	-9.65169
▁ጥቃቶች	-9.6522
▁የውይይት	-9.65256
▁መስተዳድሩ	-9.65349
▁ጥ	-9.6538
▁በኋላም	-9.65388
▁የቅዱስ	-9.65482
▁የሀዋሳ	-9.65548
▁ትውልደ	-9.6555
▁ማረሚያ	-9.65594
▁ጠቅሶ	-9.65715
▁እንዲወጣ	-9.6573
▁ምክረ	-9.65736
▁ሪ	-9.65767
▁በማጠናከር	-9.65923
ሺ	-9.65955
ፕሬዚዳንቱ	-9.65967
▁አክለው	-9.65985
መልሶ	-9.66084
▁በግል	-9.66285
▁የላቀ	-9.66349
▁እንደገና	-9.66374
▁የደረሰ	-9.66389
▁ማጣርያ	-9.6654
ፕሪምየር	-9.6655
▁ሀሰተኛ	-9.66681
▁መስክ	-9.66685
▁ስፍራዎች	-9.66714
▁ጅፋር	-9.66746
▁የሚደረጉ	-9.66806
▁የያዘ	-9.6683
▁ተንቀሳቃሽ	-9.66891
▁ልውውጥ	-9.66953
▁አሸንፏል	-9.66953
▁ተገናኝተው	-9.66954
▁የዋስትና	-9.67018
▁መስኖና	-9.67024
▁በር	-9.67072
▁በመጥቀስ	-9.67161
▁የክስ	-9.67177
ቂ	-9.67359
▁የሚሰጡ	-9.67376
▁የተባሉት	-9.67428
▁ጀማል	-9.67447
▁ባለበት	-9.67461
በረ	-9.67508
▁አካባቢው	-9.67531
▁እድሎች	-9.67543
▁ኤጀንሲው	-9.67574
▁ያድምጡ	-9.67787
▁የወጣቶች	-9.67812
▁ርእስ	-9.6785
▁ያገገሙ	-9.67859
▁መካከለኛ	-9.67892
ባቸዋል	-9.67924
▁ነጋ	-9.67987
▁ከቻይና	-9.68024
▁እንዲካሄድ	-9.68025
ነሳ	-9.68143
▁ጂ	-9.68158
▁መገንባት	-9.68207
▁ወልቂጤ	-9.68227
▁ሞገስ	-9.68268
▁የቱሪዝም	-9.68297
▁በሚገኝ	-9.68356
▁እዚህ	-9.68374
▁የሰጠው	-9.6843
ጤ	-9.68456
▁አያሌው	-9.68486
▁መምህር	-9.68509
▁በተለያየ	-9.6856
▁መሪነት	-9.68616
▁ለረጅም	-9.68633
▁ማለፉን	-9.68661
▁ወሎ	-9.68676
▁የትብብር	-9.68696
▁ተሰምቷል	-9.6884
▁የውጪ	-9.68965
▁እቃ	-9.69132
▁በሁለቱም	-9.69308
▁ኢብራሂም	-9.69319
▁ካሬ	-9.69371
▁እርስ	-9.69389
▁ቀይ	-9.69466
▁በበጀት	-9.69507
▁ያተኮረ	-9.69518
ቀናት	-9.69538
▁ተፈራ	-9.69542
▁ሽ	-9.69688
▁ምልክት	-9.6969
▁ስራቸውን	-9.69734
▁አካሄድ	-9.6974
▁ኤፍሬም	-9.69794
▁ምርቶችን	-9.69796
▁በራሱ	-9.69807
▁ወቅትም	-9.69809
▁የጠቀሱት	-9.69904
▁ያነሱት	-9.69953
▁ልኡክ	-9.69992
▁ከሱዳን	-9.70203
▁የገባው	-9.70243
▁በምርጫ	-9.70277
▁ከአሜሪካ	-9.70371
▁አዳነ	-9.70373
▁ሽፈራው	-9.70547
▁በስቲያ	-9.70548
▁የደህንነት	-9.7058
▁ከሀገር	-9.70597
▁በአፋር	-9.70603
▁ኪ	-9.70671
▁ወጣቱ	-9.70689
▁ተረጋግጧል	-9.70763
ላይ	-9.70784
▁የሚደርሱ	-9.70787
▁ከዛሬ	-9.70905
መር	-9.70919
ለይቶ	-9.70962
▁እንስሳት	-9.71036
▁የበጎ	-9.71087
▁የሚኒስትሮች	-9.71111
▁ተጀምሯል	-9.71195
▁መክረዋል	-9.71196
▁ይሰራል	-9.71221
በተመሳሳይ	-9.71273
▁ታክስ	-9.71315
▁በከተማ	-9.71352
▁ከሚመለከታቸው	-9.71371
▁ያወጣው	-9.71371
▁ወርቅነህ	-9.71416
ለሁ	-9.71445
▁የእሳት	-9.71499
▁በነፃ	-9.71594
▁ጎ	-9.7162
▁አብዛኞቹ	-9.71635
▁ለማጠናቀቅ	-9.71638
▁የሚመለከታቸው	-9.71645
▁ኮማንደር	-9.71667
▁እንደሚኖረው	-9.71674
ፖ	-9.7174
▁በክሱ	-9.71748
▁በእርስ	-9.71817
▁በማህበራዊ	-9.71821
▁ይግባኝ	-9.71825
ለች	-9.71872
▁የእርሻ	-9.71885
▁እውቀት	-9.71935
▁ለይቶ	-9.72027
▁ያስችላል	-9.72066
▁ከአገር	-9.72174
▁ኮንጎ	-9.72208
▁ይፋዊ	-9.72213
▁እስራኤል	-9.7225
ሆ	-9.72261
▁ታቅዶ	-9.72287
▁ብይን	-9.72508
ይሁን	-9.72579
▁የሶስት	-9.72587
ያቸው	-9.72751
▁ዘመኑ	-9.72771
▁የወጪ	-9.72796
▁በፀጥታ	-9.72819
▁ሰራዊቱ	-9.72827
▁ተደራሽ	-9.72841
▁ድ	-9.72978
▁የሂሳብ	-9.72986
▁ካላቸው	-9.73008
በተያያዘ	-9.73181
▁መስራች	-9.73207
▁ፕሮጀክቶችን	-9.73232
▁የሚሉት	-9.73291
▁የአካባቢ	-9.73333
▁ለህልፈት	-9.73386
ፒ	-9.73387
▁ሲሰራ	-9.73418
▁መገኘቱን	-9.73429
▁በልዩ	-9.73464
▁ቀንድ	-9.73495
▁መምህራን	-9.73523
▁በስተቀር	-9.73608
▁ጥቆማ	-9.73641
▁የተጠረጠሩ	-9.73642
▁በሆነው	-9.73677
▁የዴሞክራሲ	-9.73697
▁የጥፋት	-9.737
▁የሙከራ	-9.73711
ሹ	-9.7374
▁የሚሰራ	-9.73791
▁ብሩክ	-9.73798
▁ጥገና	-9.73804
▁ህመም	-9.73814
▁ገብተው	-9.73833
▁ማእቀብ	-9.73876
▁የዝውውር	-9.73894
▁በአራት	-9.73911
▁ይላሉ	-9.74069
▁የሚደረገውን	-9.74126
ሆን	-9.74143
▁መግለፃቸውን	-9.74196
▁ለማስቀጠል	-9.74276
▁መውጣት	-9.74387
▁ጀነራል	-9.74413
▁በነገው	-9.74417
▁እንዳል	-9.74457
▁ካል	-9.7448
▁በየጊዜው	-9.74499
▁ራ	-9.74537
▁መስቀል	-9.74579
▁ነባር	-9.74591
▁ተቃዋሚ	-9.74602
▁ክ	-9.74606
የውጭ	-9.74621
▁ማን	-9.74693
▁በሶማሊያ	-9.74728
▁ደስተኛ	-9.74729
▁የቀረበ	-9.74759
▁አጀንዳዎች	-9.74765
▁ቲ	-9.74797
▁ትክክለኛ	-9.748
ባቸውን	-9.74862
▁ጠቀሜታ	-9.74912
▁የሚያደርገው	-9.74914
▁ያለፉትን	-9.74956
ነሽ	-9.74969
▁በግብርና	-9.75022
▁አላቸው	-9.75149
▁የእግር	-9.75171
▁መጀመርያ	-9.75268
▁የተወሰኑ	-9.75315
▁ታላቅ	-9.75471
▁ህብረተሰብ	-9.75476
ሄ	-9.75524
▁ሀይማኖት	-9.75541
▁ወስኗል	-9.75626
▁ኢንጅነ	-9.75628
▁አብረው	-9.75631
▁ጅቡቲ	-9.75694
▁የልኡካን	-9.75695
▁ክትባት	-9.75711
ዎቹን	-9.75714
▁ኮንትራት	-9.7574
▁በተጠናቀቀው	-9.75769
▁መሀል	-9.75827
▁ያለምንም	-9.75883
▁በዝርዝር	-9.75895
′	-9.75936
▁የድንበር	-9.76053
▁አጥ	-9.76136
▁ያካተተ	-9.76145
▁ተጋላጭ	-9.76217
▁በረራ	-9.76231
▁በቅንጅት	-9.76307
▁ግሩፕ	-9.76313
▁አለመግባባት	-9.76315
በውይይቱ	-9.76316
▁ተጨዋቾች	-9.76323
▁ለመጠቀም	-9.7634
▁የክልሉን	-9.76377
ጁ	-9.76455
▁ሀላፊነቱን	-9.76492
▁ጉምሩክ	-9.76536
▁ቀርቷል	-9.76539
▁አቤቤ	-9.76542
▁የሚካሄድ	-9.76546
▁ባህላዊ	-9.76633
▁ስታ	-9.76654
▁በድሬዳዋ	-9.76758
▁ሀዘን	-9.7678
▁ማስጠንቀቂያ	-9.76807
▁የሲዳማ	-9.7689
▁የምክክር	-9.76897
▁የቆዩ	-9.76901
▁ታዋቂ	-9.76923
▁ያደርጋሉ	-9.76994
▁ይናገራሉ	-9.76994
▁ላለው	-9.77046
▁አረጋ	-9.77083
▁አስተያየታቸውን	-9.77102
▁በጉዳት	-9.77109
▁አትሌት	-9.77116
▁ቀበሌዎች	-9.7718
▁በሚገባ	-9.77186
▁በመለየት	-9.77224
▁ቴድሮስ	-9.77224
▁ገልጧል	-9.77224
▁መድረሱ	-9.77256
▁ከተማዎች	-9.77385
▁እየታየ	-9.77422
▁እንግዶች	-9.77537
▁በተካሄደ	-9.77554
▁አደር	-9.7765
ዙ	-9.77673
▁ዳይሬክቶሬት	-9.77685
▁ጉልህ	-9.77689
▁ተወላጆች	-9.77694
▁መዋቅር	-9.77716
▁እንደሚቻል	-9.77716
▁ድርቅ	-9.77756
▁የሚዲያ	-9.77763
▁የውስጥ	-9.77766
▁መቀጠል	-9.77807
▁ለማስጠበቅ	-9.77918
▁አለመረጋጋት	-9.7792
▁ለጊዜው	-9.77945
▁የሚያሳይ	-9.77945
▁ማኔጅመንት	-9.7797
▁ተፎካካሪ	-9.77979
▁አንደኛው	-9.78059
▁ተወዳዳሪ	-9.78062
▁መመለስ	-9.78073
አለም	-9.78087
ክረምቱ	-9.78088
ሯ	-9.7814
▁በአሉ	-9.78191
▁ታፈሰ	-9.78215
▁መሻሻል	-9.78242
▁በመውሰድ	-9.78262
ሀምሌ	-9.78275
▁ማስቆጠር	-9.78291
▁ተጠርጣሪዎቹ	-9.78308
በሽታው	-9.78589
▁ገፁ	-9.78854
መረብ	-9.79014
ሽን	-9.79044
ይህንን	-9.79053
ወጡ	-9.79056
▁ዲግሪ	-9.79079
▁ጋዜጠኛ	-9.79147
▁የሚያደርጉት	-9.79204
▁በኮቪድ	-9.79215
ተከላካይ	-9.79227
▁ይመስላል	-9.79317
▁ጌታሁን	-9.79317
▁ተግባራትን	-9.79319
▁እርሻ	-9.79376
▁የሚያስ	-9.79444
▁መር	-9.79457
▁ባላቸው	-9.79459
▁ብቸኛ	-9.79498
▁መንስኤ	-9.79509
ኛል	-9.79526
▁ጎሎች	-9.7955
▁ሲጠናቀቅ	-9.79618
ወረርሽኙ	-9.79638
▁ያህሉ	-9.79786
▁ተሳትፈዋል	-9.79788
▁ሙከራዎች	-9.79812
▁መጠበቅ	-9.79812
▁አርብቶ	-9.79817
▁የሚጠበቀው	-9.79843
▁አክለውም	-9.79852
▁ፋይዳ	-9.79876
▁እሴት	-9.7988
▁አያይዘውም	-9.79913
▁በአብዛኛው	-9.79972
▁ተወልደ	-9.80024
▁ማምረት	-9.80025
▁የብልፅግና	-9.80051
▁መጠናቀቅ	-9.80057
▁ማር	-9.80212
▁ይቀጥላል	-9.80261
▁የሶማሊያ	-9.8027
▁ህግን	-9.80304
▁አገልግሎቱን	-9.80394
ዜ	-9.80399
ሚኒስትሩ	-9.80405
▁ለመጀመር	-9.80429
▁ለመጠበቅ	-9.80504
▁የሌላቸው	-9.80516
ደቡብ	-9.80517
▁የለውም	-9.80537
▁ለአገር	-9.80564
ነገር	-9.80729
▁ፍቅር	-9.80798
▁ነውበ	-9.80811
▁አባላቱ	-9.80833
▁እያከናወነ	-9.80848
▁ንጉሴ	-9.81022
▁የተነገረው	-9.81063
አሰልጣኝ	-9.81144
▁ለቆ	-9.81151
▁የተከሰተው	-9.81153
▁በሶማሌ	-9.81225
▁ፉክክር	-9.81297
▁የብር	-9.81442
▁ቢቂላ	-9.81455
▁አስታውሷል	-9.81455
▁ውጤቱ	-9.81533
▁ሰላምን	-9.8155
▁አደጋዎች	-9.81592
▁ላለ	-9.816
▁ለቪኦኤ	-9.81732
ማን	-9.81734
▁የተዘጋጀ	-9.81792
▁ጉዳዮችን	-9.81832
▁በተፈጠረው	-9.8186
▁የቆዩት	-9.81871
ፈር	-9.81892
▁በማሳደግ	-9.81937
▁በክልል	-9.81938
▁የተፈናቀሉ	-9.81942
▁ወሰን	-9.81962
▁ሩብ	-9.81971
▁ይቻላል	-9.81983
▁ሰኢድ	-9.81995
▁ተደጋጋሚ	-9.82005
▁ደካማ	-9.82026
▁በተግባር	-9.82077
ቀጣዮቹ	-9.82179
▁ተቀብለው	-9.8218
▁አራተኛ	-9.82241
▁የሲቪል	-9.82357
ዶር	-9.82373
▁እዳ	-9.82422
▁የፊታችን	-9.82435
▁ነክ	-9.82474
▁ጉ	-9.82481
▁አስፈፃሚው	-9.82503
▁ኤስ	-9.82569
▁እያካሄደ	-9.82602
ቺ	-9.82624
▁ሯንዳ	-9.82639
▁በእጅጉ	-9.8291
▁ያልሆነ	-9.82937
▁ያላት	-9.82954
▁ጥምረት	-9.82954
▁ባቀረቡ	-9.83042
ክስ	-9.83047
መን	-9.83092
▁መርሀግብር	-9.83157
▁አንዷ	-9.8316
▁መኪና	-9.83171
▁መያዛቸውን	-9.83236
▁ተቋማትን	-9.83425
▁ያለባቸው	-9.8343
▁በርስ	-9.83435
▁አቀባዩ	-9.8364
▁ዝቅ	-9.8365
በው	-9.83694
▁ድንቅ	-9.83707
▁አውሮፓ	-9.83711
▁አጭር	-9.83735
▁የመፍትሄ	-9.83768
▁የህፃናት	-9.83804
▁ምትክ	-9.83841
▁ቀጥሏል	-9.83885
▁ሪፐብሊክ	-9.83888
ዊው	-9.83922
▁ማለዳ	-9.84017
▁ለሰላም	-9.84079
▁የሳይንስ	-9.84105
▁በመገንባት	-9.84131
▁የበኩሉ	-9.84191
▁እንኳ	-9.84238
ፃ	-9.84251
ይህም	-9.84262
ዞ	-9.84291
▁የሚታየው	-9.84315
ሟ	-9.84365
▁ሽንፈት	-9.84395
▁ለመሳተፍ	-9.84671
▁የበኩላቸው	-9.84688
▁ድንገተኛ	-9.84712
▁በፅኑ	-9.8479
▁ቡናን	-9.84821
▁ያስታወቁት	-9.84903
▁ማስፈፀሚያ	-9.84959
▁ዝግጅቶች	-9.84985
▁የመጡ	-9.85028
▁ችለናል	-9.85123
▁ተሰጥቷል	-9.85127
▁ተዋህ	-9.8513
▁ማጥቃት	-9.85133
▁ባል	-9.852
▁ትልቁ	-9.85242
▁መስጠቱን	-9.85266
▁በራሳቸው	-9.85279
▁ያሳለፈው	-9.85299
ንደቅ	-9.8531
▁የድሬዳዋ	-9.85361
▁ታሳቢ	-9.85372
▁በብዛት	-9.85373
▁በሚቀጥለው	-9.85463
▁አሳሳቢ	-9.85525
▁ቁሳቁሶች	-9.85526
▁ስሁል	-9.85587
ከር	-9.85639
▁በሞት	-9.85679
▁ተፋሰስ	-9.85698
▁የህገ	-9.85727
ሪፖርተር	-9.8573
▁ፓ	-9.85825
▁ማእከሉ	-9.85926
▁የሚመራ	-9.85929
ኙ	-9.85976
▁በአመቱ	-9.85986
▁ኤልያስ	-9.85989
▁በምን	-9.86016
ራክ	-9.86057
▁ሆቴሎች	-9.86198
ስት	-9.86205
▁ደሴ	-9.86219
▁በየደረጃው	-9.86225
▁የእ	-9.86294
▁የማህበራዊ	-9.86304
▁ተከሳሽ	-9.86307
▁በፅህፈት	-9.86308
▁አማኑኤል	-9.86317
▁የተሳተፉ	-9.86318
▁ይሆናሉ	-9.86376
▁ከህዝብ	-9.86379
▁ዘርፈ	-9.86405
▁ቤቱን	-9.86418
▁አሰ	-9.86487
ማር	-9.86489
ችሁ	-9.8655
▁ስምምነቱን	-9.86559
▁ሶማሌ	-9.86628
▁ጌትነት	-9.86629
እስካሁን	-9.86687
▁ሰሚ	-9.86703
▁ስቴት	-9.86773
▁በተለየ	-9.86886
▁ከኮሮና	-9.86946
▁ተከላካዩ	-9.86955
ሚቀጥሉት	-9.86956
ቀኑ	-9.86965
▁በአንፃሩ	-9.87094
▁በዘንድሮ	-9.87132
▁ኡመር	-9.87141
▁ለመውጣት	-9.87194
ዎቻቸው	-9.8729
▁በሆኑ	-9.87294
▁ወንጀሎች	-9.87297
▁ሜ	-9.87363
▁ይኖረዋል	-9.8739
ነሱ	-9.87403
▁ነን	-9.87436
▁የመጣ	-9.87454
ጥር	-9.87469
▁ትርጉም	-9.87507
▁የሚያደርገውን	-9.87519
▁መንግስትና	-9.8761
▁ከጊዜ	-9.87611
▁ወጣቶችን	-9.87622
▁ተመላክቷል	-9.87645
▁ጠቅሷል	-9.87645
▁አሰልጣኝነት	-9.87722
▁የምርምር	-9.87728
ልኝ	-9.87732
▁ተጠሪ	-9.87732
▁መዘጋጀቱን	-9.87742
▁ለተለያዩ	-9.87743
▁ታደለ	-9.87756
▁መውሰድ	-9.87761
▁ማዳበሪያ	-9.87774
▁ተጠርጣሪ	-9.87821
▁አካላትን	-9.8786
▁የግድቡ	-9.8786
▁ተከታዮች	-9.87901
▁ተይዞ	-9.87912
▁ከአምስት	-9.87954
▁ዋ	-9.87959
▁የሚንቀሳቀሱ	-9.87964
ግማሽ	-9.88036
▁ከስልጣን	-9.88086
▁በዘንድሮው	-9.88129
▁ወይ	-9.88223
▁የፍርድ	-9.88269
▁ቢሮው	-9.88286
▁የጠበቀ	-9.88336
▁ለበርካታ	-9.88376
▁ስላለው	-9.88413
▁አስታውሰው	-9.8842
▁ብለን	-9.88429
▁ስብሰባው	-9.88453
▁ካርታ	-9.88455
▁ቢያ	-9.88501
▁በነበራቸው	-9.8855
ሰን	-9.8858
▁ጥፋተኛ	-9.88585
▁አሻራ	-9.88629
▁ለመሰብሰብ	-9.88673
▁ሮ	-9.88753
▁ሁለንተናዊ	-9.88768
▁የሚያደርጉ	-9.88778
▁የድል	-9.88852
▁የነበራቸው	-9.88944
▁ከስድስት	-9.88964
▁የሊጉ	-9.88965
ስተ	-9.89007
ዉን	-9.8903
ሏ	-9.8904
▁ዲፕሎማሲያዊ	-9.89052
▁ሀዲያ	-9.89091
▁ዜግነት	-9.89246
▁መቀነስ	-9.8931
▁ረጅም	-9.89364
▁ሩሲያ	-9.894
▁የግንዛቤ	-9.89415
▁ህዝቡን	-9.89423
▁በውድድሩ	-9.89444
▁ያነጋገራቸው	-9.89454
▁ውሳኔው	-9.89468
ጦ	-9.89579
በአሉ	-9.89607
▁ኳሶች	-9.89668
▁የጀመሩት	-9.8969
▁ስርጭትን	-9.89705
ኩት	-9.89712
▁ባለመቻሉ	-9.89714
▁ማስተባበሪያ	-9.89781
▁ጠዋት	-9.89831
▁ባህርዳር	-9.89917
▁ለሁለተኛ	-9.8995
▁ተቀብሎ	-9.89952
▁በቅርበት	-9.8997
▁ይገልፃል	-9.8997
▁ታስቦ	-9.89976
▁ካሳሁን	-9.89978
▁በአውሮፓ	-9.90009
ኤል	-9.90014
▁ኦርቶዶክስ	-9.90028
▁ቁጥራቸው	-9.90071
▁የሚደርስ	-9.90074
▁ጥልቅ	-9.90131
ጓ	-9.90192
▁በማውጣት	-9.90232
▁ኮሙኒኬሽን	-9.90232
▁ለማስከበር	-9.90233
▁ለማስፈን	-9.90234
▁አስተማማኝ	-9.90264
▁ከቅርብ	-9.90279
መው	-9.90334
ላቸውን	-9.90395
መልስ	-9.90396
▁የሙያ	-9.90402
▁ከብሄራዊ	-9.9047
▁ሲሰሩ	-9.90479
▁ተወስኗል	-9.90495
አምባሳደር	-9.90501
ኗ	-9.9052
▁ወርቁ	-9.90739
▁ኦማር	-9.90772
ይህን	-9.9079
ካሄዱ	-9.908
▁የህዝቡን	-9.90827
▁ለስራ	-9.90898
▁በተሰጠው	-9.90923
▁አማ	-9.90986
▁ከንቲባው	-9.9099
▁የጥናት	-9.91017
▁አስቆጥሯል	-9.91022
▁በታላቁ	-9.91056
▁አብዱል	-9.91081
▁ሁ	-9.91194
▁ዩጋንዳ	-9.91219
▁ተዘግቧል	-9.91286
▁ማስተማር	-9.91287
▁ለመፈፀም	-9.91291
▁ወንድሙ	-9.91313
▁ብሄረሰብ	-9.91453
ባል	-9.91489
▁በስምምነት	-9.91518
በተለይም	-9.91525
▁ዝግጅቱን	-9.91654
▁ፖሊሶች	-9.91656
▁ዲሲ	-9.91709
▁ከስራ	-9.91716
▁ፋ	-9.91728
▁አጥቂው	-9.91743
▁የገቡት	-9.91747
▁ተቀይሮ	-9.91817
▁በአንድነት	-9.91826
▁ድንጋይ	-9.91876
▁መዋላቸውን	-9.91885
▁እቅዱ	-9.91904
▁አምራቾች	-9.91912
▁በዩናይትድ	-9.91928
▁መስ	-9.9197
መላው	-9.91994
ሆኖ	-9.92019
▁በሜዳው	-9.92027
▁ማውጣት	-9.92084
▁የአስተዳደር	-9.92084
▁ፍሰት	-9.92085
ቫ	-9.92095
▁የገቡ	-9.92181
▁ጥያቄዎችን	-9.92257
▁ስሙ	-9.92331
▁ቁሳቁስ	-9.92352
▁እየተከናወኑ	-9.92368
▁ወጥቷል	-9.92388
▁ስብስብ	-9.92395
▁ውድድሩን	-9.92399
▁የአመራር	-9.92441
▁ወለጋ	-9.92465
▁መዲና	-9.92468
▁ህሙማን	-9.92496
▁እገዳ	-9.92524
▁በኛ	-9.92561
▁በተከታታይ	-9.92569
▁ኮቪድ	-9.92582
▁ተጠቃሽ	-9.92626
▁አስኪያጁ	-9.92639
ኮሮናቫይረስ	-9.92646
▁የቡድን	-9.92678
▁የሚመጡ	-9.92689
ባህር	-9.92719
▁ተጠቃሚዎች	-9.92772
▁ዴ	-9.92816
ኖር	-9.9287
▁አቤል	-9.9289
▁በመደገፍ	-9.92897
▁እንደሚጀምር	-9.92916
▁ክፍተቶች	-9.92917
▁በሂደት	-9.92935
▁ያገኘው	-9.9295
▁በደረሰው	-9.93005
▁ገፅታ	-9.93014
▁አያ	-9.9309
▁ማካሄድ	-9.93183
▁የተዘጋጀው	-9.93285
▁ጥናቱ	-9.93292
ደረ	-9.93342
በዚሁ	-9.93356
▁በእነዚህ	-9.93399
▁ተስማምተዋል	-9.93428
▁የሚገመት	-9.93489
▁በአሉን	-9.93502
▁ኢራን	-9.93526
▁በማስ	-9.9355
▁አስከባሪ	-9.93569
▁ፈ	-9.9357
▁ተሞክሮ	-9.93576
▁ቤ	-9.93608
ዶች	-9.93623
▁ፍተሻ	-9.93632
▁ወንድ	-9.93664
▁ብሄረሰቦች	-9.93707
▁ይህንኑ	-9.93718
▁በሙስና	-9.93747
▁ውይይቶች	-9.93761
▁ፌዴራል	-9.93796
▁የአንድነት	-9.93824
▁አስራት	-9.93825
▁የሞባይል	-9.93825
▁ስንዴ	-9.93841
▁አው	-9.93846
▁ማንነት	-9.93881
ጄ	-9.93929
▁ሂሩት	-9.93973
▁በመቃወም	-9.93979
የአለም	-9.93986
▁መንቀሳቀስ	-9.94013
▁ግቢ	-9.94037
▁አቡነ	-9.94091
▁ስርአትን	-9.94197
▁ሴ	-9.94211
▁ኢን	-9.94232
▁ለማስገባት	-9.94244
▁ባለመሆኑ	-9.94265
▁የሰዎች	-9.94271
▁ይነገራል	-9.94275
▁መጠጥ	-9.94279
መታ	-9.94317
▁ደብረ	-9.94374
▁ኡ	-9.94375
▁የቀረቡ	-9.9441
▁ግቦችን	-9.945
▁አረጋግጧል	-9.94517
▁ልደቱ	-9.94517
▁ሳምሶን	-9.94611
▁ለመጀመርያ	-9.94618
▁ፋብሪካው	-9.94624
▁ማይክ	-9.94744
ቄ	-9.94767
▁አሳይቷል	-9.94791
▁ባስተላለፉ	-9.948
▁በመጨረሻም	-9.94808
▁እድሎችን	-9.94839
▁አለብን	-9.94849
▁እንዲውል	-9.94859
▁ጨዋታዎችን	-9.94862
▁ድርጊቱን	-9.94909
▁የቫይረሱ	-9.94932
▁የፌዴሬሽን	-9.94948
ቶቹ	-9.95059
▁ኮሌጅ	-9.95065
▁መገርሳ	-9.95066
▁ሰጥተው	-9.95096
▁በመጀመሪያ	-9.95113
▁አየለ	-9.95189
▁አለማቀፍ	-9.95231
▁ቃሊቲ	-9.9527
እነዚህ	-9.95321
▁አመላክተዋል	-9.95341
▁ያስታወሱት	-9.95341
▁ጥብቅ	-9.95341
▁ፈቃደኛ	-9.95344
▁በተፈጠረ	-9.95364
▁መዳረሻ	-9.95365
ወጣ	-9.95384
▁ቅጥር	-9.95437
▁የበላይነትን	-9.95466
▁በብዙ	-9.95468
▁በከተማው	-9.95503
ጠፋ	-9.956
▁የቅጣት	-9.95608
ሳካ	-9.95711
ችበት	-9.95852
▁ያለፈው	-9.9588
▁መስኮት	-9.95895
▁ተጠቅሞ	-9.95897
▁ኮሮና	-9.95898
▁የሚጠጉ	-9.96023
ድር	-9.96078
▁የተጀመረውን	-9.96105
▁ህዝብን	-9.96136
ዮን	-9.9617
▁በማዘጋጀት	-9.96172
▁አስመልክተው	-9.96172
▁ግሽበት	-9.96172
▁የሚታዩ	-9.96238
▁ተለዋጭ	-9.96247
▁እንደገለፀው	-9.96258
▁አደጋው	-9.96443
▁አንበጣ	-9.96477
▁ሞሀመድ	-9.96497
የአማራ	-9.96508
▁በሴቶች	-9.96604
▁አለምአቀፍ	-9.96657
▁ሀውስ	-9.96733
▁ሌላኛው	-9.96809
▁የገቢዎች	-9.9681
ፈታ	-9.96832
▁አብደላ	-9.96979
▁መላው	-9.96984
▁ሳኡዲ	-9.96992
▁የተከሰተውን	-9.97007
▁የሚቆይ	-9.97051
▁የሀብረተሰብ	-9.9706
▁ኦዲት	-9.97066
▁በሀይል	-9.97078
በክልሉ	-9.97146
ቷን	-9.97192
▁አድሀኖም	-9.97291
▁ሀላፊነታቸውን	-9.97353
▁ስደተኞችን	-9.97416
▁አስቻለው	-9.97436
▁ሌ	-9.97461
▁ሀገራቱ	-9.97486
▁ተሽከርካሪ	-9.97486
▁ይሰጣል	-9.97574
መጋቢት	-9.97588
▁ስላሴ	-9.97631
▁የተቃውሞ	-9.97687
▁ቤተሰብ	-9.97707
▁በፖሊስ	-9.97712
ቬ	-9.97762
▁መንጋ	-9.97774
▁ስፋት	-9.97864
▁ሲያገለግሉ	-9.97868
▁ለብሄራዊ	-9.97869
መሀል	-9.97894
▁ጃ	-9.97895
▁የሰላምና	-9.97899
▁የዜጎችን	-9.97933
ሚያ	-9.97935
ፔ	-9.97946
▁የሚኖረው	-9.97975
▁ዘርፉን	-9.97978
▁ዩ	-9.98075
▁አሳልፏል	-9.98141
▁ለፌዴራል	-9.98185
▁ችግኝ	-9.98185
▁መፈፀሙን	-9.98217
▁እንድ	-9.98218
▁ማለፍ	-9.98232
▁ሱ	-9.98244
ሰር	-9.98249
▁በአየር	-9.9828
▁ልኡካን	-9.98303
▁ሀብረተሰቡ	-9.98381
▁አዋጁን	-9.9842
▁ውሳኔዎች	-9.98461
▁ሰርቪስ	-9.98493
▁የአቶ	-9.98521
▁ከነገ	-9.98532
በቅርቡ	-9.9861
▁በፍርድ	-9.98613
▁ለሚሆኑ	-9.98657
▁ቀጣይነት	-9.98681
ለዚህ	-9.98684
▁አት	-9.98738
▁ፓርላማ	-9.98744
▁በመከላከል	-9.98822
▁የቀረበውን	-9.98846
▁ኢንሹራንስ	-9.98903
▁በፖለቲካ	-9.98911
ስታ	-9.98922
▁አስፈላጊው	-9.98936
▁ተቋርጦ	-9.98993
▁ሀላፊነቱ	-9.99021
▁አምባሳደሩ	-9.99085
▁ውጤቱን	-9.99124
▁እንደሚገባቸው	-9.99269
▁ገዛኸኝ	-9.9928
▁አልቻለም	-9.9928
▁ሚንስትሩ	-9.99335
በአዲስ	-9.99366
ቅዱስ	-9.99378
▁አድርጎታል	-9.99396
▁ከተማዋ	-9.99449
▁የአሜሪካን	-9.9945
▁በተባለው	-9.99475
▁ፈፅመዋል	-9.99568
▁ቡ	-9.99573
▁የአሰልጣኝ	-9.99598
▁የቻለ	-9.99603
▁ባለመ	-9.99607
▁አሸንፎ	-9.99609
▁የተሰኘው	-9.99683
▁ቤተክርስቲያን	-9.99688
▁ከማድረግ	-9.99695
▁ፈረንሳይ	-9.99789
▁አልነበረም	-9.99855
▁በማካሄድ	-9.99867
▁የእርስ	-9.99882
▁የችግኝ	-9.99885
▁የእንስሳት	-9.99895
▁ሊትር	-9.99921
ሎች	-9.9996
▁በህክምና	-9.99979
▁በአማካይ	-10.0001
▁ውሳኔውን	-10.0003
▁ሽብር	-10.0012
▁ፊርማ	-10.0013
▁ገበየሁ	-10.0014
▁ፍጥነት	-10.0014
▁መፍታት	-10.0015
▁መያዛቸው	-10.0019
▁ስለሺ	-10.0022
▁የአደጋ	-10.0022
▁ቀጣዩ	-10.0041
▁ስፍራው	-10.0044
▁የሚያስፈልገው	-10.005
▁በፌስቡክ	-10.005
ዘር	-10.0052
▁በተገኘ	-10.0052
▁ሚስተ	-10.0054
ላል	-10.0059
▁የራሱን	-10.0061
▁ታወቀ	-10.0063
▁አቆጣጠር	-10.0076
ሾ	-10.008
▁ከኦሮሚያ	-10.0082
▁የዛሬ	-10.0086
▁ውይይቱ	-10.0086
▁ቀጠና	-10.009
▁የተደረገላቸው	-10.0091
▁ሙሳ	-10.0091
▁ጥበብ	-10.0091
ሰማ	-10.0092
ፈው	-10.0096
▁እረፍት	-10.0097
▁አሉታዊ	-10.0104
▁ሙሌት	-10.0105
▁በተባለ	-10.011
▁ጊኒ	-10.012
▁የአዳማ	-10.0125
ስራ	-10.0132
▁የአምስት	-10.0135
▁ባስ	-10.0136
▁የሀብት	-10.0143
▁በውሀ	-10.0144
▁ዲፕሎማቶች	-10.0146
▁ህዝበ	-10.0152
▁መሸፈኛ	-10.016
▁የሚፈልጉ	-10.0164
ቀው	-10.0173
▁ግብአቶች	-10.0183
ዝርዝሩ	-10.0186
▁ሜትሪ	-10.0186
▁የአሰራር	-10.019
▁አድራጎት	-10.019
▁ጎብኝተዋል	-10.019
▁መርምሮ	-10.019
▁ጁንታ	-10.0198
▁በአቶ	-10.0204
▁መጠለያ	-10.0206
ሰሩ	-10.0208
▁የእንግሊዝ	-10.021
▁እያሉ	-10.0211
▁ባይደን	-10.0211
▁አስተላልፏል	-10.0219
▁ግዛቶች	-10.0219
▁የስልክ	-10.0219
▁ለማስወገድ	-10.0221
▁እንደተገኘባቸው	-10.0222
▁ሀይለማሪያም	-10.0222
▁ጉባኤውን	-10.0223
▁ታዳጊ	-10.0226
▁ለቀጣይ	-10.0226
▁ሚዲያዎች	-10.0227
▁እያንዳንዳቸው	-10.0228
▁መሳሪያዎችን	-10.0228
▁የወጣ	-10.023
▁የመሪዎች	-10.0234
▁ህጎች	-10.0243
▁በቦሌ	-10.0249
▁ምልልስ	-10.0249
▁ዳሽን	-10.0251
▁ዲኤታ	-10.0252
▁አቅርቦ	-10.0253
▁ማግኘቱን	-10.0265
▁እየሰጠ	-10.0267
▁በኢኮኖሚ	-10.0267
▁መያዝ	-10.0268
▁ስለመሆኑ	-10.0269
▁የኮሚሽኑ	-10.0271
▁መረጃው	-10.0275
▁ኮሚቴዎች	-10.0277
▁ማለፉ	-10.0283
▁መርህ	-10.0285
▁የሚነሱ	-10.0289
▁የኢፌዲሪ	-10.0289
▁ገለልተኛ	-10.0292
▁እንደምት	-10.0293
በዛሬው	-10.0295
▁ጄነራል	-10.0299
▁ህንድ	-10.0302
▁ደን	-10.0304
▁ቆይቶ	-10.0308
▁የተሰኘ	-10.0312
▁ድጋፉ	-10.0313
መለስ	-10.0313
▁ሻ	-10.0316
▁ይዘን	-10.0318
ለም	-10.032
▁ካደረጉ	-10.0322
▁መሆኑንና	-10.0325
▁ነ	-10.033
ዲን	-10.0334
▁ላቀ	-10.0341
▁ፍሬው	-10.0346
▁ደረጃውን	-10.0347
ታላቁ	-10.0347
▁አቻቸው	-10.0347
ዩናይትድ	-10.035
በል	-10.0351
▁ፈራሚ	-10.0352
▁ጠበቃ	-10.0356
▁የሞት	-10.0365
▁እንቅፋት	-10.0368
▁ቅናሽ	-10.0368
▁ተይዘው	-10.0369
▁እንደሚሆኑ	-10.037
▁ማምሻውን	-10.0372
▁የቀረቡት	-10.0374
▁የሚገባ	-10.0375
▁አምባሳደሮች	-10.0378
▁የሚጠበቅ	-10.038
▁በመሄድ	-10.0386
▁በጋምቤላ	-10.0392
▁ፕሬዝደንት	-10.0393
ቆሙ	-10.0394
ኞች	-10.0395
▁እንዲቀርቡ	-10.04
▁የሶማሌ	-10.0402
▁በጥናት	-10.0402
ውል	-10.041
▁ማስፋፊያ	-10.0413
▁መኖር	-10.0414
▁በምክር	-10.0416
▁ዩሮ	-10.0423
ሰጣቸው	-10.0428
▁ቱርክ	-10.043
ቲን	-10.0432
▁ኢንጂነሪንግ	-10.0438
ታህሳስ	-10.0445
ጠራ	-10.0447
▁ደረጃዎች	-10.0448
▁ወልደ	-10.0457
▁ከሚገኘው	-10.0473
▁በየትኛው	-10.0474
ኳስ	-10.0476
▁ሲቪል	-10.0478
▁የተገነባው	-10.048
▁የዘንድሮው	-10.0486
▁ይጠቁማል	-10.0489
▁ገደማ	-10.0489
▁ገብረሚካኤል	-10.0489
▁እንዲኖረው	-10.049
ሰሙ	-10.0497
የአፍሪካ	-10.0497
▁የአባይ	-10.0499
▁ካቢኔ	-10.0513
▁እየተንቀሳቀሰ	-10.0519
▁ፕሬዝዳንቱ	-10.0522
▁አማካዩ	-10.0529
▁ካምፕ	-10.053
ታችን	-10.0534
▁ፈጣሪ	-10.0537
▁ቆይታቸው	-10.0539
▁ማእድን	-10.0549
▁ማምረቻ	-10.0551
▁አደረገ	-10.0566
▁ወንዶች	-10.0574
▁አስተሳሰብ	-10.058
▁ተከስቶ	-10.058
▁ያሉበት	-10.0583
ሯቸው	-10.0584
ብር	-10.0585
ሚያደርጉት	-10.0586
▁የቴሌኮም	-10.0589
ረዳ	-10.0591
▁አቅራቢያ	-10.0594
▁በዞኑ	-10.0604
▁ሰር	-10.0604
የካቲት	-10.0605
▁ውጥረት	-10.0611
ስተር	-10.0612
▁ተጨባጭ	-10.0614
▁አቅርበው	-10.0617
▁ሀጫሉ	-10.0623
▁የአፍ	-10.0625
▁መድረስ	-10.0625
▁አራቱ	-10.063
▁ሹም	-10.0632
▁አጋርነት	-10.0637
▁በተከሰተው	-10.064
▁በከፊል	-10.0641
▁ደርሶ	-10.0647
▁የአረንጓዴ	-10.0652
▁ዳኝነት	-10.0654
▁አደገኛ	-10.0658
▁በጉባኤው	-10.0663
▁ገብቶ	-10.0674
▁እንደሚጀመር	-10.0675
▁እጩዎች	-10.0682
▁ለገበያ	-10.0685
▁የፖሊሲ	-10.0693
በአጠቃላይ	-10.0694
▁አውደ	-10.0698
▁በስድስት	-10.0698
▁በስፍራው	-10.0702
ደን	-10.0702
▁ጠቃሚ	-10.0703
▁አክሎ	-10.0705
▁ሚልዮ	-10.0709
▁መምራት	-10.0713
▁እስ	-10.0719
▁የሚታወቅ	-10.072
ስብ	-10.0726
▁በሀገራችን	-10.073
▁መስፈርት	-10.0734
ወራት	-10.0735
▁ክስተት	-10.0735
▁የእግርኳስ	-10.0736
▁ዘሪሁን	-10.0737
▁እየተሰሩ	-10.0739
▁ለመውሰድ	-10.0741
▁ተቋማቱ	-10.0741
▁ለመወጣት	-10.0741
ህይወት	-10.0751
▁መንበር	-10.0757
▁የሆነችው	-10.0758
▁እንዲሁ	-10.0761
▁አሰላለፍ	-10.0766
▁አውስተዋል	-10.0766
▁ከአስር	-10.0766
▁ሀይቅ	-10.0768
▁የነበሩትን	-10.0768
▁እየሆነ	-10.0769
▁ምንዛሬ	-10.077
▁ከተማው	-10.0775
▁የወቅቱ	-10.0783
▁በፌደራል	-10.0785
ኤፍቢሲ	-10.0786
▁የአመቱ	-10.0788
▁ለመመስረት	-10.0797
▁በማስመልከት	-10.0797
▁የፈረንሳይ	-10.0802
▁በአሰልጣኝ	-10.0807
▁መወሰኑ	-10.0807
▁ኬ	-10.0814
▁ኮማንድ	-10.0819
▁መቼ	-10.0819
▁ኋላ	-10.082
▁የመድሀኒት	-10.0825
▁ቁርጠኝነት	-10.0828
▁ተነስቶ	-10.0828
▁ውድመት	-10.0828
▁አልባሳት	-10.0829
▁የጥራት	-10.083
▁ደረጃን	-10.0834
▁ስምምነቶች	-10.0835
▁ፈንታ	-10.0835
▁ሁለቱን	-10.084
▁በፈረንጆቹ	-10.0843
▁ቆጠራ	-10.0845
▁ገዥ	-10.0859
▁እየተሳተፉ	-10.0862
▁አዘጋጅ	-10.0864
▁ኮንፈረንስ	-10.0865
▁ከሰአት	-10.0866
▁አማራጮች	-10.0868
▁በመላክ	-10.0869
መሰ	-10.0871
▁ተፈፃሚ	-10.0883
▁ለመግዛት	-10.0891
▁ተናግረው	-10.0897
ተኛ	-10.0902
▁የእድሜ	-10.0905
ዌ	-10.0906
▁ንፁሀን	-10.091
ፍርድ	-10.091
▁ከአማራ	-10.0912
በቃ	-10.0921
▁በመጠቆም	-10.0923
ሯል	-10.0923
▁እንዲቆም	-10.0925
▁በተዘጋጀው	-10.0927
▁በውይይት	-10.0929
▁ግጭቱ	-10.0936
▁ታራሚዎች	-10.0941
▁የፀጥታው	-10.0948
▁ጠ	-10.0953
▁ንክኪ	-10.0955
ጉባኤው	-10.0958
ስምምነቱ	-10.0959
▁ማሀበሩ	-10.0965
▁ያስቆጠረው	-10.0969
▁የሁሉም	-10.0969
▁ግንባታዎች	-10.097
▁በመቶው	-10.0978
▁የዞኑ	-10.0978
▁ይሄ	-10.0981
▁ሰሌዳ	-10.0986
▁አስተዳደሮች	-10.0986
▁የምታ	-10.0987
▁ኦነግ	-10.099
▁ዘላለም	-10.0998
▁ሲታይ	-10.0998
▁ዲና	-10.0999
▁አለማ	-10.1002
▁መለያ	-10.1002
ጨዋታው	-10.1003
▁አገልግሎቶችን	-10.1004
ታለች	-10.1016
▁አጠናቆ	-10.1018
ስተናግዶ	-10.1019
▁ትግበራ	-10.1028
▁የአፋር	-10.1028
▁አቅጣጫዎች	-10.1029
▁ሎ	-10.1031
▁የኢንተርኔት	-10.1031
▁ለምክር	-10.1034
ፈራ	-10.104
ሳይ	-10.104
▁የሚችለው	-10.1043
▁ዱ	-10.1052
▁እንደመሆኑ	-10.1053
ደው	-10.1054
▁ለማገዝ	-10.1056
▁ለመድረስ	-10.1057
▁የወዳጅነት	-10.1058
▁ሂ	-10.1063
▁አጠናክረው	-10.1063
▁ተመጣጣኝ	-10.1065
▁የመጣው	-10.1072
አቋም	-10.1079
▁ከመከላከያ	-10.1081
▁ይዟል	-10.1084
▁አጋጣሚዎች	-10.1087
ሳምንት	-10.1087
▁የዲፕሎማሲ	-10.109
▁እመቤት	-10.1091
▁በነፃነት	-10.1091
▁በመቐለ	-10.1092
▁የሌሎች	-10.1093
▁እኩል	-10.1107
ዥ	-10.1108
▁የተያዘው	-10.1114
ዷ	-10.1119
▁ቅ	-10.1119
▁ተመ	-10.1122
▁በመግለጫቸው	-10.1122
▁ገበያው	-10.1128
▁መድረኮች	-10.1128
▁ሜጀ	-10.1134
▁የምእራብ	-10.1143
▁ብቁ	-10.115
▁ዲላ	-10.1151
▁ማሳ	-10.1155
ገቡ	-10.1155
▁በቴክኖሎጂ	-10.1157
▁ረፋድ	-10.1158
▁የበላይ	-10.1158
▁ስን	-10.1163
▁ነዉ	-10.1164
▁ከጨዋታው	-10.1167
▁ችግኞች	-10.1167
ቸዋል	-10.1173
▁መጀመሩ	-10.1173
▁ማሰባሰብ	-10.118
▁ሶዶ	-10.1184
▁መስኖ	-10.1187
ሪት	-10.1189
▁ህ	-10.1197
▁አገልግሎቱ	-10.1198
▁አትሌቶች	-10.1205
አፋጣኝ	-10.1206
ተከሳሾቹ	-10.1206
▁የኑሮ	-10.1211
▁የመጣውን	-10.1211
▁ለህብረተሰቡ	-10.1212
▁ይጠናቀቃል	-10.1212
▁ፖስት	-10.1213
▁አባጅፋር	-10.1213
▁እንዲያቀርቡ	-10.1215
▁ያስተናገደው	-10.1217
ድርጅቱ	-10.1221
▁የኩባንያው	-10.1223
▁ወልዲያ	-10.123
መረ	-10.1231
▁እነ	-10.1232
▁ጋዝ	-10.1241
▁እንዲፈጠር	-10.1243
▁ሊደረግ	-10.1244
▁እሸቱ	-10.1245
▁ጀምረዋል	-10.1245
▁አክሊሉ	-10.125
▁የእስራኤል	-10.1251
▁ማቅረባቸውን	-10.1251
▁የሰጡ	-10.1255
▁ኮርፖሬሽኑ	-10.1258
▁የተሰጠ	-10.1261
▁ዝግ	-10.1264
▁በእ	-10.1272
▁ናስር	-10.1279
አገሪቱ	-10.1286
▁የአቃቤ	-10.1288
▁የወጡ	-10.1289
▁በአካል	-10.1298
▁ህይወቱ	-10.1299
▁አርባ	-10.1301
▁ደጋፊ	-10.1313
▁ኮርያ	-10.1315
▁የገለፁ	-10.1318
ሰጠው	-10.132
አሜሪካ	-10.1329
▁የደረሰባቸው	-10.1332
▁በህወሀት	-10.1335
▁አፈወርቂ	-10.1344
▁የሚያደርጉትን	-10.1349
▁ከፌዴራል	-10.1353
▁የጅማ	-10.1355
▁መግባታቸውን	-10.136
ሰብ	-10.1361
▁በህይወት	-10.1368
▁የግብይት	-10.1369
▁ከግምት	-10.1369
▁እናቶች	-10.1373
ኒያ	-10.1376
▁አስቆጥሮ	-10.1377
▁ፒ	-10.1377
ጉዳት	-10.1378
▁ዛ	-10.1381
▁እያንዳንዱ	-10.1381
▁ውዝግብ	-10.1383
▁መደረግ	-10.1383
▁ንጉሱ	-10.1385
▁ሂደቱን	-10.1388
▁ኤን	-10.1389
▁የሳኡዲ	-10.1389
▁መቀጠሉን	-10.139
▁ኮንግረስ	-10.1394
▁ሁኔታዎችን	-10.1394
▁የወርቅ	-10.1399
▁በጎንደር	-10.1409
▁የተካሄደ	-10.141
▁ለክለቡ	-10.1414
▁እንዲችሉ	-10.1414
▁ህልውና	-10.1418
▁ባቀረበው	-10.1418
▁መታወቂያ	-10.1423
▁የታክስ	-10.1424
▁ከአውሮፓ	-10.1427
▁የተፈፀመው	-10.1428
▁ለውጦች	-10.1431
ከተ	-10.1435
ዘጋቢ	-10.1443
▁ያመለከቱት	-10.1446
▁የአሁኑ	-10.1446
▁አብዲሳ	-10.1452
▁ይዘት	-10.1456
▁ተቃዋሚዎች	-10.1463
▁የተሾሙት	-10.1463
▁ልማቶች	-10.1465
▁በማስቆጠር	-10.1466
▁የሚከበረው	-10.1468
ደርስ	-10.1469
▁በቤኒሻንጉል	-10.147
▁መቆየቱ	-10.147
▁ሊቢያ	-10.1474
▁እልባት	-10.1477
▁ለማስቻል	-10.148
ቀን	-10.1483
▁ብሄሮች	-10.1484
▁የምጣኔ	-10.1488
▁ኪሳራ	-10.1489
▁ከመስከረም	-10.149
▁በሚለው	-10.1492
▁በማይ	-10.1495
▁በመድረኩ	-10.1496
▁ክሱን	-10.1497
▁የጎርፍ	-10.1497
▁ፕሬዘዳንት	-10.1501
▁እየተደረገላቸው	-10.1502
▁ወረራ	-10.1511
ራል	-10.1518
▁እያደረገች	-10.152
▁ጀ	-10.1522
▁መካሄድ	-10.1524
▁የአጥቂ	-10.1526
▁ለአ	-10.1527
ግል	-10.1539
▁እርምጃዎችን	-10.1541
▁የአንበጣ	-10.1542
▁አንተነህ	-10.1554
▁ማከናወን	-10.1556
▁የፊት	-10.1559
ጎዳ	-10.1559
▁ጊ	-10.1561
▁ሳን	-10.1568
ጫወት	-10.1571
▁የስኳር	-10.1571
▁ድንጋጌ	-10.1573
▁ለማስጀመር	-10.1578
▁ነጋሽ	-10.1586
▁የላብራቶሪ	-10.1587
ቆም	-10.1591
▁የሚመሩት	-10.1597
▁ጥናቶች	-10.1602
▁ፀጋ	-10.1603
▁ባለሙያዎችን	-10.1607
▁ለመቀበል	-10.1612
ከባድ	-10.1613
▁ቻምፒዮን	-10.1619
▁ማድረስ	-10.1622
▁መቀመጫ	-10.1625
▁ካፍ	-10.1632
▁ወለድ	-10.1632
▁ተመራጭ	-10.1634
▁ተገ	-10.1636
ኡ	-10.1637
ሳል	-10.164
▁መብራቱ	-10.1646
▁አጨዋወት	-10.1646
▁በመፈፀም	-10.1647
▁የሁለተኛ	-10.1647
▁በመቀበል	-10.1648
▁የመማር	-10.1648
▁ከድር	-10.165
▁አበረታች	-10.1655
የር	-10.1662
▁ህንፃዎች	-10.1662
▁ጀርመን	-10.1663
▁እንደሌለው	-10.1665
አጠቃላይ	-10.1667
▁የብሄር	-10.167
ረቂቅ	-10.1678
አብመድ	-10.1678
▁የተለያየ	-10.1678
▁እንዲሰፍን	-10.168
ንድ	-10.1681
ለታል	-10.1685
▁ይሆን	-10.1689
▁ፕላን	-10.1691
▁በመጫወት	-10.1691
▁ከትግራይ	-10.1692
ግባብ	-10.1693
▁ዲዛይን	-10.1694
ሚኒስቴሩ	-10.1694
▁የኮንስትራክሽን	-10.1699
▁የኢ	-10.17
▁ውህደት	-10.1701
▁መብታቸው	-10.1707
▁ሳያ	-10.1714
▁አግኝቶ	-10.1714
▁እንደሚገባው	-10.1716
▁መፈፀም	-10.1717
▁የፈጠራ	-10.1718
▁እነሱ	-10.1719
▁የበረራ	-10.1728
የሀገሪቱ	-10.1732
▁ጆን	-10.1732
▁አይነቶች	-10.1742
በመድረኩ	-10.1745
መወከል	-10.1748
▁በተገቢው	-10.1749
▁ከተጀመረ	-10.1752
▁ፌ	-10.1754
▁በመጀመርያው	-10.1758
▁ባሉበት	-10.1765
ፕሬዝዳንት	-10.1767
▁ፊ	-10.1774
▁ፓርቲዎቹ	-10.1781
▁በማንሳት	-10.1783
▁ቦምብ	-10.1783
▁ለማስቆም	-10.1783
▁ዘመቻው	-10.1785
▁እንዲቆዩ	-10.1786
▁ከዛ	-10.1786
▁ድብደባ	-10.1792
▁ክፉ	-10.1795
ዘጋ	-10.1798
የአካባቢው	-10.1807
ትናንት	-10.1809
መጥ	-10.181
▁ናይጄሪያ	-10.1811
▁ፍ	-10.1811
▁ቀሪዎቹ	-10.1817
▁ጥቃቱ	-10.1829
▁በግድቡ	-10.1836
▁እንዳላት	-10.1847
▁ከፍተኛው	-10.1848
▁አውሮፕላኖች	-10.1852
▁አብዱላሂ	-10.1852
▁ቅርንጫፎች	-10.1854
▁የመታው	-10.1857
▁በበሽታው	-10.1857
▁እንዲያቀርብ	-10.1857
▁የተኩስ	-10.1872
▁እንዲሰራ	-10.1875
▁እንዲገባ	-10.1876
▁ዜ	-10.1881
▁መፅሄት	-10.1887
▁አመላክቷል	-10.1887
▁ስትሆን	-10.1889
ኮሚሽኑ	-10.1898
▁ተፈናቃዮች	-10.1898
▁ከነዚህ	-10.1899
▁ሲሰጥ	-10.1902
▁በርካቶች	-10.1906
▁ከሆኑ	-10.1913
የአሜሪካ	-10.1913
▁ድጋፉን	-10.1915
▁ኢጋድ	-10.1918
▁እንዲከበር	-10.1921
▁ከፋዮች	-10.1922
▁ደረቅ	-10.1922
▁የዘገበው	-10.1922
ጥናታዊ	-10.1924
▁አደም	-10.1929
▁ዮናስ	-10.193
▁መግቢያ	-10.1931
▁ምስክር	-10.1933
▁ሄኖክ	-10.1938
▁ችግኞችን	-10.1941
▁የሜዳ	-10.1943
▁ልት	-10.1945
▁መጀመር	-10.1953
▁ጌታነህ	-10.1953
ግን	-10.1963
▁የሰጠ	-10.1966
ደገ	-10.1969
▁ወዳጅነት	-10.1973
ዋና	-10.1973
▁ሲናገሩ	-10.1976
▁በእንዲህ	-10.1984
ቫይረሱ	-10.1986
▁ሰራተኞችን	-10.1991
▁ምስክሮች	-10.1991
▁ሁንዴሳ	-10.1992
▁አቅራቢ	-10.1998
▁ሰነዶች	-10.2003
▁እንደሚቀጥሉ	-10.2007
▁ክረምት	-10.2008
▁ለሌላ	-10.201
▁ታንዛኒያ	-10.2013
▁ነገሌ	-10.2017
እጥፍ	-10.2018
ደርግ	-10.2022
▁ውጊያ	-10.2023
▁ጋና	-10.2027
▁ብጥብጥ	-10.2028
▁ባወጡት	-10.2028
▁እንዲራዘም	-10.203
ኖቤል	-10.203
▁ባህሪ	-10.203
▁ለመቀየር	-10.2031
ቶችን	-10.2034
▁ዮሴፍ	-10.2035
▁እንዲሰጣቸው	-10.2035
▁የካ	-10.2037
ሩብ	-10.2043
▁የምታደርገውን	-10.205
ዝግጅት	-10.2051
▁የታሪክ	-10.2054
▁በአልን	-10.2061
▁አፋጣኝ	-10.207
ጠሩ	-10.2072
▁ለማለፍ	-10.2084
▁በሁለተኛ	-10.2088
▁ጥያቄውን	-10.2089
▁መንግስቱን	-10.2091
▁የተሰጠውን	-10.2093
ዳር	-10.2094
▁ተነስቷል	-10.2099
▁እንደሚያመለክተው	-10.2099
▁አፅድቋል	-10.2102
▁የህይወት	-10.2105
ሰጥ	-10.2105
▁በደረሰ	-10.2122
▁ቢሮዎች	-10.2125
▁አሳልፎ	-10.2134
በርከት	-10.2135
▁ካሚል	-10.2135
ጣል	-10.2141
በሀገሪቱ	-10.2146
▁የምና	-10.2154
▁ወልድያ	-10.2155
▁የደም	-10.216
▁በመልካም	-10.216
▁ኑሮ	-10.2163
▁በነበሩ	-10.2165
▁ተጫዋቾቹ	-10.2169
▁የታ	-10.2171
ማል	-10.2173
▁እያስ	-10.2173
▁መጠኑ	-10.2178
▁የፈፀመው	-10.2181
▁ተመልሶ	-10.2183
▁በሳኡዲ	-10.2184
▁አባልነት	-10.2184
▁ጠብቆ	-10.219
▁ማስታወቂያ	-10.2193
ያዊ	-10.2193
▁ለሶስተኛ	-10.2194
ጠቅ	-10.2195
▁ፓርላማው	-10.2196
▁መሰረትም	-10.2197
▁የተቀላቀለው	-10.2199
▁ግራም	-10.2201
ሏቸው	-10.2203
▁እንዲቀጥሉ	-10.2209
▁ሰብል	-10.221
▁የቆየውን	-10.2211
▁እንዲቻል	-10.2212
▁ማሰልጠኛ	-10.2212
ዘመን	-10.2212
▁ድርድሩ	-10.2213
ችውን	-10.2214
▁የተከፈለ	-10.2214
▁ኤም	-10.2215
▁አመ	-10.2222
መጡ	-10.2234
▁አፈጉባኤ	-10.2242
▁ይጀምራል	-10.2242
▁የተደረጉ	-10.2245
▁ጥሪውን	-10.2247
▁ዩኒቨርሲቲው	-10.2255
▁አቅሙ	-10.2259
▁የማህበረሰብ	-10.226
▁ኬንያታ	-10.2264
እስራኤል	-10.2264
▁ሲገባ	-10.227
▁ጥላ	-10.2275
▁ያስታወሰው	-10.2278
▁ደርሰዋል	-10.2279
▁የተሰጣቸው	-10.2279
▁የውድድሩ	-10.2279
▁ሰራሽ	-10.228
▁ጥረቶች	-10.2283
▁ሌተና	-10.2288
▁የአሜሪካው	-10.2298
▁ጂቡቲ	-10.23
▁በወጣው	-10.23
▁በሽታዎች	-10.23
▁የገጠር	-10.2303
▁ፕሬዚዳንታዊ	-10.2303
▁ቫይረስን	-10.2307
▁ሩጫ	-10.2314
▁በምርጫው	-10.2315
▁ማሻሻል	-10.2318
▁በቦታው	-10.2321
▁ኤርሚያስ	-10.2323
▁የቱርክ	-10.2332
ውድድሩ	-10.2332
▁የትርፍ	-10.2332
ትር	-10.2337
የደቡብ	-10.2337
▁ኦፍ	-10.2338
▁የያዘው	-10.2339
▁በልማት	-10.2341
▁የደረሰውን	-10.2343
▁ቃሲም	-10.2351
▁እየወሰደ	-10.2352
▁በመጠበቅ	-10.2353
ኳ	-10.2353
▁ቤቶቹ	-10.2353
▁ለማስፈፀም	-10.2354
▁እንዲቀርብ	-10.2354
ፕሪሚየር	-10.2358
▁ፍለጋ	-10.236
▁ኢንተርፕራይዞች	-10.2363
▁የስድስት	-10.2366
▁ኡጋንዳ	-10.2367
ያዙ	-10.2367
▁በውድድር	-10.2368
▁የሶስቱ	-10.2368
▁የመግባ	-10.2378
▁ግለሰቡ	-10.2381
▁ተኩስ	-10.2382
▁ተቀምጧል	-10.2388
▁ቁርጠኛ	-10.2388
▁የማምረት	-10.2388
▁ለማክበር	-10.2388
▁ፈተናዎች	-10.2389
▁እንዲጠናቀቅ	-10.2393
ለማ	-10.2394
▁የተሳካ	-10.2394
እሁድ	-10.2394
ተያዘለት	-10.2395
▁ከላይ	-10.2399
ነታቸውን	-10.2405
የፌዴራል	-10.2408
▁የወላይታ	-10.2409
▁ሴራ	-10.241
▁ነገሮችን	-10.2411
▁የሚችለውን	-10.2411
▁ስማቸው	-10.2412
▁የባለስልጣኑ	-10.2412
▁የተቃዋሚ	-10.2418
ውሉ	-10.2421
▁አካ	-10.2422
▁የሚሆነውን	-10.2422
ኤፍ	-10.2423
▁ምናልባት	-10.2425
▁አገልግለዋል	-10.2425
▁እንደሚሉት	-10.2428
▁ሸኔ	-10.2428
▁ወጥተው	-10.2431
▁የሚውሉ	-10.2434
▁በሀይሉ	-10.2438
▁የተጫዋቾች	-10.2438
▁የፓርላማ	-10.2442
▁ቁሳቁሶችን	-10.2443
▁አብዛኛዎቹ	-10.2447
▁የግብር	-10.2447
▁ረ	-10.2449
ቀረበላቸው	-10.2451
ዳቸው	-10.2455
▁ለሀገሪቱ	-10.2459
▁ማራቶን	-10.2459
▁በትክክል	-10.2462
▁የመሳሰሉ	-10.2462
▁አማረ	-10.2462
▁የማጥቃት	-10.2462
▁ታዬ	-10.2463
▁ማጥፋት	-10.2464
▁የአቅም	-10.2472
▁ተኮር	-10.2473
▁እድሜያቸው	-10.2473
▁መወጣት	-10.2481
ሶች	-10.249
▁ዮ	-10.2492
መሰራት	-10.2495
▁ተሰጥቶ	-10.2495
▁መሰብሰብ	-10.25
ቾ	-10.2501
▁እንክብካቤ	-10.2505
ችንን	-10.2507
▁ቢዝነስ	-10.2508
▁ድርጊቶች	-10.2509
▁ጉዳያቸው	-10.2509
▁የታየበት	-10.251
በተለይ	-10.251
▁አትሌቲክስ	-10.2514
▁ተማሪ	-10.2527
▁ቀርበዋል	-10.2536
ሮቹ	-10.2539
ዋይት	-10.254
▁ሏላዊነት	-10.2542
▁ሲደርሱ	-10.2543
▁አመለካከት	-10.2549
▁ከታክስ	-10.2549
▁ቢጫ	-10.255
▁የሚያስችለውን	-10.2551
▁ማንም	-10.2553
ሳምንቱ	-10.2554
▁አወል	-10.2557
▁ደሞዝ	-10.2559
▁ላሉ	-10.2564
▁ግድቡን	-10.2569
▁ዴኤታው	-10.2571
ካል	-10.2577
▁ከሀላፊነታቸው	-10.2578
▁እየሰጡ	-10.258
▁የመጡት	-10.258
▁ስምሪት	-10.2582
▁ኢትዮጵያና	-10.2583
▁በአባይ	-10.2584
ሏል	-10.2587
▁የተመድ	-10.2589
▁የተባለውን	-10.2591
▁እንዳስ	-10.2594
▁ወረርሽኙ	-10.2597
▁የንብረት	-10.2597
▁በስነ	-10.26
▁የአውሮፕላን	-10.26
▁መጠበቂያ	-10.2604
▁የሶስትዮ	-10.2605
▁በሪፖርቱ	-10.2606
▁በኢንቨስትመንት	-10.2611
▁ለመታደግ	-10.2611
▁የመጠጥ	-10.2611
ጠረ	-10.2611
▁መክፈል	-10.2611
▁ለማጥፋት	-10.2611
▁ውለው	-10.2613
▁በራስ	-10.2616
ብራ	-10.2617
▁ለመቆየት	-10.2619
▁ኢንዱስትሪዎች	-10.2622
ርቀት	-10.2623
▁ክህደት	-10.2623
ማእከሉ	-10.2623
ላላ	-10.2639
▁በማሀበራዊ	-10.2648
▁የኮሙዩኒኬሽን	-10.2648
▁ከሁለቱ	-10.2649
▁ሶስተኛው	-10.2651
▁ማነስ	-10.2652
▁በማግኘት	-10.2658
▁ማየት	-10.2658
ኘ	-10.2666
▁የተመረጡት	-10.2667
▁ሬ	-10.2668
▁ጃፓን	-10.267
▁ቪ	-10.2672
ነህ	-10.2679
ባብ	-10.2681
▁ሞሮኮ	-10.2681
▁እንሰራለን	-10.2686
▁ለማውጣት	-10.2686
▁ጨርቅ	-10.2686
▁ግራ	-10.2686
ቻቸውን	-10.2686
▁አርሲ	-10.2687
▁በመነጋገር	-10.2688
▁አድማሱ	-10.2689
▁ተነሳሽነት	-10.269
▁እንዲኖራቸው	-10.2691
▁ሰብሳቢነት	-10.2703
▁የእጅ	-10.2705
▁ኮምቦልቻ	-10.2706
▁ያንን	-10.2708
▁አመፅ	-10.2717
▁ካሉት	-10.2718
▁በወንጀል	-10.2719
ረዋል	-10.2719
▁አዱኛ	-10.2724
▁የተቀመጠው	-10.2726
▁አፍሪካውያን	-10.2727
▁ጠባቂዎች	-10.2732
ፕሮጀክት	-10.2734
▁ሰማያዊ	-10.2736
▁ግንባታውን	-10.2736
▁ከፀጥታ	-10.2736
▁በማድረስ	-10.2737
▁ታጣቂ	-10.2737
▁በጅማ	-10.274
▁የዘርፉ	-10.2741
▁መስፋፋት	-10.2742
▁ምስረታ	-10.2745
▁እሳቸው	-10.2748
▁የቫይረሱን	-10.2755
▁እንደነበርም	-10.2758
▁በጥልቀት	-10.2762
▁የደሀንነት	-10.2762
▁ሰልፎች	-10.2762
▁የኦነግ	-10.2764
▁መጨመር	-10.2764
▁ቴ	-10.2764
▁አብዛኛው	-10.2765
▁ጥናትና	-10.2767
▁ኢንተርፕራይዝ	-10.2768
መሩ	-10.2773
አይ	-10.2777
▁ተወያዩ	-10.2786
▁ዲፕሎማሲ	-10.2786
▁ሀይ	-10.2787
▁መኮንኖች	-10.28
▁ትገኛለች	-10.28
▁በሚቻልበት	-10.28
▁ፈታኝ	-10.28
▁ስለነበር	-10.2802
▁መታቀዱን	-10.2803
▁እሳት	-10.2805
▁የሚፈጥር	-10.2806
▁የደረጃ	-10.2808
▁የታየው	-10.2809
▁ምንተስኖት	-10.2816
ሻል	-10.2818
▁ለአብነት	-10.2818
▁የኤጀንሲው	-10.2819
▁ኒ	-10.2821
▁ሳላዲን	-10.2821
የተ	-10.2823
▁የተጀመረ	-10.2827
▁የማእከላዊ	-10.2831
ብሩ	-10.2836
▁በመነሳት	-10.2838
▁ቀርተዋል	-10.2839
▁ግዛው	-10.2839
▁የተመራ	-10.2841
▁የደን	-10.2845
አስተናጋጅነት	-10.2845
▁መስዋእትነት	-10.2847
▁ቢኖር	-10.2851
▁ቀጥተኛ	-10.2853
▁የሙዚቃ	-10.2853
▁ፕሮግራሞች	-10.2855
▁ትንሽ	-10.2857
▁ተከታዩ	-10.2858
▁የሴካፋ	-10.2864
▁የሚረዳ	-10.2871
▁እስክንድር	-10.2873
▁በስልጣን	-10.2875
ቃል	-10.2877
▁አግኝቷል	-10.2877
▁ክሶች	-10.2877
▁ለመቋቋም	-10.2878
▁ቢሆኑ	-10.288
▁ከኬንያ	-10.2882
ታት	-10.2882
▁ኪር	-10.2884
▁የሚታወቀው	-10.2884
▁የተያያዙ	-10.2885
▁የተመለከተው	-10.2902
ነር	-10.2908
መገናኛ	-10.2912
▁ወረቀት	-10.2915
▁የተመሰረተው	-10.2917
▁ጥሩነህ	-10.292
▁መቃወሚያ	-10.2923
ገደ	-10.2924
ደረግ	-10.2926
▁ኦሊምፒክ	-10.2927
እለት	-10.2933
ፕሮጀክቱ	-10.2938
▁የተሰሩ	-10.2946
ጉዳዩ	-10.295
▁አብ	-10.2953
ዱላ	-10.2954
▁መኩሪያ	-10.2954
▁ክፍሌ	-10.2955
▁እንዲያገኝ	-10.2957
▁የሚጠይቅ	-10.296
▁መገለጫ	-10.2962
▁መሰ	-10.2964
▁በመምጣቱ	-10.2967
▁ሄ	-10.2971
▁ወስደው	-10.2971
▁በአስር	-10.2972
▁በግማሽ	-10.2975
▁የእርዳታ	-10.2976
ሁለተኛው	-10.298
▁ያለበትን	-10.2981
▁የሚገባው	-10.2989
▁የተቋቋመ	-10.2989
▁ሌሎቹ	-10.2989
▁በተደረጉ	-10.2993
▁ሙፍቲ	-10.2993
▁ማስጨበጫ	-10.2993
▁እንደዘገበው	-10.2993
▁የውል	-10.2995
▁ቁጥሩ	-10.3002
▁አረንጓዴ	-10.3007
▁የቱሪስት	-10.3015
▁የፌዴሬሽኑ	-10.3019
ቀረ	-10.3021
ቢሮው	-10.3022
▁አሽከርካሪዎች	-10.3025
▁ለማዘጋጀት	-10.3032
▁ደመወዝ	-10.3032
▁አልቻሉም	-10.3032
▁ተጠቅመው	-10.3032
▁ደረጀ	-10.3032
▁ቦጋለ	-10.3032
▁ያስረዱት	-10.3032
ታው	-10.3033
▁በተፈፀመ	-10.3034
▁ለማስቀረት	-10.3036
▁የመክፈቻ	-10.3037
ርእሰ	-10.3046
ቤት	-10.3051
▁በመደበኛ	-10.3051
ዘርፉ	-10.3051
▁ትልልቅ	-10.3053
▁እንደምታ	-10.3054
ሩን	-10.3056
ጓዙ	-10.3061
ደራ	-10.3075
▁ሀሳቦችን	-10.3083
▁ለአገልግሎት	-10.3084
ሰል	-10.3085
▁መገደላቸውን	-10.3086
▁በማከናወን	-10.3086
ፈለጉ	-10.3088
▁ስላ	-10.3093
▁ጉዳተኞች	-10.3094
▁እንድታ	-10.3094
በሁለተኛው	-10.3103
▁ከጀመረ	-10.3108
▁አምርቶ	-10.3111
▁ስነስርአቱ	-10.3111
▁ሀላባ	-10.3113
▁እየተገነባ	-10.3114
አብ	-10.3123
▁ማሳካት	-10.3124
▁ተቋማዊ	-10.3124
▁ኪራይ	-10.3134
▁ድርጊቱ	-10.3135
በሩ	-10.314
▁ከነበሩት	-10.3142
▁ፋውንዴሽን	-10.315
▁ደበበ	-10.315
▁የሚቀጥል	-10.3155
▁ማህበሩ	-10.3159
ሳት	-10.3163
▁የፕሮጀክቱ	-10.3167
▁የገባ	-10.3168
▁በመሳተፍ	-10.3168
▁አዲግራት	-10.317
▁ተከላካዮች	-10.3181
▁አስታወቀየ	-10.3182
▁ሰምተናል	-10.319
▁በድንበር	-10.3191
▁መቆየታቸውን	-10.3199
▁ተራ	-10.321
▁ችሎቱ	-10.3212
▁የካፍ	-10.3213
▁የሚሳተፉ	-10.3216
▁ያቀረቡትን	-10.3217
▁በጋዜጣው	-10.3221
▁መሰጠቱን	-10.3225
▁አንደ	-10.3226
▁ፕሮግራሙ	-10.3226
▁ክህሎት	-10.323
▁ማቋቋም	-10.3232
▁እንደሚጠናቀቅ	-10.3233
▁እንዲሳተፉ	-10.3235
▁የግራ	-10.3242
▁በጊዜ	-10.3242
▁የማስ	-10.3243
▁አልበሽር	-10.3243
▁የቅርብ	-10.3244
▁በመቀነስ	-10.3249
ለዝርዝሩ	-10.3253
▁የሚገነባው	-10.3254
▁ለልማት	-10.3258
▁መንገዶችን	-10.3259
▁ቅርሶች	-10.3263
▁ኮን	-10.3264
▁ዶ	-10.3268
▁ተፈራርመዋል	-10.327
▁ድሪባ	-10.327
▁ድልድል	-10.3271
ህን	-10.3272
▁ሲንቀሳቀሱ	-10.3274
▁መንደር	-10.3278
▁አቀፋዊ	-10.328
▁የጨዋታው	-10.328
▁ጀኔራል	-10.3281
▁አቡበከር	-10.3283
የኦሮሚያ	-10.3284
▁ፎር	-10.3286
▁አምስተኛ	-10.3296
ሀዳር	-10.3297
▁በኢትዮጵያና	-10.3305
▁አስፈርሟል	-10.331
▁ኦዲተር	-10.331
▁አመስግነዋል	-10.331
ንጅ	-10.3313
▁ቆሻሻ	-10.3314
▁መቀበል	-10.3316
▁ራእይ	-10.3317
▁ቅስቀሳ	-10.3317
▁አብርሀ	-10.3321
▁ብርጋዴ	-10.3331
▁ለክልሉ	-10.3333
▁መሰብሰቡን	-10.3337
▁ቡድናቸው	-10.334
▁አርአያ	-10.334
ብናል	-10.3349
▁ያግዛል	-10.335
▁ይገልፃሉ	-10.335
▁ይኖርበታል	-10.335
▁ጣሰው	-10.3351
▁ሰርተዋል	-10.3351
▁አቅዶ	-10.3352
▁የሚከናወን	-10.3353
▁በኢንዱስትሪ	-10.3355
▁የግሉ	-10.3367
▁ፅዮን	-10.337
ረስ	-10.3375
የው	-10.3379
▁የጎል	-10.3379
▁ልን	-10.3381
ራት	-10.3381
▁ክብረ	-10.3384
▁ታይቶ	-10.3391
▁ማርቆስ	-10.3391
▁ተገኝቷል	-10.3392
▁ማጣራት	-10.3392
▁የዜጎች	-10.3395
▁ሆና	-10.3398
▁በሰፊው	-10.3406
ገር	-10.3408
▁የእለት	-10.3419
▁ተጠርጣሪው	-10.3422
▁የባህልና	-10.3423
▁የበርካታ	-10.3425
ጥቃቱ	-10.3429
▁ግል	-10.343
ስምንት	-10.343
▁ማለታቸው	-10.3431
▁አግኝተዋል	-10.3431
▁የመጀመሪያውን	-10.3434
▁ሆኑ	-10.3435
ኖሩ	-10.3435
▁ለማስፈረም	-10.3436
▁ለማሸነፍ	-10.3437
▁ጊዜው	-10.3439
▁መንገደኞች	-10.3442
▁ቦታዎችን	-10.3444
▁በህብረተሰቡ	-10.3446
▁መከበር	-10.3455
ገዙ	-10.3455
▁ነዋሪዎቹ	-10.3456
▁ጎዳና	-10.3457
ገኙ	-10.3459
▁ሰልፉ	-10.3462
መነ	-10.347
ናሽናል	-10.3471
ስድስት	-10.3476
▁የአረብ	-10.3479
▁ፆታ	-10.348
▁የተጀመሩ	-10.348
ጋር	-10.3483
▁ሆስፒታሎች	-10.3485
▁ሮይተርስ	-10.3485
▁ከኤርትራ	-10.3487
▁አዘጋጅነት	-10.3493
▁ብሩ	-10.3494
ጠና	-10.3503
▁የከተሞች	-10.3507
▁አለመኖሩን	-10.3507
▁ባላ	-10.3509
▁ተቋቁሞ	-10.3515
▁ኢላማ	-10.3518
▁ካልተ	-10.3518
▁ወይን	-10.3519
▁ተሻጋሪ	-10.3519
▁መጠ	-10.352
▁ኡሁሩ	-10.352
ጠቁ	-10.352
▁ሲጠበቅ	-10.3521
▁ተሸላሚ	-10.3524
▁ተጨዋቾችን	-10.3527
▁ለዘመናት	-10.3528
▁እንዳልተ	-10.353
▁ካርቱም	-10.3535
አክሲዮን	-10.3536
▁የካቢኔ	-10.3537
▁ኩ	-10.3544
▁እንዲመሩ	-10.3547
ታይ	-10.3554
▁አልተሳካም	-10.3554
▁ታስረው	-10.3555
▁ያቀረቡ	-10.3556
▁አስከፊ	-10.3557
▁ስለተ	-10.3562
▁ነች	-10.3569
▁ጋምቤላ	-10.3572
▁ተደራሽነት	-10.358
ቸዉ	-10.3581
ተከታታይ	-10.3582
ዎችና	-10.3586
መሪዎቹ	-10.3588
▁የጋምቤላ	-10.3588
ችል	-10.359
▁ውበቱ	-10.3596
▁የራሳቸውን	-10.3597
▁ከጤና	-10.3599
ቀርብ	-10.3599
▁ኤር	-10.3603
▁ለመቀጠል	-10.3605
▁ለመያዝ	-10.3606
▁የመንግስታቱ	-10.3607
▁የሰነድ	-10.3608
▁ለማዋል	-10.3609
▁በትላንትና	-10.3609
▁በለጠ	-10.361
▁የክፍያ	-10.3614
▁እንግሊዝ	-10.3619
▁እየተሰጠ	-10.3619
ቦች	-10.3635
▁ሀሳባቸውን	-10.3636
▁ማስተካከያ	-10.3636
▁አጠናቋል	-10.3637
▁አልቻልንም	-10.3637
▁ጉድለት	-10.3638
▁በቅዱስ	-10.3639
▁ሊያደርግ	-10.364
▁የተሻሉ	-10.364
የቀድሞው	-10.3646
▁አዲሱን	-10.365
▁ፎቶ	-10.365
▁የስልጠና	-10.3655
▁ሲገቡ	-10.3656
▁ተባባሪ	-10.3659
▁ሀይማኖታዊ	-10.3661
ቤኒሻንጉል	-10.3662
▁መስማማታቸውን	-10.3672
ከዚያ	-10.3672
▁ሀገሪቱን	-10.3675
▁ለመለየት	-10.3679
▁ትምህርታቸውን	-10.368
▁የቢሮ	-10.368
▁በየቀኑ	-10.368
▁በህዳሴ	-10.3683
▁እንጅ	-10.3688
▁የቢዝነስ	-10.3689
ኝነት	-10.3689
▁በዝግጅት	-10.3691
ከለ	-10.3691
▁እንዲነሳ	-10.3692
▁የሚወጡ	-10.3694
▁አላማው	-10.3696
▁የፕሬስ	-10.37
▁የፈፀሙት	-10.3702
ሼ	-10.3704
▁አዛ	-10.3705
▁አገሪቱን	-10.3707
▁ወረርሽኙን	-10.3711
▁የተሟላ	-10.3714
ሊን	-10.3716
▁የተመሰረተባቸው	-10.3719
▁ለመከላከልና	-10.3719
▁አይገባም	-10.3721
ንዲ	-10.3722
▁ለማስተካከል	-10.3722
▁አስታውቋልየ	-10.3722
ገብ	-10.3729
▁ሰናይ	-10.3731
▁የዋሉት	-10.3731
▁አዋሽ	-10.3732
▁መቀሌ	-10.3737
▁ተቀዳሚ	-10.3738
▁ተጠባባቂ	-10.3739
ቅዳሜ	-10.3743
▁ለማስተናገድ	-10.3745
▁መሳይ	-10.3745
▁ከግብ	-10.3747
አንድ	-10.375
▁የሚችሉበት	-10.3756
▁በግንባታ	-10.3757
▁ሁኔታው	-10.3759
▁በዘመናዊ	-10.3761
▁መጠነኛ	-10.3764
▁ምስጋናቸውን	-10.3769
▁እንዲለቀቁ	-10.3769
▁አያይዘው	-10.3773
▁ስብሰባውን	-10.3776
ጠቀም	-10.3779
▁ለአገሪቱ	-10.3782
▁ሊሰሩ	-10.3784
▁ዲሞክራሲያዊ	-10.3787
▁ዋሽንግተን	-10.3789
▁ጨዋታቸውን	-10.379
ገነባ	-10.3801
▁ያሳ	-10.3801
▁አምስቱ	-10.3804
▁ተመልሷል	-10.3805
▁አልተቻለም	-10.3805
በቀጣይ	-10.3807
▁ማልማት	-10.3808
▁ሴቶችን	-10.3809
▁የጉምሩክ	-10.3809
▁ኪም	-10.381
▁የት	-10.3813
ተጠርጣሪዎቹ	-10.3814
▁ተገኝ	-10.3814
▁ሲጀምር	-10.3819
▁እይታ	-10.382
▁ቢንያም	-10.3821
▁የንፅህና	-10.3823
▁ሲቲ	-10.3825
▁ማምጣት	-10.3826
በአለም	-10.383
▁ቤተሰቦቻቸው	-10.3831
▁የጭነት	-10.3832
▁አቤ	-10.3835
ክረምት	-10.3839
ያዝነው	-10.3842
▁ሉ	-10.3843
▁ተመድ	-10.3846
ጠቃ	-10.3846
▁በማምረት	-10.3847
▁ሲራጅ	-10.3853
▁ከትምህርት	-10.3853
ሚኒስቴር	-10.3856
▁ምርጫውን	-10.3858
▁ኢንቨስት	-10.386
▁የመስጠት	-10.3865
▁አካባቢውን	-10.3868
▁ህፃናትን	-10.3872
▁ሆን	-10.3882
ሌሎች	-10.3882
▁ጤንነት	-10.389
▁መስተዳደር	-10.389
▁ያደረግነው	-10.3891
▁ቁ	-10.3891
▁እንደሚፈጥር	-10.3893
▁የኢጋድ	-10.3895
▁ዮናታን	-10.3898
▁የመን	-10.3899
▁የነበረበት	-10.3899
▁ሪፎርም	-10.39
▁ያሳየ	-10.3902
▁አስተዳደርና	-10.3913
▁ከሺህ	-10.3913
ፌዴሬሽኑ	-10.3917
▁የያዙ	-10.3923
▁እኛም	-10.3932
ተስተካካይ	-10.3933
▁ሳህሌ	-10.3933
▁ይጀመራል	-10.3933
▁አክሏል	-10.3933
▁መገኘታቸውን	-10.394
ዚሁ	-10.3941
▁ጳውሎስ	-10.3942
▁ግብአቶችን	-10.3942
▁የቤተሰብ	-10.395
▁ማሊ	-10.3954
አቃቤ	-10.3955
▁ናሙና	-10.3957
ባንኩ	-10.3957
▁የዛሬው	-10.3957
▁የአካባቢውን	-10.3963
ገድ	-10.3966
▁ተገልጿልየ	-10.3968
▁መፅሀፍ	-10.3968
▁ማሰባሰቢያ	-10.3975
▁ያመለክታሉ	-10.3975
▁በመፍታት	-10.3975
▁አስታውቃለች	-10.3976
▁ለማስፋት	-10.3976
ለቅ	-10.3976
▁ይዘዋል	-10.3976
▁አድ	-10.3978
▁ሊካሄድ	-10.3982
▁ፍሳሽ	-10.3983
▁መግባቱን	-10.3984
▁የተመረጡ	-10.3986
▁ወኪል	-10.399
▁መሪዎቹ	-10.3991
ስር	-10.3992
▁ለውጡን	-10.3996
▁አልጀዚራ	-10.3996
▁የተረጋገጠ	-10.4
▁አስመራ	-10.4002
▁ብላ	-10.4005
▁አቀረበ	-10.4012
▁አመቺ	-10.4019
▁ቢል	-10.402
▁የቁጥጥር	-10.4022
ጊያ	-10.4023
ቀር	-10.4023
▁ለማሟላት	-10.4024
▁አፋር	-10.4025
▁ከግብፅ	-10.4037
▁ሮበርት	-10.4041
▁የሰ	-10.4041
▁የፕሬዚዳንት	-10.4046
ወራ	-10.4052
▁ከህብረተሰቡ	-10.4052
እጩነት	-10.4056
▁ማመንጨት	-10.4062
▁ካልሆነ	-10.4064
▁ሊሆኑ	-10.4065
▁ጁ	-10.4065
ሟላ	-10.4065
ላችሁ	-10.4065
ረዱ	-10.407
▁የክብር	-10.4079
▁የኮንትሮባንድ	-10.4082
ሞች	-10.4086
▁ከሀገሪቱ	-10.4092
▁አማራጮችን	-10.4094
▁ቀዳማዊ	-10.4096
▁ጄ	-10.4102
▁አሳውቋል	-10.4105
▁ቀልጣፋ	-10.4105
▁ለማምረት	-10.4105
▁ላፍቶ	-10.4106
▁ማግስት	-10.4106
▁እንደሚያስችል	-10.4107
▁የያዙት	-10.4112
▁ግንኙነታቸውን	-10.4115
▁በቀረበው	-10.4123
ዮች	-10.4125
▁ድረገፅ	-10.4126
ንጋ	-10.4129
ደረጉ	-10.4131
▁የሚቀርቡ	-10.4132
▁መሄድ	-10.4132
▁ቃጠሎ	-10.4133
▁ለአራት	-10.4133
▁እንደዚህ	-10.4134
▁መላ	-10.4134
▁ስትል	-10.4134
▁መልእክተኛ	-10.4135
ንዳ	-10.4139
▁ሻሸመኔ	-10.4141
▁ቶ	-10.4142
▁ኢትዮጵያዊው	-10.4148
▁የንፁህ	-10.4149
▁በማስተባበር	-10.4149
▁ከሆኑት	-10.4151
▁ለማስ	-10.4158
▁አስፋው	-10.4159
▁ቴክኒክ	-10.4165
▁አድማስ	-10.4167
▁ለቢቢሲ	-10.4168
▁ከሀዋሳ	-10.4171
ሳቸው	-10.4175
▁ከሜዳው	-10.4176
▁የተሳሳተ	-10.4177
▁በካፍ	-10.418
▁ለከፍተኛ	-10.418
ቨር	-10.4191
ትኩረት	-10.4192
▁ተወያይቶ	-10.4193
▁ገፆች	-10.4193
▁ርዝመት	-10.4193
▁አይችልም	-10.4193
▁ይገባሉ	-10.4195
ደም	-10.4195
▁ኖሮ	-10.4196
ብል	-10.4196
ኪንግ	-10.4197
▁ጥቃቱን	-10.4201
▁ዛሬም	-10.4203
▁መቆጣጠሪያ	-10.4206
በቀጣይም	-10.4207
ክሮ	-10.421
ቻል	-10.4212
▁አስተዳደራዊ	-10.4213
የሁለቱ	-10.4213
▁የእምነት	-10.4214
ሚያደርገው	-10.4214
▁ለሚደረገው	-10.4215
▁የተደረገውን	-10.4217
▁ለሆኑ	-10.4219
▁ሊጉን	-10.4226
ቤቱ	-10.4229
▁አመራሩ	-10.4229
▁ዘዴ	-10.4232
▁ከጥቅምት	-10.4236
▁ያለባቸውን	-10.4236
▁ዝርጋታ	-10.4237
▁ተፈፅሟል	-10.4237
▁በብድር	-10.4237
▁አድንቀዋል	-10.4237
▁የማቅረብ	-10.4237
▁ታይቷል	-10.4237
▁አድርገናል	-10.4237
▁ለጤና	-10.4239
▁የተገኘውን	-10.4239
▁በጊዜያዊነት	-10.4241
▁ለመተግበር	-10.4244
▁አድማ	-10.4245
▁ድጋፎች	-10.4245
▁ፊርማው	-10.4245
▁በመሀል	-10.4246
▁እንዲሰጠው	-10.4246
▁አዋሳኝ	-10.4246
▁በቡድኑ	-10.4255
▁ዘነበ	-10.4261
▁ንጉስ	-10.4263
▁ስለመ	-10.4265
ፈረ	-10.4267
▁እንድን	-10.4271
የጤና	-10.4273
▁ተለይተው	-10.4281
▁ብርሀነ	-10.4281
▁ባን	-10.4286
▁እየተካሄዱ	-10.4287
▁የማያ	-10.4287
▁ኔትወርክ	-10.4288
▁እየተዘጋጀ	-10.429
▁መስመሮች	-10.4294
▁መታሰቢያ	-10.4296
▁የኬሚካል	-10.4299
▁ሱራፌል	-10.4299
▁የቦርዱ	-10.4301
ሸት	-10.4305
▁አራዳ	-10.4309
▁አክሱም	-10.431
▁የጀመረ	-10.4317
▁ከተጠናቀቀ	-10.4318
▁ዝና	-10.4318
ሷ	-10.4325
▁የለበትም	-10.4326
▁መንገሻ	-10.4326
▁ተሰማርተ	-10.4327
▁አስታውቋልበ	-10.4332
ቀደም	-10.4339
▁በማረሚያ	-10.4346
▁በግንባሩ	-10.4354
▁የሆኑትን	-10.4355
▁ማታ	-10.4365
ድጋፉ	-10.4368
▁በኢትዮ	-10.4369
▁ያደርገዋል	-10.437
▁ፖስቱ	-10.437
▁ከክልል	-10.437
▁እምብዛ	-10.437
▁የሚስተዋሉ	-10.4375
▁በመቀናጀት	-10.4377
▁ሰጠ	-10.4378
ሄድ	-10.4379
▁መምጣት	-10.438
▁አስገዳጅ	-10.438
▁ቢኒያም	-10.4383
▁እሴቶች	-10.4383
▁በመምራት	-10.4385
ለቀቁ	-10.4386
▁በሁለትዮሽ	-10.439
▁ማሳየቱን	-10.4392
▁የደረሱ	-10.4396
▁ፍጆታ	-10.44
▁ችሎ	-10.4401
▁የህብረተሰቡን	-10.4403
▁ድጋፎችን	-10.4407
▁በቤት	-10.4412
▁ለማስፋፋት	-10.4415
▁መስኮቱ	-10.4415
▁የሚያግዝ	-10.4417
▁ሰፈር	-10.4418
▁በምግብ	-10.4419
▁ጠበቆች	-10.4423
▁ግንባታቸው	-10.4425
▁ቡክ	-10.4425
▁በጥቂት	-10.4425
▁ያገኘ	-10.4426
▁የበረሀ	-10.4431
▁በብቃት	-10.4432
ፈለግ	-10.4437
▁ሼክ	-10.4443
▁በመጨረሻ	-10.4449
▁አምበል	-10.445
▁ግብሮች	-10.445
ፈለገ	-10.4452
ሌላው	-10.4455
▁ካደረገ	-10.4458
▁ተሟጋች	-10.446
▁ፍራፍሬ	-10.446
▁ገልፃለች	-10.446
▁እንደማይችል	-10.4461
▁ሊያደርጉ	-10.4463
▁ሚስ	-10.4467
ያቸውን	-10.4469
▁ድርጅታዊ	-10.447
▁እንዲመለስ	-10.447
▁እንደሚሰራም	-10.4472
▁እኩልነት	-10.4474
▁ከጥር	-10.448
አገሪቷ	-10.4482
▁መለኪያ	-10.4486
▁ኡመድ	-10.4488
▁ሙገር	-10.4489
ያችን	-10.449
▁የተጠናከረ	-10.4492
▁ዘገባዎች	-10.45
▁የፅህፈት	-10.45
▁ስራቸው	-10.4501
ክራ	-10.4504
▁ይፈጥራል	-10.4505
▁ቁጠባ	-10.4505
▁መጥቷል	-10.4505
▁የኢትዮጵያውያን	-10.4509
▁ከነሀሴ	-10.4509
▁እንዲቋረጥ	-10.451
▁መቋቋም	-10.451
▁የህዳሴው	-10.4511
▁የሚናገሩት	-10.4512
▁መታ	-10.4516
▁ውሳኔዎችን	-10.4517
▁የተቀመጡ	-10.4517
▁ከአካባቢው	-10.4532
በለጠ	-10.4533
ግድቡ	-10.4541
▁የተፈፀመ	-10.4543
▁ቦታው	-10.4543
▁የጃፓን	-10.4543
▁ሰለባ	-10.4545
▁በፋይናንስ	-10.4547
▁ቶሎ	-10.4549
▁ተነስተው	-10.4551
▁ዝግጅታቸው	-10.4555
ምንም	-10.4556
▁ለፊት	-10.4559
▁እንደሚውል	-10.456
▁ተፈሪ	-10.456
▁እንደማ	-10.456
▁መጀመራቸውን	-10.4561
▁ተብሏልየ	-10.4566
▁በሲዳማ	-10.4568
▁ናይሮቢ	-10.4569
▁ውድ	-10.4574
ዊት	-10.4574
▁ቡድናችን	-10.4576
▁ድርጅቶችን	-10.4582
ፌዴሬሽን	-10.4583
ቀጣ	-10.4592
▁ግፊት	-10.4596
▁ውስብስብ	-10.4597
መዝ	-10.4597
▁በማረጋገጥ	-10.4598
▁ክሳቸው	-10.4601
▁በሶስቱ	-10.4607
ብሄራዊ	-10.4608
▁ቀጥታ	-10.4609
▁ምልከታ	-10.461
▁ተግዳሮቶች	-10.4612
▁የመሰረት	-10.4614
▁መግለፃቸው	-10.4614
▁ከባለድርሻ	-10.4614
▁ለመከላከያ	-10.462
▁በጥንቃቄ	-10.4623
▁ጥንካሬ	-10.4624
አመት	-10.464
▁ጠቁሞ	-10.4642
▁አፀደቀ	-10.4642
▁ለመረዳት	-10.4643
▁ጀርባ	-10.4643
▁ህብረተሰቡን	-10.4644
▁ግለሰቦችን	-10.4645
ቀጣይ	-10.4645
▁የጀርመን	-10.4651
▁ክፍሉ	-10.4651
ወሰድ	-10.4655
▁መዋእለ	-10.4655
▁ዋነኛው	-10.4657
▁የአማካይ	-10.4663
▁ሀምሳ	-10.4667
▁በዜጎች	-10.4671
▁ለፋና	-10.4673
▁አርበኞች	-10.4673
▁ጳጉሜን	-10.4675
▁ጣሊያን	-10.4675
▁የራሱ	-10.4682
▁ተሹመዋል	-10.4688
▁ማስገባት	-10.4689
▁በማጠናቀቅ	-10.469
▁ባለቤቶች	-10.469
▁ማወቅ	-10.4693
▁ማስወገድ	-10.4694
▁በመባል	-10.4695
▁አባት	-10.4698
▁ከቤት	-10.4698
▁ፖለቲከኞች	-10.4699
▁ፋሲካ	-10.4701
▁ከከፍተኛ	-10.4703
ዘጠኝ	-10.4705
▁የጁንታው	-10.4708
▁ንኡስ	-10.4709
▁የመኪና	-10.4714
▁ውሉን	-10.4717
▁ገልፀዋልከ	-10.472
▁ለሞት	-10.4724
ህገወጥ	-10.4734
▁ተስተውሏል	-10.4735
▁ፈፅሞ	-10.4735
▁ደረጄ	-10.4735
▁ባለመቻላቸው	-10.4735
▁ባለመኖሩ	-10.4736
ጀምር	-10.4737
▁እየተነገረ	-10.4737
▁ብርቱካን	-10.4739
▁ለማጎልበት	-10.4742
▁የጀመረውን	-10.4743
▁ማስመዝገብ	-10.4746
▁ለረዥም	-10.4748
▁የተመዘገበው	-10.4749
ሀር	-10.4752
▁መስጠቱ	-10.4755
▁መቆም	-10.4759
▁ከህግ	-10.4762
ትራፊክ	-10.4765
ነገ	-10.477
▁ክፍላተ	-10.4781
▁ዘመናቸው	-10.4781
▁ወልዴ	-10.4781
▁ተዳርገዋል	-10.4782
በኩሏ	-10.4782
▁ይገባዋል	-10.4783
▁ወዳጅ	-10.4784
ፖሊስ	-10.4786
▁መፈፀማቸውን	-10.4787
▁ሊሰራ	-10.4788
▁ዴቪድ	-10.4789
▁አድርገን	-10.4791
▁ከድሬዳዋ	-10.4791
▁እየደረሰ	-10.4794
▁ሊኖር	-10.4794
▁ቀሪው	-10.4795
▁ተገልጿልበ	-10.4802
▁በወላይታ	-10.4803
መስክ	-10.4804
▁እድሳት	-10.4811
▁የወጣውን	-10.4814
▁አደራ	-10.4818
▁የተፈጠረ	-10.482
▁የአይን	-10.4827
▁ድህነት	-10.4828
▁እህል	-10.4828
▁ደብረፅዮን	-10.4828
▁አስተያየቶች	-10.4829
▁መተማመን	-10.4829
ሊያ	-10.483
▁ከነበሩ	-10.4832
▁ሀውልት	-10.4833
ቀረው	-10.4834
▁በተናጠል	-10.4836
▁ወጭ	-10.4836
▁አንስተው	-10.4836
▁የማንነት	-10.4836
በደቡብ	-10.4838
▁ሙያዊ	-10.4838
▁ማቻር	-10.4841
▁ለሚካሄደው	-10.4843
▁የሚባሉ	-10.4843
ዋቸው	-10.4845
▁ከመጡ	-10.4847
▁አህጉራዊ	-10.4849
▁ካስ	-10.4852
▁ቢሾፍቱ	-10.4852
▁በነበረ	-10.4853
▁የተሰማው	-10.4855
▁በሚጠራው	-10.4855
▁ኖት	-10.4857
ረን	-10.486
▁በሚፈለገው	-10.4861
ወረ	-10.4864
▁በገጠር	-10.4865
▁አመልክተው	-10.4875
▁አጠናክራ	-10.4875
▁ገብረመድህን	-10.4875
▁ፅጌ	-10.4875
▁እጦት	-10.4876
▁እስከሚ	-10.4876
▁እንደሚከናወን	-10.4877
▁የጎዳና	-10.4877
ዎቻቸውን	-10.4881
▁መደረሱን	-10.4884
ስቲ	-10.4886
▁እንደሚያስ	-10.4893
ደረስ	-10.4894
▁ተብሏልበ	-10.4895
▁ተወ	-10.4897
ሬት	-10.4898
▁ግድብን	-10.4898
ጠናቀቁ	-10.4903
▁ቦይንግ	-10.4912
ርስ	-10.4914
▁ፋና	-10.4915
▁እየተከበረ	-10.4923
▁የእስር	-10.4923
▁በአቻ	-10.4929
▁ነባራዊ	-10.4929
▁መግባታቸው	-10.493
▁ምትኩ	-10.4931
▁ልብስ	-10.4935
መካሄድ	-10.4935
▁አሜሪካውያን	-10.4942
ልማ	-10.4942
አን	-10.4945
▁በመቀሌ	-10.495
▁ቀጣና	-10.495
▁መግለፁ	-10.4955
▁የዘር	-10.4966
ሷል	-10.4967
▁ግደይ	-10.4969
▁አይቻልም	-10.497
▁እንደሌላቸው	-10.497
▁ውለዋል	-10.497
▁ከቅዱስ	-10.4971
▁አፈፃፀሙ	-10.4973
▁ለማየት	-10.4975
▁ከመስጠት	-10.4987
▁የተያዘ	-10.4996
▁ሳለ	-10.4996
▁በመስኖ	-10.4996
▁እየተፈፀመ	-10.4998
ልክ	-10.4999
▁በፕሪምየር	-10.5
▁በየመን	-10.5002
ጥሩ	-10.5008
▁ስልጣናቸውን	-10.5013
▁ለግል	-10.5013
በኛው	-10.5013
ህብረቱ	-10.5014
ማስጠንቀቂያ	-10.502
▁ከነበረበት	-10.5021
▁መንጋው	-10.5022
▁ለማስመዝገብ	-10.5022
▁የአፈር	-10.5023
▁አስፈፃሚዎች	-10.5026
▁የሚጠበቅባቸው	-10.5027
ዘመ	-10.5027
▁ሳልቫ	-10.5029
▁አቃቂ	-10.503
▁መጥፋት	-10.5035
▁በደንብ	-10.5035
▁የህብረቱ	-10.504
ገዛ	-10.5044
▁የረጅም	-10.5046
▁ስጦታ	-10.5048
ብኝ	-10.5049
▁ለህዝቡ	-10.5049
▁በቅድሚያ	-10.505
▁እየሰራች	-10.505
ገኘ	-10.505
▁ፕረዚዳንት	-10.505
ቀበሉ	-10.5053
ሆነ	-10.5053
ሰባ	-10.5054
▁መብራት	-10.5054
▁ለመዋጋት	-10.5065
▁ችላለች	-10.5065
▁አድርጋለች	-10.5065
ያው	-10.5067
ወር	-10.5067
▁የጎንደር	-10.5068
▁በቋሚነት	-10.5068
ሚመለከተው	-10.507
▁ልብ	-10.5072
▁የሀ	-10.5073
ሎጂ	-10.5076
▁ጎጃም	-10.5078
▁ለውጡ	-10.5078
▁ተቋራጮች	-10.508
ሰራዊቱ	-10.508
▁ቡሩንዲ	-10.5081
ነስ	-10.5086
▁ሲመራ	-10.5087
▁ተመራማሪዎች	-10.509
▁ከንግድ	-10.509
▁ቤቱም	-10.5092
▁በሚያደርገው	-10.5098
▁ወጣ	-10.5101
ሺዎች	-10.5102
▁በደል	-10.5103
ምባ	-10.5106
▁የሚኒስቴሩ	-10.5107
ካሄድ	-10.5108
▁ፈጥሯል	-10.5113
▁ቆይተው	-10.5113
▁አግኝተው	-10.5113
ሌላኛው	-10.5115
▁አድርገውላቸዋል	-10.5116
▁የተነሳው	-10.5119
▁እንግልት	-10.5121
ጅማ	-10.5122
▁ይሄን	-10.5124
▁በመሰረተ	-10.5125
▁የመጠቀም	-10.5126
▁እንዲፈታ	-10.5126
▁ትጥቅ	-10.5128
መስ	-10.5133
▁የተከናወኑ	-10.5136
▁የመብት	-10.5138
▁ታዳጊዎች	-10.5138
ባበ	-10.5139
▁ሀረር	-10.514
▁በህጋዊ	-10.514
ገረ	-10.5142
▁አስተ	-10.5142
ሩት	-10.5143
ብረ	-10.5143
ስተናገዱ	-10.5149
ንቀሳቀስ	-10.515
▁ገላ	-10.5153
ታሀሳስ	-10.5154
▁የእስልምና	-10.5156
▁እቃዎችን	-10.5159
▁ውሎ	-10.516
▁ጠንክረ	-10.5161
▁ይውላል	-10.5161
▁ሆናለች	-10.5162
መጭው	-10.5162
▁እስረኞች	-10.5163
▁አመራሮችን	-10.5163
▁የተደራጀ	-10.5164
▁ስጋ	-10.5165
▁እንደሚሳተፉ	-10.5166
▁ፍልሰተኞች	-10.5166
▁ዘጋቢ	-10.5168
▁ሙሀመድ	-10.5171
▁በመምጣት	-10.5173
▁ክምችት	-10.5174
▁በተፈጥሮ	-10.5175
▁ሲደርስ	-10.5176
▁አርማ	-10.5178
▁ውክልና	-10.5189
ህብረተሰቡ	-10.5189
▁ኮንፌዴሬሽን	-10.5191
▁መረጋገጡን	-10.5192
▁መሆኗ	-10.5193
▁የነበረችው	-10.5197
ሚመለከታቸው	-10.5202
▁ቆይታው	-10.5203
የዩናይትድ	-10.5205
▁እናደርጋለን	-10.521
▁ገረመው	-10.521
▁ሴክሬታሪያት	-10.521
▁የሰብል	-10.521
▁ውጤቶችን	-10.5213
▁ሁሌ	-10.5214
▁ሲያልፍ	-10.5216
▁ግሩ	-10.5219
ሲዳማ	-10.5224
▁በእውቀት	-10.5228
መዘገብ	-10.523
▁እየመራ	-10.5233
▁ዝርዝሩ	-10.5236
▁ንብረቶች	-10.524
▁መጪው	-10.5242
▁የተመለከተ	-10.5243
▁አፍሪቃ	-10.5244
▁መድሀኒቶች	-10.5247
▁አቡ	-10.5249
▁የኮ	-10.5251
▁አሸባሪ	-10.5252
▁የመንግስትን	-10.5257
▁የተጫወተው	-10.526
▁መረራ	-10.526
▁ዳኛው	-10.5264
▁ጭፍጨፋ	-10.5266
▁የሰማያዊ	-10.5271
▁በፅሁፍ	-10.5274
▁ጨ	-10.5276
▁በአዋጅ	-10.5276
▁ፅ	-10.5276
▁ሰሎሞን	-10.5277
▁ተሰ	-10.5279
▁መደ	-10.528
▁የገጠመው	-10.5283
ገባቸው	-10.5285
▁እንዳያ	-10.5285
▁የኢራን	-10.5288
▁የመሩት	-10.5289
▁የአድዋ	-10.5298
▁ተካሄደ	-10.5298
▁እየተባለ	-10.5302
▁ይሁንታ	-10.5306
▁ንፁህ	-10.5308
▁በቀጠናው	-10.5316
▁ዜናዊ	-10.5321
▁ያገለገሉ	-10.5322
▁ኤክስፖርት	-10.5327
▁አህጉር	-10.5328
▁ባደረገ	-10.5331
ለይ	-10.5332
▁በመውጣት	-10.5335
▁በክልሎች	-10.5337
▁ምርታማነትን	-10.5342
ሳይንስና	-10.5344
መጪዎቹ	-10.5351
▁ያወጣውን	-10.5352
▁ሰላሳ	-10.5353
▁የተሰማቸው	-10.5356
▁ትክክል	-10.5357
▁ዉስጥ	-10.5357
▁ማስቀጠል	-10.5357
▁ለማሰባሰብ	-10.5357
▁ፌደሬሽን	-10.5361
የትግራይ	-10.5363
▁ሊጠናቀቅ	-10.5364
ዘጋጁ	-10.5366
ርማ	-10.5368
ተካ	-10.5375
▁ብለዋልከ	-10.5377
▁እርቅ	-10.5385
▁በዚያ	-10.5386
ቦንድ	-10.5386
▁እስላማዊ	-10.539
▁የሚጠጋ	-10.5393
▁አደረጉ	-10.5399
▁መከሰቱን	-10.5403
ዘን	-10.5403
▁የተመዘገቡ	-10.5405
ፐብሊክ	-10.5406
▁ተቀላቅሏል	-10.5406
▁ወስዷል	-10.5406
▁የቴሌቪዥን	-10.5407
▁የሚያስፈልጉ	-10.5409
▁እንዲፈፀም	-10.541
ፋሲል	-10.5415
▁የገ	-10.5416
▁አለቃ	-10.5416
ሄዱ	-10.5418
▁ፎ	-10.5424
▁ወንድወሰን	-10.5425
▁ርምጃ	-10.5425
▁እንግዳ	-10.5428
▁ጥቁር	-10.5431
▁የቻሉት	-10.5434
▁በቢሾፍቱ	-10.5435
ቋል	-10.5437
▁አማን	-10.5442
▁ከፌደራል	-10.5442
▁በባህርዳር	-10.5447
ዳን	-10.5449
ሁለቱም	-10.545
ወሰን	-10.5455
▁ይገመታል	-10.5456
▁በእቅድ	-10.5456
▁በአለማችን	-10.5457
▁በማሻሻል	-10.5458
ሀገሩ	-10.546
▁እንደማይቻል	-10.5461
ፓርቲው	-10.5462
▁ለማስተላለፍ	-10.5463
▁ከኛ	-10.5467
ገባው	-10.5467
▁በግብ	-10.5469
▁ካይሮ	-10.5474
▁ታላላቅ	-10.5475
መድ	-10.5478
▁የተነሱ	-10.5478
▁ጆርጅ	-10.548
▁መሳተፍ	-10.548
▁ሩስያ	-10.5483
▁የጨረታ	-10.5484
▁ወላጆች	-10.5484
▁በመመለስ	-10.5486
▁በመስከረም	-10.5487
▁የታወቀ	-10.5489
ማቸው	-10.549
ወቅ	-10.5494
▁ሲመሩ	-10.5504
▁ከሰኔ	-10.5505
▁ደማቅ	-10.5506
▁በቁርጠኝነት	-10.5506
▁ከመስመር	-10.5506
▁ተለያይቷል	-10.5507
▁በገበያ	-10.5507
▁የወሰደው	-10.5509
ቅጣት	-10.551
ጥሮስ	-10.5511
▁የሚገልፅ	-10.5512
ዊያን	-10.5513
▁ለፍትህ	-10.5517
▁አፍሪካን	-10.5517
ሳተፉ	-10.5521
▁ከሰሜን	-10.5522
▁ማቋቋሚያ	-10.5523
▁ልማቶችን	-10.5524
ይዝ	-10.5526
▁ሀይሎችን	-10.5526
▁ቢን	-10.5528
ሁን	-10.5528
ኤንድ	-10.5531
▁ዳኛቸው	-10.5532
▁የሚካሄዱ	-10.5536
▁ያክል	-10.5543
▁የኤ	-10.5543
▁ሚንስቴር	-10.5556
▁ስምኦን	-10.5557
▁ተካልኝ	-10.5557
▁በተገናኘ	-10.5557
ፁ	-10.5558
▁ታመነ	-10.5558
▁ስላለ	-10.5558
▁እየተመራ	-10.5567
▁በመቀየር	-10.5569
▁በተባሉ	-10.5572
▁በሚደረጉ	-10.5573
ከል	-10.5574
▁ባልተ	-10.5574
▁ጥይት	-10.5575
▁ፈር	-10.558
▁ደረሰኝ	-10.5583
▁ሌሊት	-10.5584
▁ጭ	-10.5584
▁መስጠታቸውን	-10.5588
▁በደረጃ	-10.559
▁ካናዳ	-10.559
ዩኒቨርሲቲው	-10.5594
▁የቀብር	-10.5599
▁በድል	-10.5599
ድርጊቱ	-10.5605
▁ተካሂዶ	-10.5606
▁በሽብር	-10.5607
▁አውጥቷል	-10.5607
▁እያሳየ	-10.5607
▁ገብረማርያም	-10.5608
▁መቅረብ	-10.561
ጥቅምት	-10.5611
▁መምጣቱ	-10.5612
▁ማጠናቀቁን	-10.5613
ሳሉ	-10.5614
ጀመሩ	-10.5615
▁እንቅስቃሴው	-10.5617
▁ማቅረቡን	-10.5618
▁ለሚገኘው	-10.562
▁መራጮች	-10.5627
▁ከነ	-10.5629
ራር	-10.563
▁ለአካባቢው	-10.563
▁በጅቡቲ	-10.5635
▁ስልት	-10.5639
▁ስቴ	-10.5644
▁የህንድ	-10.5645
▁በታሪክ	-10.5646
▁እንዳላ	-10.5648
ቿ	-10.565
▁የመስራት	-10.5657
▁ተከናውኗል	-10.5658
▁ክፍፍል	-10.5658
▁ኦሮሞ	-10.5658
▁የሱፍ	-10.5658
▁ስህተቶች	-10.5658
▁በመሰብሰብ	-10.5658
ፕሬዝዳንቱ	-10.5659
▁እንዲቋቋም	-10.5663
▁እንደተገለፀው	-10.5665
▁ለመምራት	-10.5665
▁አንበሳ	-10.5671
▁መቀየር	-10.5671
ፌደራል	-10.5672
የከተማ	-10.5674
▁ራሱ	-10.5677
▁በአነስተኛ	-10.5681
ፈቱ	-10.5682
ኩባንያው	-10.5683
▁ፀሀፊው	-10.5685
▁በመካከለኛው	-10.5685
በጉባኤው	-10.5685
▁በህዝቡ	-10.5689
▁በቀድሞው	-10.569
▁ኢንዱስትሪው	-10.5698
▁የተቋሙ	-10.5699
▁የህዝብና	-10.57
▁ውሀና	-10.5702
▁ጣቢያው	-10.5705
ሚኒስትሯ	-10.5707
ምራ	-10.5708
▁አንቶኒ	-10.5709
▁ወክለው	-10.5709
▁እንደሚሰጡ	-10.5712
▁አከባቢ	-10.5718
▁በደብዳቤ	-10.5719
▁አልሲሲ	-10.5719
▁አስፈላጊነት	-10.5722
▁አቀረቡ	-10.5723
▁መገኘት	-10.5724
▁ባደረጉ	-10.5729
▁የሩሲያ	-10.573
▁የአራት	-10.5731
▁መኢአድ	-10.5732
▁በሚባል	-10.5733
▁ቡናዎች	-10.5734
ሳተፍ	-10.5734
ቀድ	-10.5738
▁ከተከሰተ	-10.5741
▁የሚባለው	-10.5742
▁መዋሉን	-10.5744
▁ጌ	-10.5755
▁መሞታቸውን	-10.5756
▁በመተከል	-10.5758
▁የልዩ	-10.5758
▁ይጠቀሳሉ	-10.576
▁አዎንታዊ	-10.576
▁ወንበር	-10.576
▁ሱቆች	-10.576
መለሱ	-10.576
▁ቀረጥ	-10.5761
▁እንድትሆን	-10.5762
▁በተወሰኑ	-10.5762
▁ኢንስፔክተር	-10.5765
መነሻ	-10.5766
▁ገብነት	-10.5766
▁የመቐለ	-10.5766
▁ያሳለፈ	-10.5771
▁በጥራት	-10.5772
▁በውል	-10.5773
ሞላ	-10.5777
▁አንድነትን	-10.578
▁በመተው	-10.5781
ፈን	-10.5781
ጋል	-10.5782
▁መልቀቂያ	-10.5783
▁ሀጂ	-10.5784
▁በመሬት	-10.5787
ሰማራ	-10.5792
▁ፀሀይ	-10.5793
▁ለዜጎች	-10.5795
▁የዩኒቨርሲቲው	-10.5804
በወቅቱ	-10.5808
▁አረም	-10.5808
▁ፕሬዚዳንቶች	-10.5812
▁በማሰባሰብ	-10.5812
ወደፊት	-10.5814
▁ተጠናክረው	-10.5816
ራቸውን	-10.5816
▁በሽታው	-10.5818
ፋት	-10.5819
▁ለቀው	-10.582
▁ያሰ	-10.5825
▁የተለመደ	-10.5827
▁ጀመረ	-10.5829
▁የጥገና	-10.5831
▁በስኬት	-10.5832
ሀገሪቱ	-10.5834
▁ቻምፒየን	-10.5834
ጠው	-10.5836
▁የእውቅና	-10.5837
▁በአላት	-10.5838
▁ውላቸው	-10.5842
ችሉ	-10.5843
▁አስታወቀበ	-10.5843
መረጡ	-10.5851
▁የሞከረው	-10.5854
▁አመራሮቹ	-10.5858
▁እስልምና	-10.586
▁መክፈቻ	-10.5863
ለመልቀቅ	-10.5863
▁ምዘና	-10.5864
▁የቆዳ	-10.5864
▁ባለሀብት	-10.5864
ምሽቱ	-10.5864
▁ለመቀላቀል	-10.5865
▁ዘለቀ	-10.5867
▁አስከ	-10.5867
▁የዞን	-10.5868
የፌደራል	-10.5869
▁አለኝ	-10.5872
▁ብት	-10.588
▁መተግበር	-10.5881
▁ሀር	-10.5883
▁ህገመንግስታዊ	-10.5885
▁አቅራቢዎች	-10.5888
▁የጥምቀት	-10.5889
▁ከተደረገ	-10.5891
▁ቀያቸው	-10.5891
▁ፓርኩ	-10.5892
▁ወራቤ	-10.5895
▁በተጀመረው	-10.5913
▁የመኖር	-10.5915
▁ጉምዝ	-10.5916
▁አቁም	-10.5916
▁የወረዳ	-10.5919
ሀን	-10.592
እድገትና	-10.592
▁ከፍታ	-10.5922
▁ተርታ	-10.5923
ዘረ	-10.5925
▁ከሚያ	-10.5926
▁እንደሚያቀርብ	-10.5926
▁የተሰራ	-10.5926
▁ሊሰጥ	-10.5926
ባለስልጣኑ	-10.593
▁እንደደረሰ	-10.593
▁ወሬ	-10.593
ኖረ	-10.5931
▁የግዥ	-10.5932
ቻይና	-10.5933
▁እሱ	-10.5935
ግቡ	-10.5935
▁የማሻሻያ	-10.5936
ባለ	-10.594
ኮሚቴው	-10.594
▁ተመስርቶ	-10.5941
▁መድረሳቸውን	-10.5942
▁መድ	-10.5944
ከእነዚህ	-10.5949
▁ሳተላይት	-10.5951
▁በጎርፍ	-10.5954
▁ለገጣፎ	-10.5955
▁ከከተማ	-10.5958
ብዙ	-10.5959
▁ከሺ	-10.5963
▁ፅሁፎች	-10.5964
ማይ	-10.5967
▁የፈረንጆ	-10.5967
▁ተመልሰዋል	-10.5968
▁ተይዘዋል	-10.5968
▁አገግመዋል	-10.5968
▁ኪዳኔ	-10.5968
▁የማጣራት	-10.5968
▁በመገንዘብ	-10.5969
▁ዘርአይ	-10.5969
▁አቋርጠው	-10.597
▁ባለሙሉ	-10.5971
▁ይረዳል	-10.5972
▁ባልደረባ	-10.5978
▁ኮር	-10.5978
▁አደሮችን	-10.5981
ፈት	-10.5981
ፍታ	-10.5985
▁ለመጨረሻ	-10.5987
▁አላስፈላጊ	-10.5988
▁አካላዊ	-10.5988
▁አጣሪ	-10.5988
▁የባ	-10.5992
ሆስፒታሉ	-10.5992
ቀመጥ	-10.5993
▁ተካ	-10.5994
▁ለጉዳዩ	-10.5998
ካተቱ	-10.6002
አር	-10.6005
አርባምንጭ	-10.6006
▁ግልፅነት	-10.6006
ጠበቁ	-10.6009
▁መፍጠሩን	-10.601
ደጉ	-10.6012
ሸጡ	-10.6013
▁ተገኝቶ	-10.6016
▁የተጎዱ	-10.6019
▁ለመርዳት	-10.602
▁ርእይ	-10.602
▁አቪዬሽን	-10.602
▁ግኝት	-10.6021
▁ተገዷል	-10.6021
▁እቅዱን	-10.6021
ቆጠሩ	-10.6028
▁ተቋራጭ	-10.6032
ፈተ	-10.6033
▁ማሳየት	-10.6034
▁ተጀመረ	-10.6037
▁እንደሚረዳ	-10.6038
▁ድህነትን	-10.605
▁መዝገቡን	-10.605
ከራ	-10.605
▁ሊቀመንበሩ	-10.6052
▁ፍኖተ	-10.6053
ኮቪድ	-10.6053
▁በመንገድ	-10.6054
ስተካከል	-10.6056
▁ማቀዱን	-10.6059
▁ሁኔታውን	-10.6059
▁ተወዳዳሪዎች	-10.6059
▁ቀነ	-10.6069
ኮን	-10.6071
ውቅ	-10.6073
▁ያለፉት	-10.6073
▁አሰቃቂ	-10.6073
▁ሀምዶክ	-10.6073
▁ተገኝቶባቸዋል	-10.6074
▁እንደምትቀጥል	-10.6075
▁ተደርገው	-10.6075
▁መደገፍ	-10.6077
▁እንዳይገቡ	-10.6077
▁እየተደረጉ	-10.6078
▁እንደሚወስድ	-10.6078
ፓናል	-10.6081
▁አብዱልከሪም	-10.6084
▁የከተማዋን	-10.6086
▁በሀላፊነት	-10.6087
▁በመተላለፍ	-10.6088
▁የአእምሮ	-10.6093
▁ነውከ	-10.6094
▁እድሉ	-10.6094
ቋቋሙ	-10.6096
▁የቻይናው	-10.6101
▁አለመቻሉን	-10.6102
▁በቅድመ	-10.6104
▁ዝ	-10.6108
ራችን	-10.6109
▁ኩማ	-10.6114
ቀለ	-10.6117
▁ሰራተኞቹ	-10.6118
ዝርዝር	-10.6119
አደጋው	-10.612
▁በአብላጫ	-10.6127
▁አደረሳችሁ	-10.6127
▁ትሬዲንግ	-10.6127
▁ያቀርባል	-10.6128
▁ተኩ	-10.6128
▁አለመኖር	-10.6128
▁ደምሴ	-10.6132
▁የቤቶች	-10.6133
▁ኢትዮጵያውያንን	-10.6134
▁አጋሮች	-10.6135
▁ጅ	-10.6135
▁ዲቪዚዮን	-10.6136
▁መግ	-10.6138
▁በማሳየት	-10.6142
▁ሲሰጡ	-10.615
▁ንፅህና	-10.6151
▁ያደረገውን	-10.6152
▁ብርቱ	-10.6153
▁ተናግረዋልከ	-10.6154
▁ዋንጫው	-10.6155
▁ጁባ	-10.6157
ረታ	-10.616
▁ከፕሬዚዳንት	-10.6167
▁ሰነዱ	-10.6169
ኖቹ	-10.6172
ኖራቸው	-10.6174
▁የተመለከቱ	-10.6174
▁ሰንጠረ	-10.618
▁አይደሉም	-10.618
▁ይሳተፋሉ	-10.618
▁ከቀረጥ	-10.618
▁ድልድይ	-10.618
▁ታምራት	-10.618
▁ስርአቶች	-10.618
ፋኖስ	-10.6181
▁በነበሩት	-10.6181
▁ጥሰቶች	-10.6182
▁ፎቅ	-10.6183
▁ንብረታቸው	-10.619
▁በንግግራቸው	-10.619
▁ለዴሞክራሲ	-10.6193
▁አመተ	-10.6194
ተራ	-10.6195
ልተወሰነ	-10.6195
▁ማስተላለፍ	-10.6196
▁ቅርበት	-10.6197
▁ጉልበት	-10.62
ለትን	-10.6201
▁መዳ	-10.6201
▁ንፋስ	-10.6201
▁የዩኒቨርሲቲ	-10.6203
በአፍሪካ	-10.6204
▁ቦረና	-10.6207
▁ባለሀብቶችን	-10.621
▁ቀርቶ	-10.6211
ቴን	-10.6215
▁በጂቡቲ	-10.6215
▁ሊወጣ	-10.6218
▁ትኩረቱን	-10.6222
▁ከሳኡዲ	-10.6223
▁በግሉ	-10.6223
▁ቢኖሩም	-10.6224
▁አልሸባብ	-10.6234
▁ይኖርባቸዋል	-10.6234
▁ልምምዱን	-10.6235
ጠር	-10.6235
▁ማቆም	-10.6236
▁ድርጅቶቹ	-10.6239
የኮሮና	-10.6239
▁ገንዘቡ	-10.6241
▁የሚቻለው	-10.6242
▁እንደማያ	-10.6244
▁እየተስፋፋ	-10.625
▁ቫ	-10.6252
▁ሲጫወት	-10.6258
▁ያገኙ	-10.6258
▁ወግ	-10.6259
▁ቅርብ	-10.626
የብሄራዊ	-10.6262
▁በማንኛው	-10.6265
ፈልግ	-10.6267
▁መያዙ	-10.6267
▁የተወሰኑት	-10.6267
ሪል	-10.6268
ሚቀጥለው	-10.6271
ድፍ	-10.6272
▁በበጎ	-10.6274
▁በእነ	-10.6278
ደረሰባቸው	-10.6284
▁አውጥቶ	-10.6284
▁ብፁእ	-10.6285
ጠናቀቅ	-10.6287
▁ፈጥሮ	-10.6288
▁ማስተላለፊያ	-10.6288
▁ተይዟል	-10.6288
▁በሚቻልባቸው	-10.6288
▁ይልቃል	-10.6288
▁እንደሚያግዝ	-10.6289
▁ብላለች	-10.6289
▁ለመወሰን	-10.6289
▁ለማልማት	-10.6289
▁ካፕ	-10.6294
▁ተማሪዎቹ	-10.6297
▁ኢንቨስተሮች	-10.6298
ተፈፀመው	-10.6298
ደግ	-10.6301
▁ፍቅሩ	-10.6305
ህዳር	-10.6306
▁ባለሞያዎች	-10.6307
▁ባለቤትነት	-10.631
▁ጅማሮ	-10.6311
▁ሏላዊ	-10.6312
▁ታዛቢዎች	-10.6314
▁ብን	-10.6315
▁ሳኒ	-10.6322
▁የሚፈለገው	-10.6323
▁በዘገባው	-10.6324
▁በዋሽንግተን	-10.6325
▁ብራዚል	-10.6327
▁በተመረጡ	-10.6333
▁የተካሄደውን	-10.6337
▁ከጨዋታ	-10.6339
▁በጥናቱ	-10.634
▁ማሻሻያዎች	-10.6342
▁በበላይነት	-10.6342
▁በቶሎ	-10.6343
▁ባዘጋጀው	-10.6344
ሳይበር	-10.6351
ሰሀራ	-10.6352
▁የካፒታል	-10.6353
▁አለን	-10.6353
▁ማሟላት	-10.6357
▁እንደሚፈልጉ	-10.6359
ግራ	-10.636
▁አይነቱ	-10.636
ዘው	-10.6364
ረገ	-10.6364
ነቀ	-10.6367
ኞቹ	-10.6372
▁ያቀረበ	-10.6374
▁አብሮነት	-10.6375
ገደሉ	-10.6376
ታዩ	-10.6377
▁የቀረበለት	-10.6387
▁ለደረሰባቸው	-10.639
ሞቱ	-10.639
▁ሬድዋን	-10.6397
▁ለማስተዋወቅ	-10.6397
ያስ	-10.6397
▁የእቅድ	-10.6397
▁በማቋቋም	-10.6398
ገው	-10.64
▁በተወሰነ	-10.6403
▁አሰራሮች	-10.6403
▁ጃዋር	-10.6406
▁የድርድር	-10.6406
▁ያመለከተው	-10.6407
▁በሰብአዊ	-10.6411
▁ያሳየው	-10.6415
▁ከተገኘባቸው	-10.6419
▁እንደሚገኙበት	-10.6425
ሁት	-10.6427
▁በበቂ	-10.6429
▁ሀሳቡን	-10.643
▁ህጉን	-10.643
ነዋል	-10.644
▁ያገኙት	-10.644
▁ሩ	-10.6441
▁ዋሺንግተን	-10.6442
▁አክ	-10.6442
▁የታጠቁ	-10.6442
▁ታሪኩ	-10.6445
▁በድምቀት	-10.6452
▁ግልጋሎት	-10.6452
▁በመወያየት	-10.6452
▁ትንበያ	-10.6452
▁የሀሰት	-10.6452
▁ለማጣራት	-10.6452
ማእዘን	-10.6454
▁የሚሰጠውን	-10.6454
▁ባለስልጣኖች	-10.6456
ይግባኝ	-10.6458
ፎረሙ	-10.6458
▁ግጭቶችን	-10.6459
▁እንደሚገቡ	-10.646
▁ባካሄዱ	-10.6461
▁የፈጠረ	-10.6461
▁የኦዲት	-10.6462
▁ሊደርስ	-10.6464
ውጤት	-10.6464
▁ፖ	-10.6468
▁ብክለት	-10.6469
ትስ	-10.6469
▁ፍፃሜው	-10.6474
▁ላኪዎች	-10.6475
▁መናገራቸው	-10.6476
ፊያ	-10.6481
▁በስምምነቱ	-10.6483
▁የዘንድሮ	-10.6485
▁የሚሳተፉበት	-10.6485
▁ከዚሁ	-10.6489
▁ሄደው	-10.6493
▁የባለሙያዎች	-10.6494
▁የነፃነት	-10.6498
▁ቡድኖችን	-10.6507
▁ማመላለሻ	-10.6507
▁ተዘጋጅቶ	-10.6507
▁የደመወዝ	-10.6507
▁ጥርጣሬ	-10.6507
▁ተገልፆ	-10.6507
▁ቶማስ	-10.6507
ራን	-10.6507
▁ሲገልፁ	-10.6515
▁የመጨረሻው	-10.6516
▁ቅሬታቸውን	-10.6516
▁ጋሻው	-10.6518
▁ትራፊክ	-10.652
ባይ	-10.652
▁የሚታይ	-10.6521
▁አስናቀ	-10.6522
▁ቀስ	-10.6523
▁በሰኔ	-10.6525
▁መጠናቀቁ	-10.6525
▁ባለአክሲዮኖች	-10.6527
ባቱ	-10.6528
▁ለወጣቶች	-10.6528
▁የኢንፎርሜሽን	-10.6531
▁ማጠቃለያ	-10.6532
▁ያስቆጠረ	-10.6535
▁የጣና	-10.6536
▁ሎዛ	-10.6538
ወሰደ	-10.6541
▁የኮርፖሬሽኑ	-10.6541
▁መቻሉ	-10.6542
ጋራ	-10.6542
▁በሊቢያ	-10.6543
▁ያዘጋጀው	-10.6543
▁ጎረቤት	-10.6548
ለዋል	-10.6548
▁ዋስ	-10.6548
▁ከጅማ	-10.6553
▁በቀድሞ	-10.6556
▁ፍንዳታ	-10.6556
▁የተያዙት	-10.6557
▁ደጀኔ	-10.6563
▁አፍንጫ	-10.6563
ጠዋቱ	-10.6563
▁በግጭቱ	-10.6563
▁በመገምገም	-10.6563
▁እንዲቀጡ	-10.6565
▁ጥሎ	-10.6567
▁ሀላፊነቶች	-10.6567
▁ተጠያቂነት	-10.6568
መጠ	-10.6573
በጨዋታው	-10.6573
ለመ	-10.6576
▁በሀ	-10.6576
ተጠቀሰው	-10.6579
▁ምእመናን	-10.658
▁እፅ	-10.658
ገል	-10.6583
ቀበል	-10.6583
▁አጥነት	-10.6586
▁አንዳንዶቹ	-10.6587
▁ኢዜማ	-10.6588
▁ህይወቱን	-10.6589
▁የሚፈፀም	-10.6591
▁በረራዎች	-10.6595
ፈጥር	-10.6599
▁አሉት	-10.6601
▁ታውቋልየ	-10.6603
▁ኳታር	-10.6603
▁መሰራቱን	-10.6606
▁አስታውቀዋልየ	-10.6615
▁በከተሞች	-10.6617
▁ምርመራውን	-10.6617
▁መካሄዱን	-10.6618
▁ማሳሰቢያ	-10.6618
▁ተመልሰው	-10.662
▁ለፖሊስ	-10.662
መለከት	-10.6621
▁ተሻገር	-10.6622
▁በመከተል	-10.6622
▁የተጠናቀቀው	-10.6623
▁ቤተመንግስት	-10.6624
▁እር	-10.6626
ስሁል	-10.6627
ባሉ	-10.6627
▁በድርድር	-10.663
▁ማሽኖች	-10.663
▁ማስተናገድ	-10.6633
▁ሙሏለም	-10.6634
▁በአደጋው	-10.6634
▁የኦ	-10.6634
▁በቀይ	-10.6639
▁የታገዘ	-10.6641
▁በኤሌክትሪክ	-10.6647
▁መፈጠሩን	-10.665
▁የፈፀሙ	-10.665
▁አምነስቲ	-10.6653
ዚያ	-10.6654
▁የወባ	-10.6654
▁የኢንሹራንስ	-10.6655
ጀመር	-10.666
▁የተረጋጋ	-10.6661
▁እየተወሰደ	-10.6661
▁የገለፀ	-10.6665
▁የተያያዘ	-10.6666
ረከቡ	-10.6667
▁ኛውን	-10.6671
▁ይከናወናል	-10.6675
▁ወስዶ	-10.6675
▁ማጠናቀቅ	-10.668
▁የምስክር	-10.6684
▁መቅረቡን	-10.6693
ስማማ	-10.6697
▁ያሏቸውን	-10.6697
▁ኢንተርኔት	-10.6698
▁ለሚያ	-10.6703
ይሁንና	-10.6705
አግባብ	-10.6707
▁የአፍሪቃ	-10.6711
▁ከሚኖሩ	-10.6713
ውይይቱ	-10.6715
መት	-10.6717
▁እግድ	-10.6718
▁እውነት	-10.6718
ሱን	-10.6723
ፈጠሩ	-10.6724
▁የግማሽ	-10.6724
▁የሴቶችን	-10.6731
▁በማእድን	-10.6731
▁ገርባ	-10.6731
▁ይገባቸዋል	-10.6732
▁ምቤት	-10.6734
▁ተፈናቅለው	-10.6734
▁መላክ	-10.6735
ወይዘሮ	-10.674
ጠፉ	-10.6744
▁ኤምባሲው	-10.6746
▁ሲጀመር	-10.6746
▁ጅግጅጋ	-10.6747
▁እንዳለባቸውም	-10.6753
▁የማስፋፊያ	-10.6759
ቧ	-10.6762
መል	-10.6762
▁የተፈፀመውን	-10.6765
▁እርሳቸው	-10.6769
▁በማእከላዊ	-10.6777
▁መወያየታቸውን	-10.678
▁ክፍተቶችን	-10.6782
▁አብዱ	-10.6787
▁አብያተ	-10.6788
▁ይናገራል	-10.6788
▁አጠራጣሪ	-10.6788
ከመቼውም	-10.6788
▁ቅነሳ	-10.6789
▁ለማዘመን	-10.6791
ከበሩ	-10.6792
▁ፕሮጀክቶቹ	-10.6801
▁ግሎባል	-10.6802
▁ፈቃዱ	-10.6804
▁ማክስ	-10.6804
▁ከአዳማ	-10.6806
▁ህብረቱ	-10.6807
▁የዋና	-10.6807
ባህ	-10.6807
▁ማለቱን	-10.6808
▁ጉጂ	-10.6809
▁ወጣቶቹ	-10.681
▁ለመላክ	-10.6813
▁ዝርፊያ	-10.6815
▁መኖሩ	-10.6815
▁እየፈጠረ	-10.6817
ግንባታው	-10.6825
▁የጣሊያን	-10.6827
▁የማጣሪያ	-10.6829
▁የበሽታው	-10.683
▁ማህበረሰቡ	-10.6832
ከተሉ	-10.6837
▁ቀዳሚው	-10.684
ርት	-10.6843
▁ልገሳ	-10.6845
▁ሙፈሪያት	-10.6845
▁እንችላለን	-10.6845
▁ጭምብል	-10.6845
▁ተመርጠዋል	-10.6845
▁ትርኢት	-10.6845
▁በማስታወስ	-10.6845
▁በመጨመር	-10.6847
▁እንዲጠናከር	-10.6848
▁የዲጂታል	-10.6849
ሚኒስትር	-10.685
▁ሱዳንን	-10.6852
▁አጠናቀው	-10.6853
▁ቪዛ	-10.6854
▁እቅዶች	-10.6861
▁ለማስቆጠር	-10.6861
▁ዳግማዊት	-10.6862
▁የሚፈፀሙ	-10.6864
▁የግድቡን	-10.6867
▁ሞላ	-10.6871
▁አግ	-10.6879
ፋብሪካው	-10.6883
▁ሰጪዎች	-10.6885
ተናል	-10.6886
ግር	-10.6891
▁ገንዘቡን	-10.6901
▁የማሀበራዊ	-10.6903
▁ተመዝግቧል	-10.6903
▁አሰምተዋል	-10.6903
ካለፉት	-10.6903
▁እየተንቀሳቀሱ	-10.6905
ቀዋል	-10.6905
▁ኦሞ	-10.6905
▁ተቀማጭ	-10.6905
▁ኤምሬትስ	-10.691
▁በመቆም	-10.691
▁ሻምፒዮና	-10.6912
▁ርጭት	-10.6912
▁ቆንስላ	-10.6913
▁ኒው	-10.6913
▁የሀላፊነት	-10.6915
ክር	-10.6916
▁ከዘርፉ	-10.6916
▁ለመሄድ	-10.6917
▁የመጫወት	-10.6917
▁ለሁለቱ	-10.6918
▁በንፁሀ	-10.6919
▁አልጄሪያ	-10.6924
▁መባሉን	-10.6926
ጓዝ	-10.6934
▁የተደረገበት	-10.6936
▁ቱሪስቶች	-10.6937
▁ገባ	-10.6939
በተለያዩ	-10.6942
ለቁ	-10.6943
▁ምርታማነት	-10.6943
▁ፔ	-10.6944
▁ሜዳው	-10.6945
▁አድዋ	-10.6947
▁ወንድም	-10.6948
▁ፕሮጀክቱን	-10.6949
▁ዘብ	-10.695
▁የተጠናቀቀ	-10.6952
ችግሩ	-10.6954
▁ከግብርና	-10.6955
ጥል	-10.6956
▁ባለሙያው	-10.6959
▁መከናወኑን	-10.696
▁መጨናነቅ	-10.696
▁ፍስሀ	-10.696
▁ዲሞክራሲ	-10.696
▁እንደሌለበት	-10.6961
▁ታይተዋል	-10.6961
▁በሚያስችል	-10.6962
▁ግብነት	-10.6963
▁ተደርጎላቸዋል	-10.6964
▁የሚከናወኑ	-10.6967
▁ሱዳንና	-10.6967
▁ውጤታማነት	-10.6969
ግለሰቡ	-10.6972
ሀዋሳ	-10.6973
ደመ	-10.6973
▁ልኡል	-10.6977
▁ሲንቀሳቀስ	-10.6978
ጋት	-10.698
ክርሮ	-10.6981
ሳምንታት	-10.6982
▁እኩይ	-10.6983
▁ለችግር	-10.6984
▁ጥቃቶችን	-10.6985
▁የምትገኘው	-10.6988
▁የግጭት	-10.6994
▁የእጣ	-10.6995
▁የታሰሩ	-10.6995
▁የሚያስችላቸውን	-10.6995
በስ	-10.7001
ይን	-10.7002
▁አታ	-10.7007
ላኩ	-10.7009
▁በሰ	-10.7009
ድል	-10.701
▁ያገኙትን	-10.7012
ትሪ	-10.7015
▁ፖል	-10.7016
ቻችን	-10.7017
▁ልቦና	-10.7017
በአገሪቱ	-10.7018
▁መመስረት	-10.7018
▁የፍጥነት	-10.7018
▁በቀዳሚነት	-10.7019
▁ተከፍሎ	-10.7019
▁እያደረሰ	-10.7019
▁የምግብና	-10.7021
▁የተማሪዎች	-10.7021
ዋት	-10.7023
▁ሰን	-10.7025
▁ግንባታና	-10.7027
▁ለተፈናቀሉ	-10.7029
ጠይቅ	-10.7029
▁እንዲመጣ	-10.7034
▁ክፍሎችን	-10.7035
▁የቦታ	-10.7035
ይደር	-10.704
▁ፀ	-10.7043
▁ትላልቅ	-10.7045
▁መሪው	-10.7045
▁ሀላፊዎቹ	-10.7049
▁የደረሰበትን	-10.705
ድን	-10.7055
ለያይ	-10.7075
▁በመተካት	-10.7077
▁አሀዝ	-10.7077
▁ማቀነባበሪያ	-10.7083
▁ፌዴራላዊ	-10.7084
▁የሚመለከተው	-10.7087
▁ጨዋነት	-10.7088
▁አበባው	-10.7088
▁በቱሪዝም	-10.7091
▁ኢሬቴድ	-10.7095
▁አዋጆች	-10.7099
▁በነበረበት	-10.7101
ጠየቅ	-10.7103
▁እጃቸው	-10.7107
▁የጅቡቲ	-10.7111
▁ምርቱን	-10.7112
▁መንግስታቸው	-10.7113
▁ሊያስ	-10.7113
▁እጃቸውን	-10.7114
▁ለመግለፅ	-10.7114
አያይዘውም	-10.7117
▁በድረ	-10.7117
ጣሉ	-10.7124
▁ያጡ	-10.7128
በተ	-10.7129
▁ተከስተ	-10.7129
▁እየሰራን	-10.7133
▁የወሰን	-10.7133
▁ለመወያየት	-10.7136
▁ማዘጋጀት	-10.7136
▁በማደራጀት	-10.7136
▁መዝገቦች	-10.7136
▁አሳሰቡ	-10.7136
ኤጀንሲው	-10.7137
▁አሳሰበ	-10.7137
▁የሚሰራው	-10.7138
▁በማሳተፍ	-10.7138
▁አሰባሰብ	-10.7139
▁በይነ	-10.7139
▁ክከተማ	-10.714
▁ቆዳ	-10.714
▁ነዋሪዎችን	-10.7141
▁በተካሄዱ	-10.7141
▁የወረዳው	-10.7141
▁እንደሻው	-10.7143
▁የተደረሰው	-10.7147
▁በማቅናት	-10.7154
▁የሙቀት	-10.7155
ሼህ	-10.7156
▁ከሚገኙት	-10.716
▁ቅንጅት	-10.7161
▁ይገባልም	-10.7161
▁እስከአሁን	-10.7164
ወስድ	-10.7168
▁ከሚኒስቴሩ	-10.7168
▁ሹ	-10.7168
▁ካላ	-10.717
▁በሚደረግ	-10.7172
ሀል	-10.7173
ርያ	-10.7175
▁ፅንፈኛ	-10.7177
ተሰጣቸው	-10.718
ማት	-10.7183
▁የአንደኛ	-10.7183
▁የታዩ	-10.7184
የጠቅላይ	-10.7186
▁ለገሰ	-10.719
▁አስጠንቅቀዋል	-10.7195
▁ምልክቶች	-10.7195
▁ተደርሷል	-10.7195
▁ጥቅሞች	-10.7195
▁ቋንቋዎች	-10.7195
▁ዘገበ	-10.7197
ዎቻችን	-10.7197
▁እየተገነቡ	-10.7199
▁ፋንታ	-10.7201
▁በፀረ	-10.7203
▁በመጋቢት	-10.7203
▁ወሪ	-10.7204
▁ጠላት	-10.7207
ኋላ	-10.7208
▁በመክፈት	-10.721
▁መለሰ	-10.7215
▁ግፍ	-10.7216
እውነት	-10.7216
▁አካባቢያዊ	-10.7219
▁በሆኑት	-10.7221
▁ኬሚካል	-10.7221
▁ጉዳቱ	-10.7223
▁አልያ	-10.723
▁ለቀጣዩ	-10.723
▁ገዥው	-10.7231
ጠቀሙ	-10.7232
▁መዘጋጀታቸውን	-10.7233
▁ባዬ	-10.7239
▁የግድ	-10.7245
▁የስምምነት	-10.7246
ዋቸዋል	-10.725
▁ከሶማሌ	-10.725
▁የማጣርያ	-10.7251
▁የመድን	-10.7251
▁ይጠበቅባቸዋል	-10.7255
▁የሚሰጣቸው	-10.7255
▁በመታገዝ	-10.7255
▁አስታውቆ	-10.7255
▁ያደረሰው	-10.7255
▁ተቆጣጣሪ	-10.7255
▁በመጫን	-10.7256
▁ገበታቸው	-10.7257
▁ይናገር	-10.726
ባር	-10.7263
▁ስትራቴጂካዊ	-10.7264
▁ታማኝ	-10.7264
▁መርከቦች	-10.7266
▁ይኸው	-10.7266
ለውጡ	-10.7269
ተከላካዮች	-10.7269
▁መልእክታቸውን	-10.727
▁ከጅቡቲ	-10.727
ቤል	-10.7272
▁የተሰራው	-10.7277
▁የወ	-10.7277
▁የዳኝነት	-10.7278
▁የተለዩ	-10.7282
▁ሰባ	-10.7282
▁ኢዴፓ	-10.7284
▁ብዙዎች	-10.729
▁ክቡር	-10.729
አዳዲስ	-10.7291
እስከ	-10.7293
▁በባንኩ	-10.7297
ሌት	-10.7302
▁ተሽከርካሪዎችን	-10.7304
ትውልድ	-10.7304
ቻለው	-10.7312
ጩ	-10.7314
▁ምሳሌ	-10.7314
▁ተሰጥቷቸዋል	-10.7314
▁መአዛ	-10.7314
▁ለኮሮና	-10.7315
▁ሰንጠረዥ	-10.7315
▁እንዲያድግ	-10.7315
▁የተደገፈ	-10.7316
ላንድ	-10.7316
▁ለማሸጋገር	-10.7316
▁እንደማይችሉ	-10.7316
▁መቆራረጥ	-10.7317
▁ከባንኩ	-10.7317
▁የፕሬዚዳንቱ	-10.7319
▁አጥቂዎች	-10.732
▁በአህጉሪቱ	-10.7323
ወርቅ	-10.7324
የመንግስት	-10.7328
▁መቀመጫውን	-10.7329
▁የትጥቅ	-10.7333
▁ለመሰማራት	-10.7336
▁ስርአተ	-10.7337
▁አስታወቀች	-10.7338
▁ውሉ	-10.7339
▁ከገባ	-10.7341
▁ቅርስ	-10.7341
▁የሚያሳዩ	-10.7342
▁የሀረሪ	-10.7342
ፈረንጆቹ	-10.7347
▁ለወራት	-10.7348
▁ሸቀጦች	-10.7355
▁ደረጃቸው	-10.7358
▁የምርጫው	-10.7359
▁ከሆነው	-10.736
ተቋሙ	-10.7365
▁በምት	-10.7366
▁እንዲመራ	-10.7368
▁ያጋጠመው	-10.737
▁ከቆየ	-10.7372
ቆይ	-10.7375
▁አስቀምጧል	-10.7375
▁የሚቀርብ	-10.7375
▁በተቀመጠው	-10.7375
▁እየተባባሰ	-10.7375
▁በፌስ	-10.7376
▁በመረዳት	-10.7378
▁ዝግጁነት	-10.7381
▁እንዲወስድ	-10.7382
ጠቀ	-10.7384
▁ቅሬታዎች	-10.7386
ኮማንድ	-10.7392
▁እርከን	-10.7392
▁መግለፅ	-10.7396
▁ያመራው	-10.7398
▁ሻለቃ	-10.7398
ብርሀን	-10.74
ተጋ	-10.74
▁የተጫወተ	-10.7402
▁ለማቆም	-10.7404
ጣቸው	-10.7405
በአማራ	-10.7405
ሰዋል	-10.7408
▁እንዳደረገው	-10.7409
▁ላደረጉት	-10.7409
▁ለየት	-10.7423
▁መቀ	-10.7425
▁ስል	-10.7427
▁በፈረንሳይ	-10.7427
▁አንስቷል	-10.7435
▁ዘግይቶ	-10.7435
▁ሳጥን	-10.7436
▁እንዳመለከተው	-10.7436
▁ማስረጃዎች	-10.7436
▁ሰነዶችን	-10.7438
▁ለመክፈት	-10.7442
ተኞች	-10.7443
▁የዘለቀው	-10.7446
▁የሊጉን	-10.7451
▁በማስመዝገብ	-10.7451
ሰላም	-10.7452
▁ለቡድኑ	-10.7455
▁ያን	-10.7457
▁የማሀበረሰብ	-10.7462
ጀር	-10.7467
▁የተጣለባቸው	-10.7468
ያለሁ	-10.7469
▁ጎብ	-10.7469
▁በስሩ	-10.7475
▁መኖራቸው	-10.7475
▁ጎርፍ	-10.7477
ናገሩ	-10.748
ከት	-10.7493
▁የራስ	-10.7494
▁ሀገራችን	-10.7495
▁አስቆጥረዋል	-10.7496
▁ተጀምሮ	-10.7496
▁የማመንጨት	-10.7496
▁ታቅዷል	-10.7496
▁አምርቷል	-10.7496
▁ወልደጊዮርጊስ	-10.7496
▁አነጋግረዋል	-10.7497
▁የሰራተኞች	-10.7497
▁ሀረርጌ	-10.7497
▁አውሮፕላኑ	-10.7499
▁ስለማ	-10.75
▁ተምሳሌት	-10.7502
▁ወጥተዋል	-10.7502
▁ሳይሳካ	-10.7503
▁ኒውስ	-10.7509
▁መፅናናትን	-10.7512
▁እንዲነሱ	-10.7512
▁የሲሚንቶ	-10.7514
ቶቻቸው	-10.7515
▁ወንዞች	-10.7516
▁የሚሰጡት	-10.7518
▁በመተግበር	-10.7519
▁አምባ	-10.7522
ድሉ	-10.7522
▁ከድህነት	-10.7525
▁ከእ	-10.7528
▁የስር	-10.7529
▁በምትገኘው	-10.753
▁ስና	-10.7531
▁ተገቢው	-10.7539
ገነ	-10.7542
▁ስምምነቶችን	-10.7544
▁በአገልግሎት	-10.7544
ትራምፕ	-10.7545
▁እንዲጠቀሙ	-10.7545
▁ያደረገችው	-10.7548
▁ሽብርተኝነት	-10.755
▁አሰራሮችን	-10.755
▁ከተባለ	-10.755
▁መል	-10.7551
▁ለጨዋታው	-10.7551
▁ኪሎሜት	-10.7553
▁አውታሮች	-10.7558
▁ኢሳይያስ	-10.7558
▁ገመቹ	-10.7558
▁ተመልክቶ	-10.7558
▁መጥተው	-10.7558
▁አድርሰዋል	-10.7558
▁ወይዘ	-10.7558
▁ለማፋጠን	-10.7558
▁እሳቤ	-10.7559
▁መጠሪያ	-10.7559
▁በተደራጀ	-10.756
ፈጠር	-10.756
▁ባልቻ	-10.7564
▁ለማሳየት	-10.7565
▁አስታውቀው	-10.7566
▁ለህክምና	-10.7569
▁አድናቆት	-10.7571
▁የሞቱ	-10.7572
ሰበ	-10.7574
▁በአዋጁ	-10.7575
▁አገኘሁ	-10.7576
▁ማኔ	-10.7582
▁ቅር	-10.7584
ሉት	-10.7586
▁የተዘጋጁ	-10.7588
▁የሚረዱ	-10.7591
▁ሪል	-10.7591
▁የተቀሰቀሰው	-10.7596
▁በስብሰባው	-10.7599
▁ከፖለቲካ	-10.7601
▁ራስን	-10.7602
ሸነፍ	-10.7603
ድራ	-10.7603
▁ደረሰ	-10.7604
ግብፅ	-10.7613
▁የእለቱ	-10.7613
ጧ	-10.7616
▁ሪፖርቶች	-10.7619
▁ተገድለዋል	-10.7619
▁ዮርክ	-10.762
▁በሀይማኖት	-10.762
▁ገብረስላሴ	-10.762
ታን	-10.762
▁በመግዛት	-10.7621
▁መፈናቀል	-10.7621
▁ተደራጅተው	-10.7624
▁አሳዛኝ	-10.7626
▁እዮብ	-10.7626
▁ዝርያ	-10.7627
ንዴ	-10.763
▁መሀላ	-10.7631
▁የፓርቲ	-10.7632
▁ኤርትራውያን	-10.7634
▁ምክርቤት	-10.7635
ኑን	-10.7638
ሳተላይት	-10.7639
▁በታ	-10.764
▁ለምርጫ	-10.7641
▁ኡን	-10.7644
▁እግዚአብሄር	-10.7646
አል	-10.7647
▁የሚችልበት	-10.7651
▁በድርጅቱ	-10.7653
▁መስፈርቶች	-10.7654
▁ኢኮኖሚያዊና	-10.7657
▁ተጫዋቾቼ	-10.7658
▁ዳዋ	-10.7665
▁የሚገባውን	-10.7666
ላን	-10.7668
▁የተነገረ	-10.7668
▁የሚያወጣ	-10.7668
▁አዘጋጅቶ	-10.767
▁ተጠቃሚነትን	-10.7671
▁ሱፐር	-10.7674
▁የተሰጣቸውን	-10.7676
▁ኮሚኒኬሽን	-10.7681
▁ተካተዋል	-10.7682
▁የሀገራችን	-10.7682
▁ማክበር	-10.7684
▁እንዳይኖር	-10.7687
▁መረዳት	-10.7688
▁በቱርክ	-10.769
▁በእስራኤል	-10.7693
▁እንደሚደርስ	-10.7694
ድሮ	-10.7694
▁የነበራቸውን	-10.7697
▁ቅኝት	-10.7698
▁በእንግሊዝ	-10.7698
▁የአትክልት	-10.77
▁የእውቀት	-10.7702
▁የህብረት	-10.7705
▁ሀይልና	-10.7705
▁የሰጠውን	-10.7706
▁ተቀ	-10.7711
▁በክብር	-10.7711
▁አቅ	-10.7712
▁ክላስተር	-10.7713
ብሮ	-10.7714
ረጅም	-10.7716
▁መልእክቶች	-10.7718
ፎር	-10.7719
▁የሚያስችለው	-10.7721
ገናኝ	-10.7722
ሸን	-10.7722
▁ልታ	-10.7725
▁የሊዝ	-10.7726
▁የፓ	-10.7732
▁ቱሉ	-10.7734
▁ሁላችንም	-10.7734
▁አሸንፈው	-10.7736
ሀገራቱ	-10.7738
▁የተፋሰሱ	-10.7738
▁በወጣቶች	-10.774
ዟ	-10.7741
▁ውይይቱን	-10.7741
▁አንጋፋ	-10.7742
▁ሲኖዶስ	-10.7744
▁በውስጡ	-10.7744
▁ፈፅሟል	-10.7744
▁ጉግሳ	-10.7744
▁በቡድን	-10.7744
▁ትሪሊ	-10.7744
▁የደረሰበት	-10.7745
▁ጠይቆ	-10.7745
▁በንቃት	-10.7745
ከፋ	-10.7747
▁ደር	-10.7747
▁አሸንፈ	-10.7747
▁ከአቶ	-10.7747
▁ናቸውበ	-10.775
ሚኖራቸው	-10.775
▁ውስንነት	-10.7753
ሰፈሩት	-10.7757
▁ከህዝቡ	-10.7758
▁በቪዲዮ	-10.7759
ጠቀስ	-10.7763
▁ተከ	-10.7763
▁አትክልት	-10.7763
ስፖርታዊ	-10.7765
▁ያገኘችው	-10.777
▁በበአሉ	-10.7775
▁እንደሚኖር	-10.7775
▁የተደራጁ	-10.7776
▁ሙስሊሙ	-10.7776
▁ከመደበኛ	-10.7779
▁ነበረው	-10.7782
የእንኳን	-10.7787
▁አግባብነት	-10.7789
ጣጣ	-10.7793
▁ተደርገዋል	-10.7807
▁አስነብቧል	-10.7807
▁አንቀፆች	-10.7807
▁የቁጠባ	-10.7807
▁ፓውንድ	-10.7807
▁አድርሷል	-10.7807
▁ዲባባ	-10.7808
▁እምቅ	-10.7808
▁ተስ	-10.781
▁እንደቻለ	-10.781
▁ለግድቡ	-10.781
ሱዳን	-10.7812
▁መቆጠር	-10.7813
ራዊ	-10.7813
▁እንዳይሆን	-10.7813
▁አብን	-10.7817
▁የታቀደው	-10.7818
▁ናትናኤል	-10.7818
▁ዝግጅቱ	-10.7823
▁ትእግስት	-10.7826
▁ድጋፋቸውን	-10.7831
▁ግድ	-10.7836
▁ግብጠባቂ	-10.7837
▁የሚበልጡ	-10.7837
▁በዝግ	-10.784
ዲስ	-10.7842
▁ቃ	-10.7843
▁በዝውውር	-10.7846
▁የሚከናወነው	-10.7848
ሻሻሉ	-10.7851
ደረሰበት	-10.7854
▁ቅድስት	-10.7856
▁ቆ	-10.7857
▁የተቀሩት	-10.7859
▁መና	-10.786
በዛ	-10.7861
ሯን	-10.7861
ጣራ	-10.7864
▁ተመራማሪ	-10.7866
▁አስረክበዋል	-10.787
▁በጥብቅ	-10.787
▁ርስቱ	-10.787
▁በማስፋት	-10.7871
▁እራሱን	-10.7871
▁ቃላቸውን	-10.7871
▁ገመዳ	-10.7871
▁ፕሮ	-10.7872
▁አድን	-10.7875
▁የሚቆጠር	-10.7882
ደረሱ	-10.7886
አርቲስት	-10.7893
▁በነበሩበት	-10.7896
▁ባቱ	-10.7897
ኞ	-10.7902
▁በዘጠኝ	-10.7903
ቂያ	-10.7907
▁የጥላቻ	-10.7913
▁አሸናፊው	-10.7913
በላ	-10.7914
▁ተነገረ	-10.7927
▁ሆስፒታሉ	-10.7931
▁በአካባቢ	-10.7933
▁ቃለምልልስ	-10.7934
▁ተጫውቷል	-10.7934
▁የመለየት	-10.7934
▁ድርድሮች	-10.7934
▁ለመትከል	-10.7934
▁የዝናብ	-10.7934
▁መጥፎ	-10.7934
ነግ	-10.7934
ማስገኘት	-10.7935
▁ተወላጅ	-10.7936
▁እንደሚጀምሩ	-10.7936
▁ጎሎችን	-10.7936
መሻሽ	-10.7937
▁እንደማይገባ	-10.7938
▁በመንቀሳቀስ	-10.7939
▁በመኖሩ	-10.794
▁በትራንስፖርት	-10.7943
ጥረ	-10.7943
የአ	-10.7944
ጫውቶ	-10.7944
ባባ	-10.7944
▁እንዲችል	-10.7945
▁ለመስማት	-10.7947
▁ሀብቱ	-10.7948
▁ቢደረግ	-10.7948
▁ከተደረገላቸው	-10.7949
▁ከባህር	-10.7949
ካር	-10.7949
▁ወገኖችን	-10.7952
▁የሚያገለግሉ	-10.7953
ሺፕ	-10.7957
▁የመራጮች	-10.7957
▁ኤርፖርት	-10.7958
▁ሎጂስቲክስ	-10.7959
▁ውስን	-10.7962
▁አንድነትና	-10.7964
▁በተቀናጀ	-10.7967
▁ተጠርጣሪዎችን	-10.7967
▁እንደምን	-10.7969
▁ጊዜያቸውን	-10.7974
▁የሚገነባ	-10.798
▁የመብራት	-10.7981
ሎቹ	-10.7982
▁ማዋል	-10.7983
▁የተጣለበት	-10.7983
እንኳን	-10.7984
▁ዳይ	-10.7985
▁ከኢትዮ	-10.799
▁ያው	-10.7995
▁አስፍረዋል	-10.7998
▁ተከብሯል	-10.7998
▁አጋዥ	-10.7998
▁አፅንኦ	-10.8
▁መሀሪ	-10.8003
▁ፈረሰኞቹ	-10.8004
ሰላ	-10.8005
▁አቅማቸው	-10.8006
▁የእናቶች	-10.801
▁በሜዳ	-10.801
▁ምስ	-10.8011
▁ለቤት	-10.8012
▁መመልከት	-10.8015
▁አፍሪካዊ	-10.8018
▁ቀጠናው	-10.8021
▁የደደቢት	-10.8022
▁ይገባ	-10.8025
ለንደን	-10.8026
▁የተላለፈው	-10.8026
ፍራ	-10.8029
ይት	-10.8034
ናገር	-10.8034
▁ነቀምት	-10.8036
▁ለትምህርት	-10.8038
ፈናቀሉ	-10.8039
▁ጥምር	-10.8041
▁መኪኖች	-10.8042
▁የዋንጫ	-10.8046
▁ባለሙያዎቹ	-10.8047
ከስ	-10.8048
▁የተጣለው	-10.8051
የሰላም	-10.8053
▁አቅጣጫዎችን	-10.8054
ሙን	-10.8056
ራሉ	-10.8056
▁በሩሲያ	-10.8056
▁ያስገባ	-10.8057
▁ሙስናን	-10.8061
በሻ	-10.8062
▁ይከበራል	-10.8062
▁ይጠይቃል	-10.8062
▁ተጨዋች	-10.8062
▁አሸብር	-10.8063
▁ይሰ	-10.8063
▁ለመሸጥ	-10.8063
▁አራተኛው	-10.8063
▁ተለያይተዋል	-10.8063
ረት	-10.8066
ድምፅ	-10.8068
▁ባልሆነ	-10.8069
▁በእሳት	-10.807
▁እንዲል	-10.807
▁የካሳ	-10.8073
▁ግርግር	-10.8074
▁ማሽን	-10.8077
ቶታል	-10.808
ቀደመው	-10.808
▁ለንግድ	-10.8081
▁ህብረ	-10.8081
▁ታዲያ	-10.8082
ሰረ	-10.8083
ዷል	-10.8083
▁የተሻ	-10.8083
▁ብልሹ	-10.8087
▁በግራ	-10.8087
ማምራት	-10.8089
▁ምቶች	-10.8089
▁ምስክርነት	-10.8091
ፎች	-10.8091
ደል	-10.8092
▁ጥሬ	-10.8092
▁በመስቀል	-10.8096
▁ስልጠናው	-10.8099
▁ርክክብ	-10.8103
▁የሚያወጡ	-10.8107
መኑ	-10.8108
▁የተሽከርካሪ	-10.8109
▁ሰብሎች	-10.8109
▁በንብረት	-10.8111
▁ቱኒዚያ	-10.8112
የን	-10.8117
▁ለመቅጠር	-10.8127
▁አደረጃጀቶች	-10.8127
▁ረሀብ	-10.8128
▁ውሏል	-10.8128
▁በመከታተል	-10.8129
▁ስቴትሱ	-10.8132
▁ሲመለሱ	-10.8145
▁በደብረ	-10.8148
▁ኖ	-10.8151
አለማቀፍ	-10.8154
▁ማዘ	-10.8154
ሰሜን	-10.8158
▁የመመለስ	-10.8158
▁የተገነቡ	-10.816
▁ተባለ	-10.8163
ቀላቀል	-10.8165
ወን	-10.8169
▁እውነተኛ	-10.8174
▁የግ	-10.8174
▁መመለሳቸውን	-10.8175
ዋለ	-10.818
▁ስብሰባዎች	-10.8183
▁አስተባባሪነት	-10.8184
▁በፓርላማ	-10.819
▁ከመቐለ	-10.8192
▁ንግግራቸው	-10.8193
▁አሳይተዋል	-10.8193
▁ይጫወታል	-10.8193
▁ክንፈ	-10.8193
ሟል	-10.8193
ሚዎች	-10.8194
▁ጫላ	-10.8197
ላክ	-10.82
▁ዘገባውን	-10.8201
ቶቻችን	-10.8202
▁መዋላቸው	-10.8203
▁የቀረው	-10.8204
▁ተሻለ	-10.8205
▁የሶሪያ	-10.8209
▁እንደተቻለ	-10.821
▁እንደሚከበር	-10.8211
▁በሚያስችሉ	-10.8212
▁የዋለው	-10.8216
▁በግንባር	-10.8217
ወሰኑ	-10.8218
▁አልፈው	-10.8219
ጠብቅ	-10.8219
▁ሀኪሞች	-10.8221
▁በተቃራኒው	-10.8222
▁ባይሆንም	-10.8223
▁የቻሉ	-10.8229
▁የሚገኙትን	-10.8231
▁የተለያየው	-10.8233
አለማችን	-10.8236
▁ሳር	-10.8236
▁በመዲናዋ	-10.824
▁የተገነባ	-10.824
▁የራቀ	-10.8241
▁መጠየቃቸውን	-10.8244
ከፈቱ	-10.8248
▁በስምንት	-10.825
▁መቆየታቸው	-10.8254
▁ፍሰሀ	-10.8254
▁እፈልጋለሁ	-10.8258
▁የቁሳቁስ	-10.8258
▁ማስጠበቅ	-10.8259
▁በየወሩ	-10.8259
ያዘ	-10.826
▁በማደግ	-10.8261
▁መካከለኛው	-10.8264
መንት	-10.8265
ከፈ	-10.8265
▁ዳይሬክተሯ	-10.8266
▁የሚወጣው	-10.8266
▁ለፌዴሬሽኑ	-10.8267
ጎሉ	-10.827
▁ዋለልኝ	-10.8271
▁ያልተገባ	-10.8271
▁አልጋ	-10.8272
▁ስልጠናዎች	-10.8274
▁በህንድ	-10.8274
▁ለተጎዱ	-10.8279
ረጋ	-10.8282
ግባ	-10.8284
▁እየታዩ	-10.8287
▁ላደረጉ	-10.8291
▁የጥንቃቄ	-10.8291
▁የሀሳብ	-10.8291
▁ሰፋፊ	-10.8292
▁የገና	-10.8295
▁ፈላጊ	-10.83
▁ሼ	-10.8301
መታየት	-10.8302
▁ስፖርታዊ	-10.8302
▁ከሳሽ	-10.8302
▁መተከል	-10.8303
▁አስቆጣሪ	-10.8304
ሚር	-10.8304
▁ማሰ	-10.8306
▁መግባቱ	-10.8311
▁ማስታወቁ	-10.8312
ቧል	-10.8315
▁ረዳ	-10.8317
▁ቡራዩ	-10.8319
▁ተከሳሹ	-10.832
ኗል	-10.8322
▁ተወስኖ	-10.8324
▁ኡስማን	-10.8325
▁ፌድሬሽን	-10.8325
▁ለማረጋጋት	-10.8325
▁ፀሎት	-10.8325
▁ይሰጣሉ	-10.8325
▁ተቆጥበዋል	-10.8325
ፈለ	-10.8327
▁ስንታየሁ	-10.833
▁እንደቀጠለ	-10.8331
▁ጠቁመዋልበ	-10.8331
ሰጠ	-10.8331
▁በመጀመርያ	-10.8333
ህወሀት	-10.8337
▁አስታውቀዋልበ	-10.8342
▁መምርያ	-10.8342
▁የችግሩ	-10.8342
ገጠመው	-10.8343
ሞት	-10.8347
ውያኑ	-10.8353
▁አራ	-10.8354
▁ማቅረቡ	-10.8354
▁ሽብርተኝነትን	-10.8356
▁ለመክፈል	-10.8356
ሙሉ	-10.8357
ፍሬ	-10.8357
▁ማጭበርበር	-10.8357
▁በጠቅላላው	-10.8358
▁ኩባንያዎቹ	-10.8359
▁በተዘጋጀ	-10.8361
▁ግርማይ	-10.8361
▁በማምጣት	-10.8362
ዳኛ	-10.8363
▁ባጋጠመ	-10.8364
ወልዋሎ	-10.8366
▁በጥቅምት	-10.8366
▁በቤተ	-10.8366
▁ከነማን	-10.837
ገነቡ	-10.837
▁ጋቶች	-10.8371
▁ተለያዩ	-10.8384
ጎል	-10.8385
▁በተቋሙ	-10.8386
▁የተወሰደው	-10.8388
▁አዋጅን	-10.8388
▁የብረታ	-10.8389
የህዝብ	-10.839
አዳማ	-10.839
▁አዳጋች	-10.8391
▁ብርሀኔ	-10.8391
ረሱ	-10.8391
▁እንገኛለን	-10.8392
▁በመሆኗ	-10.8392
▁እድሉን	-10.8393
▁ሞክሮ	-10.8393
▁መጠነ	-10.8394
▁ሶሪያ	-10.8394
▁የተጋለጡ	-10.8395
▁ያነሰ	-10.8395
ወሰዱ	-10.8397
▁ናቸውየ	-10.8397
▁ቦንድ	-10.84
ፅህፈት	-10.8401
▁ኮንትሮባንድ	-10.8405
▁ነበረች	-10.8405
▁ይዛ	-10.8406
▁ኦፌኮ	-10.8407
▁ይርዳው	-10.8408
▁ማቅረባቸው	-10.8411
▁የትኛው	-10.8413
▁የመጀመርያውን	-10.8416
ያዝ	-10.8417
ጠቅላላ	-10.8418
ልማት	-10.8418
ከፍተኛ	-10.8418
ገዳ	-10.8425
▁መገኘቱ	-10.8425
▁እንዳለውም	-10.8426
▁ስልጠናዎችን	-10.8428
ፓርቲዎቹ	-10.8431
▁ቻን	-10.8433
ቋት	-10.8435
▁የአሳ	-10.8437
▁ባንክን	-10.8439
ቆመ	-10.8443
▁በዛ	-10.8449
▁የመሳሰሉት	-10.8452
ዘጋጅ	-10.8454
ቀድመው	-10.8457
▁ያስረዳሉ	-10.8458
▁ክስተቶች	-10.8459
▁ኢማኑኤል	-10.8459
▁አጎራባች	-10.8459
▁ለማራዘም	-10.846
▁ተመላሽ	-10.8463
ደስ	-10.8466
▁ከተያዘ	-10.8467
▁ሲልም	-10.847
▁በደም	-10.8471
▁ሲከበር	-10.8472
▁ተጓ	-10.8474
▁ሀብታቸው	-10.8476
▁አይን	-10.8481
ዳረጉ	-10.8483
▁ለአርሶ	-10.8484
ዮሽ	-10.8487
ቸር	-10.8488
▁አፍ	-10.849
▁ባለሀብቱ	-10.8491
▁የኪራይ	-10.8496
ገለፅ	-10.8497
▁ዘመናት	-10.8497
▁በቀር	-10.8502
▁የተሳተፉት	-10.8508
▁በማምራት	-10.8512
ታማ	-10.8513
▁የሚከሰቱ	-10.8513
▁ፊፋ	-10.8515
▁በአሁን	-10.8515
ቋቋም	-10.852
▁ቻ	-10.8523
▁ተስማምቷል	-10.8526
▁አከባበር	-10.8526
▁ያሳያሉ	-10.8526
▁ይጀምራሉ	-10.8526
▁ተሰጥቷቸው	-10.8526
▁አሸንፈዋል	-10.8528
▁እንዲከናወን	-10.8531
ከተል	-10.8532
▁መነቃቃት	-10.8533
▁አመታቸው	-10.8534
በጎ	-10.8534
▁መጠየቅ	-10.8535
ቀሩ	-10.8537
መልካም	-10.8537
▁አንድም	-10.8539
▁ተሀድሶ	-10.8541
▁ተፈጥሯዊ	-10.8543
ሙት	-10.8543
▁ከመጣ	-10.8544
ቀድሞው	-10.8545
ተጠርጣሪው	-10.8547
▁በግንቦት	-10.8548
ሰበሰበ	-10.8549
ቀጠ	-10.8549
ላችን	-10.8551
▁ራሳቸው	-10.8555
▁ከሶማሊያ	-10.8558
▁የሚፈጠሩ	-10.8559
በመጨረሻም	-10.856
ዬን	-10.8561
▁እንቅስቃሴዎችን	-10.8562
▁መላኩን	-10.8563
ሰጡ	-10.8564
▁የጥበቃ	-10.8568
ወገ	-10.8569
ረከ	-10.8573
▁ልማትን	-10.8575
▁የተጠበቀ	-10.8577
▁የፊፋ	-10.8578
▁በእንቅስቃሴ	-10.8578
▁የሚጠራው	-10.858
▁በጦር	-10.8584
▁የፍፃሜ	-10.8585
▁የታሰሩት	-10.8594
▁ተወስዷል	-10.8594
▁ክሊንተን	-10.8594
▁ድምፃቸው	-10.8594
▁ተጠቆመ	-10.8594
▁የሚጫወቱ	-10.8596
▁እየተጣራ	-10.8598
▁እንደሚወሰድ	-10.8601
▁ተመስርቶባቸው	-10.8603
▁የመላው	-10.8604
▁መነሳሳት	-10.8606
▁ጤናማ	-10.8606
አውሮፓውያኑ	-10.8606
ጥቅ	-10.8607
▁ክልሉን	-10.8608
▁የፌስቡክ	-10.8608
▁ወታደሮችን	-10.8609
ፃፉት	-10.8609
▁ማመልከቻ	-10.861
▁በእግር	-10.8613
ወድ	-10.8617
▁በደረሰበት	-10.8617
ቻለ	-10.8619
▁ድጎማ	-10.862
▁ጥገኝነት	-10.8623
ቴክ	-10.8626
ሪንግ	-10.8628
▁ኢር	-10.8628
▁መርከብ	-10.863
▁ካሜሩን	-10.8632
ረጋገጥ	-10.8633
▁መታሰራቸውን	-10.8635
▁ኳ	-10.8636
▁የፈረንጆቹ	-10.864
ቆዩ	-10.8643
▁ማረፊያው	-10.8643
▁ለነበሩ	-10.8644
ጠየቁ	-10.8645
▁በመጠን	-10.8647
▁ከምክር	-10.8647
ፓርላማው	-10.8648
▁በሸራተ	-10.8649
▁መናገር	-10.8652
▁የተሳተፉበት	-10.8653
ረጋጋ	-10.8653
▁ሀብቶች	-10.8654
▁ታውቋልበ	-10.8658
▁ምግቦች	-10.8663
▁ድምፃዊ	-10.8663
▁ተክሌ	-10.8664
▁ለመነጋገር	-10.8664
▁እየቀነሰ	-10.8664
▁አሻሞ	-10.8664
▁በመቀላቀል	-10.8667
ፓርኩ	-10.8667
▁ፋይሉ	-10.8668
▁የታሰበው	-10.8671
▁አወቀ	-10.8671
▁ለግብ	-10.8671
▁ሰልፈኞች	-10.8672
▁የሴት	-10.8672
ቀጥ	-10.8672
ዘረጋ	-10.8674
▁የጋዜጠኞች	-10.8675
▁መውሰዱን	-10.8675
ፏ	-10.8677
▁የሚያረጋግጥ	-10.8677
▁አብዮታዊ	-10.8679
ካፍ	-10.8681
▁ዝውውሩ	-10.8681
▁ወለል	-10.8682
▁በሚሆኑ	-10.8682
ሀገር	-10.8683
▁ሙጂብ	-10.8686
▁በወር	-10.8687
▁መካከልም	-10.8688
▁በባንክ	-10.8692
ፋቸው	-10.8693
▁ጉዞው	-10.8698
▁ሜክሲኮ	-10.8699
▁በደደቢት	-10.8699
▁አዋ	-10.8699
▁ከአሰልጣኝ	-10.8707
▁ፖሊሲዎች	-10.8724
▁ሀራም	-10.8724
▁ሺዎች	-10.8724
▁አደሩን	-10.8728
▁የነፃ	-10.8728
▁በጨረታ	-10.8731
▁አጋ	-10.8731
አንፃራዊ	-10.8731
▁እማኞች	-10.8732
▁አጠናቀዋል	-10.8732
▁በዚያው	-10.8732
▁በህዝቦች	-10.8732
▁የሰራተኛ	-10.8733
▁እየተከታተለ	-10.8733
▁መዘግየት	-10.8733
▁ተጋጣሚ	-10.8733
▁ክርስቲያናት	-10.8735
▁እንዲሰማሩ	-10.8736
▁ጉዳቶች	-10.8736
▁የቀን	-10.8739
▁ለመመልከት	-10.8739
▁እየገቡ	-10.874
ጪ	-10.8745
▁በዛብህ	-10.8745
▁እንዲውሉ	-10.8745
ስማሙ	-10.8748
▁ወርሀዊ	-10.8749
▁የማዳበሪያ	-10.8753
▁የተመራው	-10.8754
ኔት	-10.8757
▁ክልከላ	-10.8758
▁በአገራችን	-10.8764
▁ተመልካች	-10.8764
▁የፀደቀው	-10.8765
▁እጅጉ	-10.8766
▁ትልቁን	-10.8768
▁የተዳረጉ	-10.8769
▁የጂቡቲ	-10.8771
▁የኢሬቻ	-10.8775
ከው	-10.8778
▁የአርብቶ	-10.8778
ናቸውን	-10.878
▁የቤተ	-10.8781
አስ	-10.8786
▁ለአደጋ	-10.8786
▁የአርሶ	-10.8788
▁በማን	-10.879
መጣው	-10.879
▁ኢኮኖሚክ	-10.8795
ገቡት	-10.8797
ሰለፍ	-10.8797
▁ለመሙላት	-10.8801
▁ይወያያሉ	-10.8801
▁ገጭቶ	-10.8801
▁የሆቴል	-10.8801
▁በማስረዳት	-10.8801
▁ጠር	-10.8802
▁ካሸነፈ	-10.8802
▁በመሸጥ	-10.8802
▁በመቆጣጠር	-10.8804
▁ዙማ	-10.8805
▁ሙሴ	-10.8807
መደ	-10.8809
ተኝነት	-10.8809
የት	-10.881
▁የሚደርሰውን	-10.8811
▁አንዱአለም	-10.8812
ይድ	-10.8813
▁ሁለተኛውን	-10.8815
▁ምስል	-10.8815
▁ማእድናት	-10.8818
▁ለክልሎች	-10.8818
▁በነዳጅ	-10.8819
ፖር	-10.8819
ልብ	-10.8823
▁ሽልማቱ	-10.8828
▁ከአምናው	-10.8828
▁ፒተር	-10.8829
▁የአፈፃፀም	-10.8829
▁ከተካሄደ	-10.883
ዳል	-10.8831
ከብር	-10.8836
ዲሲፕሊን	-10.8836
ፈፀመ	-10.8841
▁የሚደረግበት	-10.8847
ሪዎች	-10.8848
▁ምደባ	-10.885
▁ማዋሉን	-10.885
▁እየመሩ	-10.8853
ለር	-10.8854
▁አሰራርን	-10.8854
▁ዩኒቨርስቲዎች	-10.8858
▁የሩስያ	-10.8858
▁የሽልማት	-10.8858
▁የህዝብን	-10.8863
▁የምስረታ	-10.8869
▁አመርቂ	-10.8871
▁ለመተካት	-10.8871
▁የቦምብ	-10.8871
▁በባህል	-10.8871
ከራከሩ	-10.8871
ከፈል	-10.8871
▁ሀብታዊ	-10.8872
▁እያከናወኑ	-10.8873
▁አዳሙ	-10.8873
▁ስለሚችል	-10.8874
ታወቁ	-10.8875
▁ሲያካሂድ	-10.8875
ጥቁር	-10.8877
▁ማደግ	-10.8879
▁የሚመሩ	-10.888
▁ተጭነው	-10.8882
የትምህርት	-10.8886
ረፈ	-10.8887
▁አላችሁ	-10.8891
▁ለጨረታ	-10.8892
▁መዘናጋት	-10.8892
▁የህዝቡ	-10.8894
▁ያሳተፈ	-10.8894
▁አእምሮ	-10.8898
▁ተሳፋሪዎች	-10.8898
ባቸዉ	-10.8899
▁በነሀሴ	-10.8902
▁የናይል	-10.8913
ችሎት	-10.8913
▁የትራምፕ	-10.8914
▁የግብአት	-10.8914
▁የማን	-10.8914
▁በቆይታቸው	-10.8915
▁የኋላ	-10.8918
▁መዳረጋቸውን	-10.8919
▁ያገለገሉት	-10.8923
▁አልማ	-10.8928
▁ሀላፊዋ	-10.8934
▁ያለፉ	-10.8934
በሁለቱ	-10.8935
▁ነጭ	-10.8936
▁የሲቪክ	-10.8936
▁የተቀመጠ	-10.8937
▁መቻላቸውን	-10.8938
▁ኳሱን	-10.8939
▁ሀገሩ	-10.8941
▁ተቀላቅሎ	-10.8941
▁ይጠቁማሉ	-10.8941
ፈቀዱ	-10.8941
▁አግዳሚ	-10.8941
▁በመገናኛ	-10.8942
▁ዲግሪያቸውን	-10.8942
ፉት	-10.8942
▁ራሷ	-10.8942
▁መጠናከር	-10.8946
ፍር	-10.8948
▁ጠየቀ	-10.8949
▁ጌቱ	-10.8949
▁ለሰብአዊ	-10.8954
አዊ	-10.8954
▁ከማል	-10.8958
▁የተመዘገበ	-10.8959
▁ጆንግ	-10.8959
▁አገሪቷ	-10.8963
▁የሚመ	-10.8963
ፆ	-10.8967
▁ጣ	-10.8974
ስብሰባው	-10.898
ሽልማቱ	-10.8982
▁የሚገኙበት	-10.8982
▁የተፈፀሙ	-10.8983
▁አንዳች	-10.8987
▁ጓ	-10.8989
▁ዛምቢያ	-10.8992
▁ያስተላለፈው	-10.8993
ሪስ	-10.8993
ቀላል	-10.8997
ስቶ	-10.8999
▁የደረሱት	-10.9
▁ማግኘታቸውን	-10.9
ዜጎች	-10.9002
▁ሀኪም	-10.9002
▁ሱሉልታ	-10.9003
▁የምድቡ	-10.9003
▁ተሰጥቶት	-10.9011
▁ሂደቶች	-10.9012
ኩላሊት	-10.9012
▁ስደት	-10.9012
▁ገብረክርስቶስ	-10.9012
ተለምዶ	-10.9012
▁አሞላል	-10.9013
▁ሞዴል	-10.9013
▁ፈለቀ	-10.9013
▁አራጌ	-10.9013
▁የመቆጣጠር	-10.9014
▁ሳይሆኑ	-10.9014
▁በሰዎች	-10.9015
▁የጠየቁት	-10.9017
▁እንዲሻሻል	-10.9019
▁የማነ	-10.9019
▁ሊቀጥል	-10.902
▁በግሩ	-10.902
▁ለዚሁ	-10.9021
▁ዲጂታል	-10.9021
▁በፕሬዚዳንትነት	-10.9021
▁ቆይታለች	-10.9022
▁የሚጠቀስ	-10.9022
▁ከሀላፊነት	-10.9026
▁የዋሉ	-10.9033
▁የሚከተሉት	-10.9033
▁ከመጀመሪያው	-10.9034
▁ኦሎምፒክ	-10.9035
▁ግዙፉ	-10.9037
▁ሙቀት	-10.9037
ስትራቴጂክ	-10.9037
▁ጥያቄው	-10.904
ደራጀ	-10.904
▁በጦርነት	-10.9041
▁አማፅያን	-10.9043
▁ኳስን	-10.9044
▁የዳያስፖራ	-10.9044
ንባብ	-10.9047
▁ጫማ	-10.9048
በያዝነው	-10.9048
መሰረተ	-10.9049
ተመጣጣኝ	-10.9051
ፕሮፌሰር	-10.9052
ነን	-10.9055
▁መክ	-10.9058
▁እየቀረበ	-10.9072
▁ማክሮን	-10.9075
▁መካሄዱ	-10.9077
ቤንሻንጉል	-10.9079
▁የሰሩ	-10.9079
ምቦ	-10.908
ደሩ	-10.9082
▁ተዘጋጅቷል	-10.9084
▁ታምሩ	-10.9084
▁ይገኝበታል	-10.9084
▁እንዳልቻለ	-10.9084
▁ጆንሰን	-10.9085
▁ያሲን	-10.9085
▁ደራሽ	-10.9086
▁እንደሚወያዩ	-10.9086
ቺው	-10.9087
ገደዱ	-10.9087
▁የበአሉ	-10.9089
▁ማህ	-10.9089
▁እንዲቆጠቡ	-10.909
▁ገዳ	-10.909
▁ተፋላሚ	-10.9092
በራ	-10.9094
ሰአት	-10.9094
▁ቀኑ	-10.9095
▁ለውይይት	-10.9095
▁አሚር	-10.9095
▁እንደምትገኝ	-10.9096
ሻሻል	-10.9096
▁ተደረገ	-10.9098
▁ስለማይ	-10.9099
▁ሙስሊሞች	-10.9101
መረቁ	-10.9102
▁ታሪፍ	-10.9105
▁በማስፈረም	-10.9105
▁ሰከንድ	-10.9106
▁ሰጭ	-10.9106
ስልጠናው	-10.9106
▁ተራራ	-10.911
▁ወንጀለኞችን	-10.9111
▁የላከው	-10.9112
▁ፈጥረው	-10.9113
ለል	-10.9113
▁ዘመነ	-10.9115
▁ፉ	-10.9119
ኖክ	-10.9122
▁ኤች	-10.9123
ህዝቡ	-10.9124
▁ለእ	-10.9125
ሾች	-10.9126
የምክር	-10.9128
▁ላላቸው	-10.9128
▁ከጎረቤት	-10.9128
ፈፀሙ	-10.9132
መሰረት	-10.9136
ጠቀሱ	-10.9137
▁በሀሰተኛ	-10.9139
ሚኖረው	-10.914
▁ገልጿልየ	-10.9146
▁በተጓዳኝ	-10.9147
ተገበሩ	-10.915
መረጥ	-10.9151
▁በመልቀቅ	-10.9156
▁አሳውቀዋል	-10.9156
▁አበርክተዋል	-10.9156
▁ልማታዊ	-10.9156
▁ተገምቷል	-10.9156
▁ተገልጧል	-10.9156
▁የእቅዱን	-10.9156
▁የመፍጠር	-10.9156
ተጨማሪ	-10.9156
▁በማስከበር	-10.9156
▁እንዲከታተሉ	-10.9158
▁እንዲወስዱ	-10.9158
▁ውበት	-10.9158
▁ለመምረጥ	-10.9159
ሸንፍ	-10.9159
ደለ	-10.9161
ገቢ	-10.9166
▁ቀይሮ	-10.9166
▁ሀብረተሰብ	-10.9169
▁የቁም	-10.9169
ድሬዳዋ	-10.917
▁ኔታንያሁ	-10.9171
ቋረጥ	-10.9175
▁በፍቅር	-10.9176
▁አላት	-10.9176
▁የመስቀል	-10.9177
▁አቃቢ	-10.9177
▁ማራኪ	-10.918
▁የቀረበባቸው	-10.918
▁በዝቅተኛ	-10.9185
▁በመጓዝ	-10.9187
▁ከዋና	-10.9188
▁በረዳት	-10.9194
▁የሞቱት	-10.9199
መጡበት	-10.9202
ለህ	-10.9205
▁በፌዴሬሽኑ	-10.9208
አድ	-10.9208
▁ልምምዳቸውን	-10.921
▁ከጀመሩ	-10.9211
ግዛ	-10.9211
መዋል	-10.9214
ቀና	-10.9216
▁በሀገራቱ	-10.9218
▁ፕሬዚዳንቷ	-10.9219
▁የሰበታ	-10.9222
▁መሳካት	-10.9228
▁እንዳልቻሉ	-10.9229
▁ዳኘው	-10.9229
▁ሀይለስላሴ	-10.9229
▁ጫኔ	-10.923
▁በማካተት	-10.923
▁እንደሚያሳየው	-10.923
▁ፕሬዚዳንትነት	-10.9233
ወጣቱ	-10.9235
▁ተክተ	-10.9236
▁እንዲቆይ	-10.9236
▁በመደረጉ	-10.9237
▁መዋቅራዊ	-10.9239
▁ሲያቀርቡ	-10.924
▁ይልማ	-10.9241
▁ከመጀመሩ	-10.9243
▁አከባቢዎች	-10.9244
▁በእጅ	-10.9248
▁ዳርቻ	-10.9251
▁ያካሄደው	-10.9251
▁መሞታቸው	-10.9253
ስገባ	-10.9254
ታወስ	-10.9255
▁ለቫይረሱ	-10.9255
▁ታዋቂው	-10.9255
▁የክትትል	-10.9257
▁ጥሪያቸው	-10.9259
▁ተሰጠ	-10.926
▁የስንዴ	-10.9261
▁በክፍለ	-10.9263
▁ዝውውርን	-10.9265
▁በመድረስ	-10.9265
ካሁን	-10.9268
▁ሽረዎች	-10.9268
▁እንደሚኖሩ	-10.9269
ቻምፒየን	-10.927
ማሀበረሰቡ	-10.927
ቀጥል	-10.927
ብኛል	-10.9272
▁ግብፅና	-10.9273
▁አንጋፋው	-10.9276
መድረኩ	-10.9277
ከናወኑ	-10.9284
ስፋፋ	-10.9285
▁መመዘኛ	-10.9289
ግጭቱ	-10.9293
▁በገቢ	-10.9295
▁የተመለሰው	-10.9297
▁ቤን	-10.9297
▁ለመዘርጋት	-10.9301
▁ማብቂያ	-10.9301
▁የኮሙኒኬሽን	-10.9301
▁ያስተናግዳል	-10.9301
▁ያብራሩት	-10.9301
▁ሳንቲም	-10.9301
▁ኢሰብአዊ	-10.9302
ሰቡ	-10.9303
▁ለማዳን	-10.9305
▁ምርጫዎች	-10.9307
▁በተሳካ	-10.9307
ለሙ	-10.9308
▁እንዲጠብቅ	-10.9309
▁አረጋዊ	-10.9309
▁በመክፈል	-10.9312
▁ጫፍ	-10.9312
▁ኳሶችን	-10.9313
ሸንፎ	-10.9314
▁በፈፀሙት	-10.9316
▁ሲቀጥል	-10.9316
▁በቁጥር	-10.9317
▁የኛው	-10.9319
▁ኤግዚቢሽን	-10.9322
▁ሀገሪቷ	-10.9322
▁ተጠቂዎች	-10.9323
▁በማዋል	-10.9324
▁ማድረሱን	-10.9326
▁የልብ	-10.9326
ሀዲ	-10.9327
ጊዜ	-10.933
▁የሚጠይቀው	-10.933
ገለፁ	-10.9331
▁ስነምግባር	-10.9333
ፍት	-10.9334
▁ኮሚዩኒኬሽን	-10.9338
▁የስብሰባ	-10.9339
▁ከውጪ	-10.934
▁ጥቃቅን	-10.9343
▁የባንኩን	-10.9343
ንደር	-10.9346
▁አብዛኛውን	-10.9346
▁በተቻለ	-10.9352
▁ክትባቱ	-10.9355
ስፍራው	-10.9357
▁ለግብፅ	-10.9359
▁ኩባንያዎችን	-10.9361
▁መፅሀፍት	-10.9364
▁ቀር	-10.9364
▁ጭነት	-10.9364
▁የኮሚቴው	-10.9367
ታችሁ	-10.9367
▁የተወሰነው	-10.9368
▁የንግዱ	-10.9371
▁የጉዳት	-10.9374
▁እንፈልጋለን	-10.9375
▁የልምምድ	-10.9375
ጠባበቁ	-10.9375
▁ዳምጠው	-10.9375
▁አይኖርም	-10.9375
▁በመስመር	-10.9375
▁አድራሻ	-10.9375
አካል	-10.9376
ዳዊት	-10.9376
▁መርጃ	-10.9379
▁ሀገረ	-10.9379
ረፍ	-10.9379
▁ከውሀ	-10.9379
ረብ	-10.938
▁ብቸኛው	-10.9382
▁ግንኙነቶች	-10.9383
▁በሚኒስቴሩ	-10.9383
▁አብዮት	-10.9384
▁ካገኘ	-10.9386
ለያ	-10.9389
▁የሚያግዙ	-10.939
ቃለ	-10.939
▁የማግኘት	-10.9391
▁የስ	-10.9393
▁መገደላቸው	-10.9393
▁የእኛ	-10.9395
ጠኑ	-10.9398
▁ደላሎች	-10.9398
▁ከገንዘብ	-10.9403
▁በጥቃቱ	-10.9404
ጂንግ	-10.9404
▁ሰፋ	-10.9405
ደገፉ	-10.9408
▁ለፓርላማ	-10.941
▁በቀኝ	-10.9415
▁የናይጄሪያ	-10.9415
ቀጥሉ	-10.9416
ቋረጡ	-10.9421
▁በመረጃ	-10.9421
▁ቅጣቱ	-10.9421
▁ተጎጂዎች	-10.9425
ቀመጡ	-10.9425
▁መወሰዱን	-10.9429
ቆጠር	-10.9433
▁በጠበቀ	-10.9435
▁ተገቢነት	-10.9436
▁አዳ	-10.9436
ኮርፖሬሽኑ	-10.9442
ጥናቱ	-10.9442
▁ህልፈት	-10.9449
▁አብራርቷል	-10.9449
▁አልታወቀም	-10.9449
▁አይቀርም	-10.9449
▁ቀጥለዋል	-10.9449
▁ለመሸፈን	-10.9449
▁በሯንዳ	-10.945
ነባር	-10.945
▁በርሄ	-10.9451
▁ተጠብቆ	-10.9451
ዘጋጀ	-10.9453
▁ገብሩ	-10.9454
▁ማሻሻያው	-10.9455
ተላለፈ	-10.9458
▁አለመኖሩ	-10.9463
የመከላከያ	-10.9463
▁ሲገለፅ	-10.9465
▁የፍቅር	-10.9467
▁ሴክተር	-10.947
▁በጅግጅጋ	-10.9472
▁ያለችው	-10.9472
▁መጣ	-10.9474
▁የአል	-10.9475
▁መጨመሩን	-10.9476
ትሪክ	-10.9476
▁ኒጀር	-10.9477
▁ከየትኛው	-10.9479
▁እንደሆነች	-10.9481
▁መሳተፋቸውን	-10.9485
▁የአይ	-10.9485
▁ባለቤታቸው	-10.9486
▁ስድስቱ	-10.9488
▁የመካከለኛው	-10.9488
▁በውይይታቸው	-10.949
▁የወሰደ	-10.9497
ጠበቅ	-10.9497
▁የእንቅስቃሴ	-10.9498
▁ዘመኑን	-10.95
ጣት	-10.9505
▁አፍሪካው	-10.9507
▁ማጣት	-10.9511
▁ብለዋልይህ	-10.9513
▁ሲያስ	-10.9514
በረታታ	-10.9515
▁በወረዳው	-10.9517
▁ወጪዎች	-10.9518
▁ተአቅቦ	-10.9523
▁አስገራሚ	-10.9523
▁ሚዛናዊ	-10.9523
▁ሊቃነ	-10.9523
▁አጥናፉ	-10.9523
ቀረበለት	-10.9524
▁ከለላ	-10.9525
▁ሰይድ	-10.9525
▁እንዲከላከሉ	-10.9525
▁ባይኖር	-10.9525
▁መልካሙ	-10.9526
▁አቀራረብ	-10.9527
▁ተሰጥቶታል	-10.9528
የሱዳን	-10.9529
▁እያካሄዱ	-10.9529
▁የአዋሽ	-10.953
ማንኛው	-10.9531
▁ሰርቶ	-10.9532
▁የአስር	-10.9532
▁ሁለገብ	-10.9532
▁በእንስሳት	-10.9536
▁በመመሳጠር	-10.9537
ሰስ	-10.9538
▁በእርግጥ	-10.9541
▁መገለፁ	-10.9542
▁ጠይቀው	-10.9543
▁የማሀበሩ	-10.9543
▁አገራቱ	-10.9543
ኩም	-10.9544
ተጫዋቹ	-10.9544
▁ኑ	-10.9549
▁መስማማታቸው	-10.9549
▁ብሮድካስት	-10.9551
▁እንደሚቀርብ	-10.9558
▁ይዞታዎች	-10.9568
▁ስሜ	-10.9569
ኢንጂነር	-10.957
▁የተከናወነ	-10.957
አባላቱ	-10.957
▁በጀቱ	-10.9574
▁ደቡባዊ	-10.9574
▁ወሰነ	-10.9574
▁የሰራተኛና	-10.9579
▁በመገኘቱ	-10.9582
▁ከሲዳማ	-10.9583
▁በወታደራዊ	-10.9584
▁ተላልፎ	-10.9597
▁የመገንባት	-10.9598
▁ያተኮሩ	-10.9598
▁ምኞት	-10.9598
▁ጉዲና	-10.9599
▁ወቀሳ	-10.9599
ደደቢት	-10.9599
▁ደርሶባቸዋል	-10.96
ከፍሉ	-10.9601
መደቡ	-10.9601
▁እንዲጀመር	-10.9608
▁በመልእክታቸው	-10.961
▁ከምርጫ	-10.9611
▁ለፀጥታ	-10.9612
▁ቢችል	-10.9615
▁ሰልጣኞች	-10.9618
▁በድርቅ	-10.9621
▁የብቃት	-10.9622
▁ታካሚዎች	-10.9627
▁ከወጣ	-10.9628
▁የጠየቀው	-10.9628
ስቴር	-10.9632
▁ገልፀዋልከዚህ	-10.9632
▁የሚገባቸውን	-10.9633
ዋጋ	-10.9636
ነጋገር	-10.9637
▁ጁንታው	-10.964
▁ሀይለየሱስ	-10.9642
▁በጀርመን	-10.9643
ከበር	-10.9644
▁በቤንሻንጉል	-10.9645
እኤአ	-10.9646
ፕሬዚደንት	-10.9646
▁እንደነበረው	-10.9647
▁ጉዳያቸውን	-10.9654
▁ለሱዳን	-10.9657
▁ፈቃዳቸው	-10.9657
ዶክ	-10.9658
▁ለእነዚህ	-10.9661
ወሩ	-10.9662
ክሱ	-10.9662
▁ኢቢሲ	-10.9663
▁ይቀ	-10.9663
ጋለጡ	-10.9663
▁ተጥሎ	-10.9669
ሀድ	-10.9669
ፈርም	-10.9671
▁ለማገልገል	-10.9674
▁ማገልገል	-10.9674
▁ሀጎስ	-10.9674
ኩን	-10.9674
▁ስመኘው	-10.9674
▁ይታያል	-10.9674
▁እንዲያገለግሉ	-10.9676
▁የማቋቋም	-10.9676
▁መከሰት	-10.9678
ርጋ	-10.9679
ኬንያ	-10.9679
▁የሰራዊቱ	-10.968
▁እንዲከፍሉ	-10.9681
▁ከእቅዱ	-10.9683
▁የገዳ	-10.9684
መች	-10.9686
▁ይድነቃቸው	-10.9687
▁ህጎችን	-10.9689
ዮቹ	-10.9692
▁እያሱ	-10.9694
▁ሀገርን	-10.9696
አትሌቲክስ	-10.9697
ወጣቶቹ	-10.9697
▁ሊወጡ	-10.9697
ነዋሪዎቹ	-10.9699
▁መደበኛው	-10.97
▁ጫ	-10.9701
ተላለፉ	-10.9701
ያዙት	-10.9702
▁ነገሪ	-10.9706
▁ከሰላም	-10.9707
ርታት	-10.9707
▁አፈወርቅ	-10.9708
▁ተክሉ	-10.971
▁በፍትህ	-10.9713
ጥሬ	-10.9717
▁ባለስልጣናቱ	-10.9717
▁ኤምባሲዎች	-10.9719
▁በሳምንት	-10.9722
▁አዲ	-10.9722
ጄኔራል	-10.9723
▁በግጭት	-10.9726
▁በሽታውን	-10.9728
ዘንድሮ	-10.9729
▁ለማለት	-10.9734
▁ጥያቄያቸውን	-10.9739
▁ውሀን	-10.9739
▁ጠብቀው	-10.9742
▁ምንነት	-10.9746
ተዳደር	-10.975
▁በሚባለው	-10.975
▁ተላልፏል	-10.9751
▁አስመዝግቧል	-10.9751
▁ምክኒያት	-10.9751
▁ቅያሪ	-10.9751
▁ጤፍ	-10.9751
▁ታገሰ	-10.9751
▁ለግብርና	-10.9751
ዲያ	-10.9752
▁ማረጋገጡን	-10.9752
▁ያጋጠሙ	-10.9752
▁ሊከሰት	-10.9754
መግባ	-10.9756
▁ያስተ	-10.9758
▁ከማስ	-10.9759
▁ተመላሾች	-10.9765
▁ካር	-10.9765
▁ማስታወቁን	-10.9767
▁ምንጭቢቢሲ	-10.9769
ረዳት	-10.9771
ተደረገላቸው	-10.9773
ትምህርት	-10.9776
▁ከሌላው	-10.9779
ነቅ	-10.9779
▁የሳ	-10.978
▁የቋሚ	-10.9781
▁ወድ	-10.9783
ለዩ	-10.9783
ኤም	-10.9785
▁የሚያዙ	-10.9785
▁መቆየት	-10.9787
▁በኢራን	-10.9788
▁ኮንፌድሬሽን	-10.9789
▁ኦህዴድ	-10.9796
ነበራቸው	-10.9796
▁ረዥም	-10.9796
▁አርቲስት	-10.98
▁በጥር	-10.9801
▁ጉብኝታቸው	-10.9802
▁ብሪታንያ	-10.9804
▁ተዋ	-10.9806
▁ማዘጋጀቱን	-10.9807
▁መሳ	-10.9814
መስቀል	-10.9815
▁የቡድኑን	-10.9818
▁ብቻውን	-10.9819
▁የክፍለ	-10.982
ያስፈልግ	-10.9822
▁ባስቆጠረው	-10.9827
▁አሳርፏል	-10.9827
▁ለማበረታታት	-10.9828
▁አይችሉም	-10.9828
▁የሚደነቅ	-10.9828
▁ምክንያታዊ	-10.9828
▁የፋሲል	-10.9828
▁ለመከታተል	-10.9828
▁እንደምታደርግ	-10.9828
▁ቅርፅ	-10.9829
▁እንደምትሰራ	-10.983
▁እየገለፁ	-10.9831
▁ቀለም	-10.9832
▁ሳይችሉ	-10.9832
▁ያስተላለፉት	-10.9833
▁ያገኘውን	-10.9834
▁ለሚፈልጉ	-10.9836
▁መተዳደሪያ	-10.9838
ሟቸው	-10.9839
ቶቻቸውን	-10.9839
▁ስደተኞቹ	-10.9841
▁ልማቱ	-10.9841
▁ከገቡ	-10.9845
▁እየተወጣ	-10.9846
▁ንቁ	-10.9848
▁ከህወሀት	-10.9851
▁እንደሚያደርገው	-10.9854
ፈፀመው	-10.9855
ሰኞ	-10.9855
▁ማናቸው	-10.9855
ላቸውም	-10.9856
▁በሆነችው	-10.9857
▁ለውጦችን	-10.9858
▁አለመሆኑ	-10.9858
▁የሚስተዋለውን	-10.9861
▁ለሴቶች	-10.9861
መግለፅ	-10.9861
ረግ	-10.9862
▁ድንጋጌዎች	-10.9864
▁የመሆን	-10.9869
▁በሙከራ	-10.987
▁ኪሜ	-10.9872
▁በካርቱም	-10.9874
▁እነሱም	-10.9878
▁የሁለተኛው	-10.9878
ሆስፒታል	-10.9879
ታችኛው	-10.9879
▁ሳይንሳዊ	-10.9881
ሪክ	-10.9885
ቅድ	-10.9885
ደርሱ	-10.9889
▁የተጫዋች	-10.9892
እቅዱ	-10.9894
ተኩ	-10.9897
ክረ	-10.9902
ሞክር	-10.9904
▁ካውንስል	-10.9905
▁ይጫወታሉ	-10.9905
▁ሌንጮ	-10.9905
▁ትችት	-10.9905
▁ኤምሬቶች	-10.9905
▁ዛይድ	-10.9905
▁መስተዳድሮች	-10.9906
▁ሰበብ	-10.9906
▁ለምግብ	-10.9908
በጀት	-10.9911
▁እንዳይወጡ	-10.9913
▁የሚመለከት	-10.9917
▁ቦታውን	-10.9918
ባለቤትነት	-10.9918
▁እንዲኖሩ	-10.9918
▁የግብፁ	-10.992
▁ተክለ	-10.992
▁በሂሳብ	-10.9922
ገኘው	-10.9923
▁ተዋጊዎች	-10.9923
ቨ	-10.9924
▁ኩራ	-10.9927
▁ተቀናቃኝ	-10.9927
▁እየተጫወተ	-10.9929
▁የሟቾች	-10.9932
▁በዋስ	-10.9932
▁በሚኒስትሮች	-10.9932
ይሉ	-10.9932
▁ስለመሆኑም	-10.9933
▁በተጠናከረ	-10.9935
▁የሚከተለው	-10.9936
▁በቴክኒክ	-10.9936
ማሀበሩ	-10.9937
▁ከመኖሪያ	-10.9938
ድረ	-10.9939
▁የሚታወቁት	-10.9939
▁ከመሆናቸው	-10.994
▁እንደሚጠበቅባቸው	-10.9941
ፈሩ	-10.9942
ገጥ	-10.9942
▁የሚመጣው	-10.9943
መለሰ	-10.9944
▁የሚከበር	-10.9946
▁የደረሰባቸውን	-10.9946
ወላይታ	-10.9947
ንዱ	-10.9949
▁መስመሩ	-10.9956
ተቀማጭ	-10.9957
ጋዜጠኛ	-10.9958
▁መመለሳቸው	-10.9965
▁የዳኞች	-10.9966
ታሰበው	-10.997
ሀም	-10.997
ሀብ	-10.9974
▁ከፖሊስ	-10.9974
ገና	-10.9975
▁የግድያ	-10.9976
▁የሶስተኛ	-10.9979
ዋለች	-10.9982
▁ያእቆብ	-10.9983
▁እህሎች	-10.9983
▁ከአፋር	-10.9983
▁እነርሱ	-10.9984
▁ፈይሳ	-10.9984
▁ሲያሸንፍ	-10.9985
▁ንረት	-10.9986
▁እያቀረቡ	-10.9987
▁አጥተዋል	-10.9989
▁በመጠናቀቁ	-10.999
▁ለማስመለስ	-10.999
▁ያልታወቀ	-10.999
▁እንዲረጋገጥ	-10.9991
▁መቀላቀል	-10.9992
▁የሚፈፀመው	-10.9992
▁ይኖሩ	-10.9992
▁እየተደረገባቸው	-10.9996
▁የኤሌክትሮኒክስ	-10.9997
▁ከማንኛው	-10.9998
ሳሳ	-10.9998
▁ትራ	-11
አት	-11.0001
▁የሚጠቀሱ	-11.0002
▁የተከለከለ	-11.0003
ተነ	-11.0006
▁በኢ	-11.0006
▁ሲደረጉ	-11.001
▁መደረጋቸውን	-11.0012
▁ለመመከት	-11.0012
▁የሊቢያ	-11.0013
▁ያለዉ	-11.0017
▁ሚዛን	-11.0018
▁በባህላዊ	-11.0021
▁ጠየቁ	-11.0022
ላስ	-11.0024
▁የመያዝ	-11.0025
ኢራን	-11.0028
ርድ	-11.0029
▁አስከሬን	-11.0033
▁በጃፓን	-11.0035
ኤስ	-11.0036
አምባሳደሩ	-11.0036
▁ስቶ	-11.0041
▁አደ	-11.0043
▁ለከፋ	-11.0044
▁ጳጉሜ	-11.0044
ተቋቋመው	-11.005
▁ሰውነት	-11.0051
ላዊ	-11.0051
እራት	-11.0052
▁የአልሸባብ	-11.0058
▁በኮ	-11.0059
▁በሰራው	-11.0059
ጮ	-11.0061
▁አስጠንቅቋል	-11.0062
▁እስማኤል	-11.0062
▁ኢብሳ	-11.0062
▁መውጫ	-11.0062
▁ምስክሮችን	-11.0065
▁እንዳይፈጠር	-11.0065
ሰሞኑን	-11.0066
▁ወደቦች	-11.0067
▁ያሳሰቡት	-11.0067
ፏል	-11.0068
▁ዋቢ	-11.007
እንደሚከተለው	-11.0071
▁መለያየቱ	-11.0072
▁ኢምባሲ	-11.0075
▁አድርጋ	-11.0075
▁ጀግኖች	-11.0076
▁ካሳዬ	-11.0079
▁እጁ	-11.0079
▁የሚያስከትለው	-11.0084
▁የባለ	-11.0088
▁አድር	-11.0088
▁ማስተር	-11.0089
▁በሚሉ	-11.009
▁ሰሊጥ	-11.009
ማረ	-11.009
▁ለአማራ	-11.0091
▁የአገራችን	-11.0093
▁አረጋውያን	-11.0098
▁ሜዳሊያ	-11.0103
ተዘዋዋሪ	-11.0103
ለብ	-11.0106
▁የኦህዴድ	-11.0106
ለኝ	-11.0107
▁የሚያስፈልጋቸው	-11.0109
▁የተፈጠሩ	-11.0109
▁ቀኝ	-11.0111
አፍሪካ	-11.0114
ሮይተርስ	-11.0116
▁ኮትዲ	-11.0119
ሚሊዮን	-11.012
▁ዋጋው	-11.0121
▁በቤታቸው	-11.0125
ልተን	-11.0134
▁ስድስተኛ	-11.0135
▁በማገልገል	-11.0141
▁ይኖራል	-11.0141
▁የኢኖቬሽንና	-11.0141
▁እህት	-11.0142
▁ተጠናቀቀ	-11.0142
▁በማክበር	-11.0142
▁ክንዴ	-11.0142
▁የሽያጭ	-11.0142
▁በአቅራቢያ	-11.0143
▁እየተጠበቀ	-11.0143
▁ቄራ	-11.0144
▁ለተነሱ	-11.0144
▁በሚኒስትር	-11.0144
▁በመመደብ	-11.0144
ጄኔቫ	-11.0145
▁ሊያስከትል	-11.0146
ርታ	-11.0148
አከባቢው	-11.0149
▁ሲፈፅሙ	-11.015
▁ዘካርያስ	-11.015
▁ራስ	-11.0154
▁በፕሬዚዳንት	-11.0156
▁ፊሊፕ	-11.0157
▁አንዲ	-11.0158
▁ድክመት	-11.0163
▁በመኖሪያ	-11.0165
▁ሲስተም	-11.0165
ቱም	-11.0168
▁አስመጪዎች	-11.0168
▁የተቻለ	-11.017
▁የሰጡትን	-11.0175
ፈረሰ	-11.0177
▁የልምድ	-11.0177
▁በእቅዱ	-11.018
▁ተግባሩ	-11.0182
ትላንት	-11.0184
ርፍ	-11.0185
▁ለኢትዮጵያውያን	-11.0188
▁ገልጿልበ	-11.0188
ዊነት	-11.0192
ልፍ	-11.0195
ላለች	-11.0195
▁በኢትዮጵያውያን	-11.0198
▁ላጡ	-11.0199
▁ድርጊቶችን	-11.02
▁ነበርበ	-11.0202
ደግፍ	-11.0203
▁ኢትዮጵያውያኑ	-11.0204
▁ከቀድሞ	-11.0205
▁ስደተኛ	-11.0207
▁በመለያ	-11.0209
▁ጋዜጠኞችን	-11.0212
▁አቅሙን	-11.0212
▁አምቦ	-11.0214
ማለፍ	-11.0214
▁ከፊል	-11.0215
በቁ	-11.0216
▁ሻይ	-11.0217
▁በማድረጉ	-11.0221
▁አስፍሯል	-11.0221
▁ይስሀቅ	-11.0221
▁በማስፋፋት	-11.0221
▁ህፃን	-11.0221
▁ለማመንጨት	-11.0221
▁ብቃቱ	-11.0221
አስፓልት	-11.0221
▁ይኖርብናል	-11.0221
▁በሰብል	-11.0222
▁መቀዛቀዝ	-11.0222
ሳስ	-11.0223
▁ዞኑ	-11.0223
▁መመሪያዎች	-11.0225
▁እንዲቀንስ	-11.0226
ፈቀድ	-11.0226
▁አዟል	-11.0226
▁ደጉ	-11.0228
ግድ	-11.023
▁ሱሌይማን	-11.0233
▁እርቀ	-11.0234
▁እንዲታይ	-11.0235
ነሀሴ	-11.0236
▁ነበረበት	-11.0238
ወሮ	-11.0238
▁ሻምፒዮን	-11.0238
▁ወቅቱ	-11.0238
▁እርምጃው	-11.024
▁ኤጄንሲ	-11.024
▁ላደረገው	-11.0244
ኮች	-11.0244
▁የሁሉን	-11.0245
▁ወዳ	-11.0245
▁መትቶ	-11.0245
ተያዘላቸው	-11.0246
ተከሉ	-11.0246
▁ኦፕሬሽን	-11.0254
ግብረ	-11.0255
የህወሀት	-11.0258
▁የቀበሌ	-11.0259
▁የቀድሞውን	-11.0259
▁አረ	-11.026
በከተማዋ	-11.0263
▁ታማሚዎች	-11.0264
▁ተሰላፊ	-11.0273
▁በታንዛኒያ	-11.0273
▁አሰላ	-11.0274
ረቂቁ	-11.0278
▁መሾማቸው	-11.028
▁ማሀበረሰቡ	-11.028
▁ሀሳብን	-11.0286
▁በሊዝ	-11.0289
▁ደግ	-11.029
በእለቱ	-11.0298
▁በእርሻ	-11.0302
የዳይሬክተሮች	-11.0302
▁አገዛዝ	-11.0302
▁አስተዳድር	-11.0302
▁ለተሰማሩ	-11.0302
▁የሀዘን	-11.0302
▁ገነት	-11.0303
▁በሀምሌ	-11.0303
▁ተገናኝቶ	-11.0304
አርብ	-11.0309
▁ቀሪውን	-11.0311
ጉዳዩን	-11.0313
▁ካጋሜ	-11.0313
አባ	-11.0317
▁ጃን	-11.0317
▁ሎክ	-11.0319
▁የምታደርገው	-11.032
▁እንዲቆሙ	-11.032
▁ንቅናቄው	-11.0322
▁በቡና	-11.0323
▁የሚያጋጥሙ	-11.0328
▁የሰባት	-11.0333
ላሉ	-11.0338
▁መጓዝ	-11.0339
ጉዳቱ	-11.0343
▁እንደቆየ	-11.0344
ድስ	-11.0344
▁ዋልያዎቹ	-11.0348
▁መውጣቱ	-11.0348
▁የሱዳኑ	-11.0353
▁ማስረጃዎችን	-11.0353
ወል	-11.0353
▁አደንዛዥ	-11.0354
▁ሜዳዎች	-11.0355
▁ከምርጫው	-11.0355
▁የቀ	-11.0356
ራለች	-11.0357
▁የወታደራዊ	-11.0358
▁ዜጎቿ	-11.036
ሀብታሙ	-11.036
ሰበሰቡ	-11.0362
ስለሆነ	-11.0363
መስከረም	-11.0366
መልክ	-11.0374
▁ላኪ	-11.0377
▁መስጠታቸው	-11.038
▁እንዲያስ	-11.0381
ደረሰ	-11.0383
▁ሙባረክ	-11.0383
▁ተላልፈው	-11.0383
▁የክለብ	-11.0383
▁ታይምስ	-11.0383
▁ሬዲዮ	-11.0384
▁የማስተዳደር	-11.0384
▁መንደሮች	-11.0384
▁ግምቱ	-11.0385
▁የተጠየቁት	-11.0386
▁ለማደስ	-11.0386
▁የውይይቱ	-11.0386
▁በቃል	-11.0386
ሚፈቅደው	-11.0387
▁ሲከታተሉ	-11.0388
▁እንዲጨምር	-11.0389
▁የተጣራ	-11.0389
▁ግለሰቦቹ	-11.0389
ታሪፍ	-11.039
▁መመሪያው	-11.039
ችሎቱ	-11.0394
ሀራ	-11.0394
▁የመስሪያ	-11.0395
▁መፃህፍት	-11.0396
▁ጥረቱ	-11.0401
ቀጣዩ	-11.0403
▁ማርክ	-11.0405
ደበ	-11.0407
▁ማጎልበት	-11.041
▁ቢባል	-11.0411
▁እዚያው	-11.0411
▁ቁጥርም	-11.0414
ፐር	-11.0415
ይስ	-11.0416
▁ስራዎቹ	-11.0416
ርክ	-11.0417
▁ስጋቶች	-11.0418
▁ከክልሎች	-11.0421
ክልሉ	-11.0423
ገልፅ	-11.0424
ሀገሪቷ	-11.0424
▁ከሪፖርተር	-11.0425
▁ከግል	-11.0426
▁የነጥብ	-11.043
▁የተመ	-11.043
▁ፊልም	-11.0432
▁ሀሳቡ	-11.0435
▁በዳ	-11.0437
▁የሲ	-11.0441
ነቶች	-11.0441
ሰአታት	-11.0443
ሀሙስ	-11.0443
ደቂቃዎች	-11.0445
▁በሶስተኛ	-11.0445
▁የሚኖራቸው	-11.0445
▁ጠቁመዋልየ	-11.0447
▁ብቅ	-11.0449
▁በአውሮፕላን	-11.0452
▁በአይ	-11.0457
አገራቱ	-11.0459
▁ማግባት	-11.0461
▁እንቀጥላለን	-11.0465
ካምፓላ	-11.0465
▁ማስፋፋት	-11.0465
▁በሽተኞች	-11.0465
▁ለመቅረብ	-11.0466
▁በቴሌቪዥን	-11.0466
▁ማሳወቅ	-11.0466
▁ዳውድ	-11.0466
▁የትግል	-11.0467
▁ተካቷል	-11.0467
ቀፍ	-11.0467
▁እየተሻሻለ	-11.0467
▁በቀስ	-11.0472
▁ድቻዎች	-11.0472
▁ታቦር	-11.0473
▁ያመ	-11.0473
ቻለሁ	-11.0475
▁በሶሪያ	-11.0476
▁የህዝቦችን	-11.0479
▁የተከናወነው	-11.0479
▁ቢችሉ	-11.048
አስተዳደሩ	-11.0487
▁ለተጠቃሚዎች	-11.0489
▁ህገመንግስት	-11.0492
ያዘው	-11.0496
ቷቸው	-11.0497
▁የዲዛይን	-11.0499
▁የማጠቃለያ	-11.0501
▁በንፋስ	-11.0501
▁አገዳ	-11.0503
▁ኩራት	-11.0505
▁አልሚዎች	-11.0506
ስል	-11.0508
▁በዋጋ	-11.0509
▁ለእኛ	-11.051
▁የደስታ	-11.0511
ጠብ	-11.0514
ፕሮ	-11.0521
ተኛው	-11.0521
ዌር	-11.0523
▁የባህርዳር	-11.0523
▁ቀረበ	-11.0531
▁የአህጉሪቱ	-11.0531
ሰልፎ	-11.0531
ውሳኔው	-11.0533
ፈፀም	-11.0536
▁ባሻ	-11.0538
▁ከተመሰረተ	-11.0542
ያት	-11.0543
▁ከፌስቡክ	-11.0544
ቆጠቡ	-11.0544
▁ተለይተዋል	-11.0548
▁ተመልክተዋል	-11.0548
▁ተሟጋቾች	-11.0548
▁ንግግሮች	-11.0548
▁አበርክቷል	-11.0548
▁ያገኛሉ	-11.0548
▁ጥጋቡ	-11.0548
▁መለየት	-11.0548
▁ይልቁን	-11.0548
▁ፈቅዷል	-11.0548
▁ማንሳት	-11.0549
▁እንደሚደግፉ	-11.055
▁ቀመር	-11.0551
ጋሪ	-11.0551
▁የሚያገለግል	-11.0552
▁በቦርዱ	-11.0555
▁ተጎጂ	-11.0557
▁መጠየቁን	-11.0558
ቸዉን	-11.0561
▁ምርቱ	-11.0562
ሰለ	-11.0563
▁ሙጋቤ	-11.0563
▁ዳያስፖራ	-11.0563
ሉን	-11.0564
▁የዜግነት	-11.0565
ሁለተኛ	-11.0572
▁የኮንትራት	-11.058
▁ደንቡ	-11.0589
▁አቻው	-11.0589
▁በወረዳ	-11.0596
ሟሉ	-11.0596
▁ሽታ	-11.0598
ልናል	-11.06
ራሳችን	-11.0601
▁ቢስ	-11.0602
መሰረቱ	-11.0603
▁መምጣታቸውን	-11.0609
▁ማግኘቱ	-11.0609
ነቷን	-11.0612
ፎቶ	-11.0614
▁በይቅርታ	-11.0616
▁ጦሩ	-11.0616
መቱ	-11.0629
▁ተሸ	-11.0629
▁በሌሉበት	-11.0631
▁ተወያይቷል	-11.0631
▁አቋራጭ	-11.0631
▁ይደረጋሉ	-11.0631
▁ይገጥማል	-11.0631
▁ረጋሳ	-11.0631
▁ፓኖም	-11.0631
▁ስልኮች	-11.0631
▁አብደል	-11.0632
▁እየተከታተሉ	-11.0633
▁ንዋይ	-11.0633
▁ሰርቷል	-11.0634
▁አሚን	-11.0634
▁ጥለው	-11.0637
▁ነጥ	-11.0637
▁በሰበታ	-11.0637
▁ድር	-11.0638
▁ቀኑን	-11.0639
▁በመጨረሻው	-11.0639
▁መቋረጥ	-11.064
▁ማሻሻያዎችን	-11.0641
▁ተዋናይ	-11.0645
▁ያካሄዱት	-11.0646
▁እንዷ	-11.0646
▁ለዘላቂ	-11.0646
▁የተሞላበት	-11.0647
▁ለትግራይ	-11.0648
ረካ	-11.0649
▁ለመወዳደር	-11.065
▁ሁነኛ	-11.0652
▁የድርቅ	-11.0652
▁መዝገቡ	-11.0653
▁ሳይቀር	-11.0653
▁በመምታት	-11.0656
▁ያጣ	-11.0657
▁በቅጣት	-11.0657
▁በየእለቱ	-11.0658
▁ፍፃሜውን	-11.0658
▁የምስጋና	-11.0658
▁የአጭር	-11.066
▁ለብዙ	-11.0662
▁ከመሬት	-11.0662
ከፍ	-11.0668
ዩት	-11.0668
▁ደጋፊዎቻቸው	-11.0669
▁ስኬቶች	-11.0669
▁የደብረ	-11.0671
▁አሰልጣ	-11.0673
▁የተግባር	-11.0673
▁ዳሸን	-11.0677
▁አፍጋኒስታን	-11.0678
▁ካሳው	-11.0681
ሶቹ	-11.0681
▁ማድረጓን	-11.0687
▁መኖ	-11.0691
ሪፎርም	-11.0697
▁በተፈጠሩ	-11.0698
▁ከዋልታ	-11.0701
▁አለማቀፉ	-11.0701
▁ሾ	-11.0704
▁ከተረጋገጠ	-11.0707
▁የኢቦላ	-11.0707
የውሀ	-11.071
▁እንደሚወጣ	-11.0715
▁መዝናኛ	-11.0715
▁ረሺድ	-11.0715
▁ዴሞክራቲክ	-11.0715
▁አሀሊ	-11.0715
▁የቀጥታ	-11.0715
▁በፃፈው	-11.0716
▁ሼዶች	-11.0716
▁ማስፈን	-11.0718
▁በሚኖሩ	-11.0718
▁ድባብ	-11.0719
▁በአባልነት	-11.072
▁በመጠየቅ	-11.0721
▁ከትላንት	-11.0724
ስተዋሉ	-11.0725
ህዝብ	-11.0728
▁በዋነኛ	-11.073
▁የአስተዳደሩ	-11.0733
▁ሀገራትን	-11.0735
▁ፓርቲያቸው	-11.0735
▁አስተዳዳሪው	-11.0736
▁በድርድሩ	-11.0738
▁በሀገራቸው	-11.0738
▁ሙከራዎችን	-11.0739
▁ለሚኖሩ	-11.0746
▁ጥንታዊ	-11.0747
ቅደም	-11.0749
▁በቀጣናው	-11.0751
ጥፋት	-11.0752
ገራ	-11.0756
ብት	-11.0757
ዳት	-11.0758
▁መድህን	-11.076
▁ልዩነቶች	-11.0761
▁የጉባኤው	-11.0762
▁ዝግጅቶችን	-11.0762
▁ጦርነቱ	-11.0765
ማዘዋወር	-11.0769
በትግራይ	-11.0774
▁አዝማሚያ	-11.0775
▁የተነሱት	-11.0777
▁የደ	-11.0779
▁ከፋሲል	-11.0781
ፕሮጀክቶቹ	-11.0781
▁ጋናዊው	-11.0782
▁ሴኔጋል	-11.0783
ኸ	-11.0787
አየር	-11.0787
▁ቀና	-11.0788
▁ለጋራ	-11.079
▁ጥናቱን	-11.0792
በአካባቢው	-11.0794
▁መጠኑን	-11.0794
▁መገልገያ	-11.0798
በረከት	-11.0798
ለቀ	-11.0799
▁ጥይቶች	-11.08
▁ፌስቲቫል	-11.08
▁ለመምከር	-11.08
▁እርግጠኛ	-11.08
ቀይ	-11.08
▁ታምኖበታል	-11.08
▁መድረሳቸው	-11.08
▁በማስጠበቅ	-11.08
▁የመሰብሰብ	-11.0801
▁አመላካች	-11.0801
ዛቸው	-11.0801
▁ሲያከናውን	-11.0801
▁ተከሰው	-11.0801
▁የመማሪያ	-11.0801
▁አስመላሽ	-11.0801
▁ባህሩ	-11.0802
ኮሌራ	-11.0802
▁ፍቃደኛ	-11.0802
▁የማረጋገጥ	-11.0802
▁እንቅስቃሴን	-11.0803
▁በዋነኝነት	-11.0806
▁ሙዚቃ	-11.0807
▁መስጊድ	-11.0808
▁አንዲት	-11.0809
ስቱ	-11.0811
▁የወጡት	-11.0812
▁ውስጣዊ	-11.0813
▁የተመለሱ	-11.0813
ኩል	-11.0817
▁ነቅ	-11.0818
▁ምስራቃዊ	-11.0819
ተከሰተው	-11.0819
▁በግ	-11.0821
መዳ	-11.0822
▁ድምፀ	-11.0823
▁የመግለፅ	-11.0824
ወያየ	-11.0825
▁አቅመ	-11.0825
▁ቢያደርግም	-11.0825
▁ለተማሪዎች	-11.0828
▁በስጦታ	-11.083
ተቋማቱ	-11.083
ማስተናገድ	-11.083
▁አውቶብስ	-11.0834
ማህበሩ	-11.0836
ገለፁት	-11.0836
▁የመኸር	-11.0838
▁የህብረተሰቡ	-11.084
▁ከወለድ	-11.0841
▁የቀኝ	-11.0842
▁ያስመዘገበው	-11.0846
▁ሲቪሎች	-11.0847
▁ዳባ	-11.0849
▁ፈፅመው	-11.0856
ተሮች	-11.0858
ቻው	-11.0859
ምንጭቢቢሲ	-11.0863
▁የተወሰደ	-11.0865
▁የዲፕሎማቲክ	-11.0865
ነታችን	-11.0865
▁ተላላፊ	-11.0866
▁በድምፅ	-11.0868
▁በየካቲት	-11.0869
▁ጣና	-11.0869
ዘዋወሩ	-11.0873
▁ኤክስ	-11.0877
▁በዋለው	-11.088
በአሜሪካ	-11.0881
▁መልካ	-11.0885
▁በድንገት	-11.0885
▁ይኖራሉ	-11.0885
▁አስገንዝቧል	-11.0885
▁አካውንት	-11.0885
▁ተገለፀየ	-11.0886
▁ተከብሮ	-11.0886
▁ሞክረናል	-11.0886
▁የሚመጥን	-11.0886
▁አሎ	-11.0887
▁ኪዳን	-11.0887
▁ይቀርባል	-11.0888
▁የሚሸፍን	-11.0888
ፋል	-11.0889
▁ኢንስቲትዩቱ	-11.0891
▁በምርት	-11.0892
▁የሚፈ	-11.0897
▁ግድቦች	-11.0898
ታየው	-11.0899
▁አስረኛ	-11.09
▁የሚያቀርብ	-11.09
▁ምክትላቸው	-11.0904
ብሪ	-11.0909
▁መገ	-11.091
▁ራዲዮ	-11.0911
▁በአቃቂ	-11.0911
▁ታስ	-11.0911
▁ሽያጩ	-11.0916
▁አይሻ	-11.0919
▁ጎራ	-11.0919
ቋሚ	-11.092
▁ታንዛንያ	-11.092
ማሰራጨት	-11.0923
▁ቺ	-11.0923
▁በውሰት	-11.0924
▁ከመሆን	-11.0925
▁መግለፁን	-11.0928
በኦሮሚያ	-11.0929
▁ደብረብርሀን	-11.0935
የአገሪቱ	-11.0936
▁ኮሪያው	-11.0936
▁ያስመዘገቡ	-11.0936
▁ቅንጅ	-11.0936
▁የፅዳት	-11.0936
▁ተደ	-11.0938
ሚኒስትሮች	-11.094
የኬንያ	-11.0942
▁ተዋጊ	-11.0945
ልዩ	-11.0948
▁ገብ	-11.0948
ላኩት	-11.0951
ሱዳኑ	-11.0952
በረታ	-11.0953
▁የጠበቁ	-11.0957
▁መቀመጫዎች	-11.0957
ምርጥ	-11.0957
▁ውይይቶችን	-11.0958
ነቷ	-11.0959
▁ተጠቂ	-11.0959
▁የሚጠበቅበትን	-11.0963
ቃቸው	-11.0965
ወዳ	-11.0966
መርማሪ	-11.0971
▁የዘለቀ	-11.0971
▁ጉድለቶች	-11.0972
▁ያዘጋጁት	-11.0972
▁በማስተዋወቅ	-11.0972
▁ተቀብለዋል	-11.0972
▁በማስረጃ	-11.0972
▁የወደብ	-11.0972
▁ወዲያውኑ	-11.0973
▁ፍላጎቶች	-11.0974
▁ይሰራሉ	-11.0974
▁ቀኙ	-11.0974
▁ገብሬ	-11.0974
▁ሲሞክሩ	-11.0975
▁ተጉዞ	-11.0976
ጋግ	-11.0977
▁መመዝገቡን	-11.0977
▁የተቀላቀለ	-11.0978
▁በተከሰተ	-11.0978
▁በህጉ	-11.0981
▁መዘገቡ	-11.0981
▁በመጣስ	-11.0982
▁ኢሳ	-11.0982
▁በአይነት	-11.0982
▁መን	-11.0983
የአውሮፓ	-11.0983
▁የሚጠናቀቅ	-11.0986
▁ሽህ	-11.0987
▁ቀልብ	-11.099
▁የቀይ	-11.099
▁መዛመት	-11.0992
▁በማስቀረት	-11.0995
ረድ	-11.1001
▁በተጠባባቂ	-11.1004
▁በማስተናገድ	-11.1005
ሞራ	-11.1006
▁መሰጠት	-11.1007
▁ያስታወቀ	-11.1007
የታላቁ	-11.1008
▁ደኢህዴን	-11.1011
ህገ	-11.1013
ነቃ	-11.1016
▁ክለቦችን	-11.1017
▁ያወጣ	-11.1019
▁ባር	-11.102
▁ከእነ	-11.102
ማርያም	-11.1021
መልከ	-11.1026
የቻይና	-11.1027
ቢል	-11.1028
▁በኮንስትራክሽን	-11.1028
▁ለሆነው	-11.1029
▁አክራሪ	-11.1029
▁ቅፅ	-11.103
▁ሊዝ	-11.1032
▁አዳም	-11.104
▁ገልፀዋልበዚህ	-11.1045
▁በተመድ	-11.1045
ዋስ	-11.1045
▁ተናግረዋልከዚህ	-11.1046
▁ግንባታን	-11.1046
ርካ	-11.1046
▁በማሳ	-11.1046
▁የዲሞክራሲ	-11.1048
▁በእኩል	-11.1049
▁የቻን	-11.1051
▁የዳ	-11.1052
ነሰ	-11.1058
▁ሆፕኪንስ	-11.1059
▁መደፍረስ	-11.1059
▁ቃልአቀባይ	-11.1059
▁ይመክራሉ	-11.1059
▁በስደት	-11.1059
▁መልቀቅ	-11.1059
▁በማስቀጠል	-11.1059
▁አስባለው	-11.1059
▁በማሰልጠን	-11.1059
▁አባቡና	-11.1059
▁ባልታወቀ	-11.106
▁እንደሚያስፈልገው	-11.1062
ሰደድ	-11.1062
▁እንዲተላለፍ	-11.1063
▁አባወራዎች	-11.1066
ያል	-11.1068
▁ሊፈጠር	-11.1069
▁ቁጣ	-11.1071
ጧል	-11.1074
▁የተጠ	-11.1076
▁ታዳሚዎች	-11.1079
ትራ	-11.1081
ወጣው	-11.1081
▁ሲጂቲኤን	-11.1082
ተሻለ	-11.1083
▁የሚያደርሰው	-11.1083
ገታ	-11.1087
ፈታህ	-11.1087
ጣለው	-11.1087
▁ተለይቶ	-11.1087
▁ፍላ	-11.1089
▁ማጂ	-11.109
▁እንደደረሰባቸው	-11.1091
▁ፈላጊዎች	-11.1091
▁ብለዋልየኢትዮጵያ	-11.1093
ፈስ	-11.1093
▁የስነምግባር	-11.1095
▁ዛማሌክ	-11.1095
▁አልሻባብ	-11.1095
▁በገዛ	-11.1096
ቤቶች	-11.1098
መሳሰሉት	-11.1099
▁ቤኒሻንጉል	-11.1102
▁በገለልተኛ	-11.1102
▁ካንሰር	-11.1103
▁የታመሙ	-11.1103
▁ጫት	-11.1104
▁እንዳይገባ	-11.1104
▁ረመዳን	-11.1104
▁ቴክኖሎጂዎችን	-11.1104
▁የደንበኞች	-11.1108
▁የየመን	-11.1109
▁በጨዋታ	-11.111
▁መተ	-11.111
▁ያልቻሉ	-11.1111
▁የሀገራቱን	-11.1112
ምርጫው	-11.1113
▁ወጥነት	-11.1114
▁ከታቀደው	-11.1115
▁ኢራቅ	-11.1117
▁ዝርያዎች	-11.112
▁መተግበሪያ	-11.1124
ባሰ	-11.1124
▁ከሰው	-11.1124
▁አስረድተዋልበ	-11.1126
▁ጉብኝታቸውን	-11.1127
መውረድ	-11.1131
▁የተቀላቀሉ	-11.1132
ብስ	-11.1135
መቐለ	-11.1135
▁ጉዳ	-11.1136
▁ካራ	-11.1137
ኖራ	-11.1144
▁ሞተር	-11.1146
▁ተካሄዷል	-11.1146
▁ተዘዋውረው	-11.1146
▁አወቃቀር	-11.1146
▁እፎይታ	-11.1146
▁ይቀርባሉ	-11.1146
▁መዋቅሮች	-11.1146
▁ጠንከር	-11.1146
▁ተነስተዋል	-11.1146
▁አስባለሁ	-11.1146
▁ጨርሶ	-11.1146
▁አቅዷል	-11.1147
▁በሚቆየው	-11.1147
▁ማስፋት	-11.1148
ገፋ	-11.1149
▁ማፍራት	-11.1149
ቶቹን	-11.1149
▁መታየቱን	-11.115
▁ባለባቸው	-11.1151
▁ይመራል	-11.1152
ውጤቱ	-11.1155
▁አካሉ	-11.1156
▁ከንቲባዋ	-11.1157
▁ኮንትራክተሮች	-11.1158
▁መከራ	-11.1159
የሚ	-11.1162
▁እንደሚቀርቡ	-11.1163
ፈቀደ	-11.1165
▁የሀገሪቷ	-11.1166
▁ጥናቶችን	-11.1171
▁የተፋሰስ	-11.1172
▁አውሎ	-11.1172
▁በእጥፍ	-11.1173
ከነ	-11.1176
▁ከመጠ	-11.1182
▁መዋ	-11.1182
አሰልጣኙ	-11.1182
▁የእርቅ	-11.1185
ወቁ	-11.1186
▁በመገኘታቸው	-11.1187
▁ሲሲ	-11.119
▁ሰባተኛ	-11.1191
▁የክልሎች	-11.1192
▁ከምስራቅ	-11.1193
▁ዊ	-11.1194
▁ሲቀርብ	-11.1197
▁በጅምላ	-11.1202
▁በሲቪል	-11.1202
▁የአበባ	-11.1206
▁ሀምበሪቾ	-11.1207
ወዳደሩ	-11.121
ባረ	-11.121
▁ያሏቸው	-11.1211
በጉዳዩ	-11.1212
▁እሴቶችን	-11.1213
▁ከህገ	-11.1213
ስላሴ	-11.1214
▁ማዳን	-11.1215
▁ይመር	-11.1216
ታወቅ	-11.1218
ሰሩት	-11.1219
ንዚ	-11.1219
ስደተኞቹ	-11.1219
▁መረጋጋትን	-11.122
▁ባለማ	-11.122
▁አማካሪዎች	-11.1222
▁ተሸንፏል	-11.1235
▁አውቶቡሶች	-11.1235
▁ፀድቋል	-11.1235
▁ሰይፉ	-11.1235
▁ተባብሮ	-11.1235
▁ትዝታ	-11.1235
▁ደኤታ	-11.1235
▁በመትከል	-11.1235
▁መጥቶ	-11.1235
▁አይሆንም	-11.1235
▁ሙስጠፋ	-11.1235
▁መርጧል	-11.1235
▁መንግስቴ	-11.1236
▁ወተት	-11.1236
ገጥማቸው	-11.1236
▁ለመጠየቅ	-11.1237
▁አብዱልፈታህ	-11.1237
▁ይጠ	-11.1237
▁ገበታ	-11.1238
▁የመጀመሪያዋ	-11.1238
ቻሉ	-11.1239
▁የተወከሉ	-11.1239
▁አመቷ	-11.124
ተጋባዥ	-11.1243
▁አሳልፈው	-11.1248
▁ከደደቢት	-11.1248
▁ቲለርሰን	-11.1251
▁ለማደናቀፍ	-11.1252
▁ብራ	-11.1254
▁ቀጠናዊ	-11.1254
▁የመሰረተው	-11.1254
▁ጥቅማቸው	-11.1255
▁በማስመሰል	-11.1255
ዘጉ	-11.1257
ካሪ	-11.1264
▁በፓርቲው	-11.1264
▁ስምንቱ	-11.1265
▁አስደናቂ	-11.1266
▁ዲያ	-11.127
▁የህንፃ	-11.1271
ቡን	-11.1272
▁ከለውጡ	-11.1276
▁ሞባይል	-11.1278
▁የሚታ	-11.1282
▁የጀመሩ	-11.1283
ሳቸውን	-11.1286
▁ስላል	-11.1287
▁ተገልጋዮች	-11.1288
▁የነገ	-11.129
▁ዘጠና	-11.129
ቴክኖሎጂ	-11.1291
ምስክርነት	-11.1294
▁ኤድስ	-11.1296
▁ደርሰው	-11.1296
የድርጅቱ	-11.1297
▁እናንተ	-11.1298
▁በቆየው	-11.1301
▁መዘጋጀቱ	-11.1303
▁የፈረሙት	-11.1303
▁ማደጉን	-11.1306
ታዳሽ	-11.131
ረቡእ	-11.1312
▁እስከዛሬ	-11.1317
▁ድርድሩን	-11.1318
▁ወንጀሉን	-11.1321
▁ከቀረቡት	-11.1322
ቀጠሉ	-11.1324
▁ተመዝግበው	-11.1324
▁አለመግባባቶች	-11.1324
▁ይቀጥላሉ	-11.1324
▁ማቆሚያ	-11.1324
▁ብድሮች	-11.1324
▁አውግዘዋል	-11.1324
▁አሳምነው	-11.1324
▁ተጠይቀው	-11.1326
▁መጓተት	-11.1328
▁ለመጣል	-11.1328
▁በሞ	-11.1328
▁አሸባሪዎች	-11.133
ሴት	-11.1331
▁የተሰበሰበው	-11.1332
▁እያቀረበ	-11.1332
▁ስድስተኛው	-11.1332
ችኋል	-11.1332
▁ተደርጎበታል	-11.1333
▁የተገደሉ	-11.1335
▁የለንም	-11.1335
▁ማገገማቸውን	-11.1337
▁ኮም	-11.1337
▁ማስቀመጥ	-11.1339
▁የፋብሪካው	-11.1344
▁ለፕሮጀክቱ	-11.1345
ሸነፉ	-11.1346
▁የማለፍ	-11.1346
ስትራ	-11.1346
▁የያዘውን	-11.1347
▁የሚጎዳ	-11.1347
▁መፈናቀላቸውን	-11.1349
ታችንን	-11.135
▁ተመን	-11.135
▁አቅምን	-11.1351
ቦር	-11.1353
▁የሚገባቸው	-11.1354
▁ወንጀለኞች	-11.1355
ፈፅም	-11.1355
ድርግ	-11.1356
ጋጠ	-11.1357
▁ስላለበት	-11.1359
▁ኤጀንሲዎች	-11.1361
▁በካይሮ	-11.1361
ከፍል	-11.1363
▁የተመለሱት	-11.1363
▁በጀመረው	-11.1364
አዋጁ	-11.1365
▁እንዳደረገ	-11.1367
ዋይ	-11.1367
▁የመምህራን	-11.1368
▁ያም	-11.1368
▁መመለሱን	-11.1372
ቀየር	-11.1373
▁የግንባሩ	-11.1373
ኘው	-11.1377
▁መሾማቸውን	-11.1382
ስክ	-11.1383
ሪፍ	-11.1384
▁ከድርጅቱ	-11.1384
▁ኮንግ	-11.1385
የኤርትራ	-11.1385
ቸገሩ	-11.1389
ሚካኤል	-11.1391
ሸጋገር	-11.1391
▁ጊቤ	-11.1392
▁ምር	-11.1395
▁በሽር	-11.1395
▁መመሪያዎችን	-11.1396
ችግኝ	-11.1397
ጣሩ	-11.1398
ቶኪዮ	-11.1399
ሹመት	-11.1401
▁ማሳለፍ	-11.1404
▁በሜዳችን	-11.1405
ወከሉ	-11.1411
ደረጋቸው	-11.1412
▁መሸጫ	-11.1413
▁ሳሊ	-11.1413
▁በመግጨት	-11.1414
▁አነጋጋሪ	-11.1414
▁ኡኩሪ	-11.1414
▁ሳኑሚ	-11.1414
▁በምክንያትነት	-11.1414
▁ይግዛው	-11.1414
▁ጫፎ	-11.1415
▁ልና	-11.1415
▁ለመለወጥ	-11.1416
▁አካባቢዋ	-11.1417
▁ባገኘው	-11.1419
▁ነውይህ	-11.142
▁ሳይችል	-11.1421
▁ማስተካከል	-11.1422
▁መመርመሪያ	-11.1422
▁ተከተል	-11.1424
▁ሀይለሚካኤል	-11.1424
▁ቢጠበቅ	-11.1425
ቀየሩ	-11.1427
▁ከበርካታ	-11.1431
▁ሚሊሻ	-11.1431
▁የኤርትራው	-11.1432
ማሩ	-11.1433
▁በቀጣይነት	-11.1434
▁መስራቱን	-11.1436
▁መቻል	-11.1437
▁ምስጋናው	-11.1438
▁የፓርቲውን	-11.1439
▁የታዳጊ	-11.144
▁አናሳ	-11.144
▁የአሰልጣኞች	-11.1448
▁በአንደኛ	-11.1449
ስቲክ	-11.1453
▁የማህበሩ	-11.1456
▁የፊ	-11.146
ሰት	-11.146
▁ፕሪ	-11.1461
▁መቋቋሙን	-11.1463
▁የማምረቻ	-11.1464
▁በጡረታ	-11.1466
▁የደሞዝ	-11.1466
ደደ	-11.1467
▁አውስትራሊያ	-11.1467
▁ለችሎቱ	-11.1468
▁ገልፀዋልኢትዮጵያ	-11.1469
▁የፀሀይ	-11.147
▁በእርዳታ	-11.1474
▁ከቦታ	-11.148
ሰኔ	-11.148
▁ማለቱ	-11.1481
▁በሽታን	-11.1482
▁አለመሆናቸውን	-11.1486
▁ኢንቨስትመንትን	-11.1486
▁ጥላቻ	-11.149
ኝም	-11.149
▁ጥራትን	-11.149
ጀት	-11.1494
ማክሰኞ	-11.1495
▁በተሰጠ	-11.1495
ወስ	-11.1498
ካተት	-11.1498
▁የቱ	-11.1499
▁ቆጠራው	-11.1501
ሀገራቸው	-11.1503
ረዘም	-11.1503
▁የአፍንጫ	-11.1505
▁ዘውዱ	-11.1505
▁አንዳንዴ	-11.1505
▁ፓሪስ	-11.1506
▁እንዳይከሰት	-11.1506
▁እንዲፈቀድለት	-11.1507
የስ	-11.1507
ፅንፈኛው	-11.1507
▁እየጠበቀ	-11.1507
▁በማልማት	-11.1508
▁ሽዴ	-11.151
ልት	-11.151
▁ተመሰረተባቸው	-11.151
▁የመድረክ	-11.151
▁እንደሚደግፍ	-11.151
▁ማልያ	-11.1511
▁እንዲከፍል	-11.1512
▁እንደሚቆይ	-11.1512
▁በሚሰጠው	-11.1513
▁ተርሚናል	-11.1513
▁ከሚሰሩ	-11.1514
▁ኖቶች	-11.1514
▁መነጋገር	-11.1514
▁የተቋረጠው	-11.1514
በዋል	-11.1515
ግብር	-11.1516
እድ	-11.1517
▁የተረከቡት	-11.1517
▁ለማዳረስ	-11.1518
▁ገቢው	-11.1518
▁ሁልጊዜ	-11.1518
▁የተሰ	-11.1521
▁የማሸነፍ	-11.1522
ታወ	-11.1523
▁እንደሚወጡ	-11.1523
▁ማሸነፋቸው	-11.1526
▁ጳጳሳት	-11.1527
▁አብነት	-11.1528
▁ዝናቡ	-11.153
ማስረከብ	-11.153
▁ሺዴ	-11.153
▁ያገ	-11.1531
▁የድርሻቸው	-11.1532
▁ቀደሙ	-11.1534
ነፃ	-11.1537
▁የሺ	-11.1541
▁ሶማልያ	-11.1541
ተከሰተባቸው	-11.1542
▁መከ	-11.1544
▁ተደርጎላቸው	-11.1544
▁የሚቀርበው	-11.1547
▁ተጋጣሚያችን	-11.155
እያንዳንዱ	-11.1551
▁አኩሪ	-11.1551
▁ይርጋለም	-11.1552
ርሱ	-11.1556
▁ያመላክታሉ	-11.156
አባይ	-11.1565
▁ከፈረንሳይ	-11.1565
▁አሰጣጡ	-11.1567
▁መመርያው	-11.1569
ቴል	-11.157
ፈጠረ	-11.1572
▁የላቸውም	-11.1574
▁የተላከ	-11.1574
▁ስልጣንና	-11.1575
ረቻ	-11.1577
▁ከታች	-11.1578
መከላከያ	-11.1581
▁መንገዱን	-11.1587
▁ዋዜማ	-11.1588
▁ያቀ	-11.1588
ዳይ	-11.1589
▁የምዝገባ	-11.159
ድምር	-11.1591
▁በጉብኝቱ	-11.1596
▁አከናውኗል	-11.1597
▁ተደምጠዋል	-11.1597
▁አዜብ	-11.1597
ተራድኦ	-11.1597
▁ራይትስ	-11.1597
▁አውታር	-11.1597
▁መነሳት	-11.1597
▁ጠባብ	-11.1598
▁ለማፍራት	-11.1598
▁የሚገኝበት	-11.1598
▁የመጠበቅ	-11.1599
▁በተሟላ	-11.1602
▁ችግሮቹን	-11.1602
▁እንዲፀድቅ	-11.1603
ጋሩ	-11.1604
ኮሚ	-11.1605
▁እንደሚደረጉ	-11.1607
▁ቢራን	-11.1607
▁ሙሴቬኒ	-11.1608
▁ሪክ	-11.1612
▁የቀረበላቸው	-11.1614
▁ዳቦ	-11.1614
▁አባባል	-11.1616
▁መብታቸውን	-11.1617
▁የወረርሽኙ	-11.1617
▁ይሰጥ	-11.1618
ሊት	-11.1621
ላቅ	-11.1621
▁የጠቀሰው	-11.1622
ያቀርቡ	-11.1622
ጥራት	-11.1623
▁በማሟላት	-11.1624
ረጉ	-11.1627
ድርድሩ	-11.1628
▁ያሳዩት	-11.1628
▁ለገዳዲ	-11.1629
አካባቢያቸው	-11.1629
▁መገኛ	-11.1629
▁ልጆቻቸውን	-11.1631
▁የበዛ	-11.1631
▁ካርሎ	-11.1631
▁ያደገው	-11.1638
▁በባቡር	-11.1638
ግዜ	-11.1638
▁ከጂቡቲ	-11.1643
▁ወልዋሎዎች	-11.1643
▁ከማን	-11.1644
▁የማስታወቂያ	-11.1644
የቀድሞ	-11.1648
አዋሽ	-11.1653
▁በወልዲያ	-11.1655
▁ምረቃ	-11.1655
▁ሲገባው	-11.166
ብለዋል	-11.166
ፋይ	-11.1661
▁ሲነሳ	-11.1662
▁የሚያቀርቡ	-11.1663
▁ችለው	-11.1664
▁ፕሬዚደንቱ	-11.1666
ዲጂታል	-11.1671
▁እድ	-11.1671
መድረክ	-11.1674
▁የቦሌ	-11.1675
▁አውጪ	-11.1677
▁እንድና	-11.1677
▁ዘዴዎች	-11.1677
▁ምርመራው	-11.1678
ክሲ	-11.1679
ሶስቱ	-11.1682
▁እያሳ	-11.1686
▁ፍራንሲስ	-11.1687
▁ብሏልየ	-11.1688
▁ሳህለ	-11.1689
▁መጋዘኖች	-11.1689
▁ተፈጥሯል	-11.1689
▁አብላጫ	-11.1689
▁ፀድቆ	-11.1689
▁ባንኪንግ	-11.169
▁ከአየር	-11.1691
▁ተጠባቂ	-11.1692
▁የሚያጠናክር	-11.1692
▁ታይ	-11.1692
▁ጫካ	-11.1694
▁አመለከተ	-11.1694
▁ፍን	-11.1695
▁ትምህርቶች	-11.1695
▁የተቋቋሙ	-11.1697
ለመሆኑ	-11.17
▁ለመሳብ	-11.17
▁አይናለም	-11.1702
▁ለምሳሌ	-11.1703
▁ከጋዜጠኞች	-11.1704
▁ሱልጣን	-11.1705
▁የሚጫወተው	-11.1706
▁ለመጓዝ	-11.1706
ለወጥ	-11.1707
▁በኤጀንሲው	-11.1707
▁መዘጋጀት	-11.1709
▁የድንጋይ	-11.1709
▁ለማቃለል	-11.171
▁እንደሚሰጣቸው	-11.1712
▁የሚመጣ	-11.1714
▁ያጠናቀቀው	-11.1715
▁ሚኒስትርነት	-11.1715
▁መንፈሳዊ	-11.1715
መረጠ	-11.1716
▁መማር	-11.1718
ፈጠረው	-11.1718
▁ምስር	-11.1721
▁በሺ	-11.1721
▁ተነ	-11.1723
▁ቀጣዩን	-11.1724
ጀመረበት	-11.1725
▁የሚተላለፉ	-11.1726
▁ነብዩ	-11.1728
ኢትዮ	-11.1728
▁የተወጣጡ	-11.1735
▁ሲወጣ	-11.1738
▁የሚመለከቱ	-11.1741
▁ያፀደቀው	-11.1744
▁አሶሳ	-11.175
▁የተጠረጠሩት	-11.175
ታየበት	-11.175
▁በኢኮኖሚው	-11.1751
▁እንደተደረገ	-11.1751
▁ብለዋልኢትዮጵያ	-11.1752
ወልቂጤ	-11.1756
▁በአውሮፓውያኑ	-11.1756
▁ኬሪ	-11.1757
▁ያለነው	-11.1757
▁ስልጣኑን	-11.1758
ጊዜያዊ	-11.1758
▁ሳል	-11.1758
ቨን	-11.1759
▁ማስክ	-11.176
▁ኮሮናቫይረስ	-11.1761
ዘገበ	-11.1762
ኪያ	-11.1762
▁የጣለው	-11.1763
▁የክልልነት	-11.1766
ደረገ	-11.1767
▁አላማችን	-11.1767
ኮከብ	-11.1768
▁የእነዚህ	-11.1769
ሀይል	-11.1772
ዶናልድ	-11.1772
ገንዘቡ	-11.1774
ሄደ	-11.1774
ወሰዱት	-11.1775
በረከቱ	-11.178
▁ከተገኙ	-11.178
▁ተወስዶ	-11.1782
▁ተባብረው	-11.1783
▁ለባሾቹ	-11.1783
▁ማረጋገጣቸውን	-11.1783
▁ለመገምገም	-11.1783
▁እንዳልተቻለ	-11.1783
▁መቅጫ	-11.1784
▁አስረድተዋልየ	-11.1784
ፈጠሩት	-11.1784
▁እንዳይሆኑ	-11.1785
▁የቀረጥ	-11.1785
▁አጠባበቅ	-11.1786
▁የገባነው	-11.1787
▁ታያቸው	-11.1789
▁የመጣነው	-11.179
▁ማዜምቤ	-11.179
▁ሲጫወቱ	-11.1791
ከናወን	-11.1792
▁ስለሌለ	-11.1797
▁ልጃገረዶች	-11.1797
▁ተደራሽነትን	-11.1799
▁የጋና	-11.18
እርምት	-11.1801
▁እሱን	-11.1801
▁መፈፀሙ	-11.1801
▁እገዳው	-11.1803
▁የብሄሮች	-11.1803
▁የሚገመቱ	-11.1805
▁በጊዜው	-11.1805
▁እነሱን	-11.1806
▁ላበረከቱት	-11.1807
▁ነጥቦችን	-11.1808
▁ማሰብ	-11.1808
▁መጨረሻው	-11.1808
▁ሙን	-11.1808
▁ዱቄት	-11.1808
▁ረቂቁ	-11.1811
▁የአደረጃጀት	-11.1811
▁የወሰነው	-11.1812
▁እለታዊ	-11.1813
▁ሀይሉን	-11.1814
▁ከሀያ	-11.1818
▁በጋና	-11.1819
▁የተጨማሪ	-11.1819
▁የተላለፉ	-11.1821
▁ከቀኝ	-11.1824
ቀለል	-11.1833
ቿን	-11.1834
ሲስ	-11.1834
▁የቡሩንዲ	-11.1835
ከፈላቸው	-11.1836
ጎላ	-11.1839
▁ሀላፊዎችን	-11.1841
ገኛ	-11.1845
▁የፌዴራሉ	-11.1846
▁ወቅቱን	-11.1847
▁ሆራ	-11.1848
▁በባለ	-11.1849
▁ፖሊ	-11.1849
ቀበለው	-11.1851
▁የተጠቀሰው	-11.1853
▁ቦታቸው	-11.1853
▁የሚሹ	-11.1853
▁ተጠ	-11.1854
ላለፉት	-11.1854
ፈረሰኞቹ	-11.1862
አገልግሎቱ	-11.1864
ጠራቸው	-11.1864
▁በወንዶች	-11.1865
ዳድ	-11.1868
በለ	-11.1868
▁በሚገኙበት	-11.1871
▁አሽ	-11.1873
▁ለወደፊቱ	-11.1877
▁ሙዚየም	-11.1877
▁በመመስረት	-11.1877
▁ተመኝተዋል	-11.1877
▁እንጠይቃለን	-11.1877
▁ይደርሳል	-11.1877
▁ጨርቃ	-11.1877
▁የአብሮነት	-11.1877
▁ደበሌ	-11.1877
▁ማትያስ	-11.1877
▁ንግዱ	-11.1877
▁የቅባት	-11.1878
▁ገብረእግዚአብሄር	-11.1878
▁ጌትስ	-11.1878
▁ተአማኒ	-11.1878
▁ሚኒስተር	-11.1878
▁ስፖርተኞች	-11.188
▁ከቆዩ	-11.1882
▁መቀነሱን	-11.1885
ገን	-11.1885
▁ከተገኘ	-11.1885
ምሽት	-11.1886
▁ጉብኝቱ	-11.1886
▁ከወላይታ	-11.1888
▁ተረፈ	-11.1889
▁የመዋቅር	-11.1889
▁አገራችን	-11.1891
ከተማዋ	-11.1891
▁ቢቆይ	-11.1891
ወስን	-11.1894
▁መዘ	-11.1894
▁ድልድሉ	-11.1895
▁በግብርናው	-11.1895
ኒክ	-11.1896
▁በጥምረት	-11.1898
▁በንግግር	-11.1898
▁ረብሻ	-11.1899
ቆጠረ	-11.1899
▁መከላከያዎች	-11.19
▁የሚገልፀው	-11.1905
የግብፅ	-11.1906
▁እንደዚሁ	-11.1906
ብዛ	-11.1906
▁የተፈረመው	-11.1907
▁አዴፓ	-11.1908
▁ቤጂንግ	-11.1911
▁ከተያዙት	-11.1911
ተባበሩ	-11.1912
ነጋገሩ	-11.1913
ፈርስ	-11.1913
▁መጋዘን	-11.1913
▁የማረሚያ	-11.1915
▁የከፈቱት	-11.1916
▁የተካተቱ	-11.1916
▁ህዋ	-11.1917
▁ተፈራረመ	-11.1919
▁ወታደር	-11.192
▁የሚቀ	-11.1921
▁በኢንተርኔት	-11.1922
▁በዘር	-11.1924
▁ብአዴን	-11.1928
▁ቼክ	-11.1931
▁ብለዋልከዚህ	-11.1932
▁ኬኒያ	-11.1937
እኛ	-11.1938
▁ታድ	-11.194
ወንድ	-11.1941
ቀላቀሉ	-11.1944
ኦነግ	-11.1945
▁የኢድ	-11.1946
▁ሳት	-11.1946
ታች	-11.1947
ሲቲ	-11.1948
ዋለን	-11.1949
▁አይሮፕላ	-11.195
ገፉ	-11.1951
▁መጀመራቸው	-11.1953
▁የኡጋንዳ	-11.1957
▁ተለያይ	-11.1962
▁የሯንዳ	-11.1962
ቆጣጠር	-11.1962
▁ተፈላጊ	-11.1963
ፌደሬሽን	-11.1963
▁አጥር	-11.1963
ድርጅቶቹ	-11.1964
መዘገቡ	-11.1964
▁ተጫዋቾቹን	-11.1968
ቀዳሚው	-11.1971
ወሰዳቸው	-11.1972
▁ለማስተማር	-11.1972
▁በአምበልነት	-11.1972
▁ታረቀኝ	-11.1972
▁አስችሏል	-11.1972
▁ግጥሚያ	-11.1972
▁ቅመም	-11.1973
▁የስለላ	-11.1973
▁ለአስር	-11.1974
▁ስጋታቸውን	-11.1974
ኮርፖሬት	-11.1975
▁ሊኖረው	-11.1976
▁ሲያስቆጥር	-11.1976
▁የጠየቁ	-11.1976
▁እንዲጠበቅ	-11.1977
▁የሚገቡት	-11.1978
▁ጨዋታዎቹ	-11.1979
▁አዝ	-11.1979
▁ተግዳሮት	-11.1979
▁ለድርድር	-11.1981
▁በማስወገድ	-11.1986
▁የሚፈልግ	-11.1988
ሰናዳ	-11.1994
ጫፍ	-11.1997
▁በእያንዳንዱ	-11.1999
▁በመመልከት	-11.1999
ታገል	-11.2003
▁ለውድድሩ	-11.2004
▁የክትባት	-11.2007
ወግ	-11.2007
▁በእድሜ	-11.2011
▁በእኛ	-11.2014
▁በምረቃ	-11.2014
ፀድቅ	-11.2016
ቦታው	-11.2017
▁ካሜሮን	-11.2019
▁አንዴ	-11.2021
▁የኮንጎ	-11.2022
▁ታግ	-11.2022
▁አልፋ	-11.2026
ሮችን	-11.2029
▁መውጣቱን	-11.2033
▁ነበረ	-11.2033
▁ርቆ	-11.2034
▁የተገደሉት	-11.2035
▁ከሩሲያ	-11.2038
ተረጋገጠ	-11.2039
▁ታክሲ	-11.2047
ወጣበት	-11.2049
ረሰ	-11.205
▁የፕላን	-11.2054
▁ጥረቶችን	-11.2056
▁ውድድሮችን	-11.2058
▁እንደማት	-11.2058
ማቸውን	-11.2058
ዮሀንስ	-11.206
የአሁኑ	-11.2061
ደራደር	-11.2068
▁ይዘ	-11.2068
▁ተቆጣጥሮ	-11.2069
▁ያስገነዘቡት	-11.2069
▁የመዝናኛ	-11.2069
▁ሾሟል	-11.2069
▁የሀብረት	-11.2069
▁ያገኛል	-11.2069
▁ይጠበቅበታል	-11.207
▁ባለመሆናቸው	-11.2071
▁ይጫኑ	-11.2071
▁የታየ	-11.2072
▁ተጠሪነቱ	-11.2072
▁ተተኪ	-11.2075
▁በመኖራቸው	-11.2075
▁መከናወን	-11.2076
▁መለወጥ	-11.2076
▁ተከትለው	-11.2077
▁መጠናቸው	-11.2078
▁ጋብቻ	-11.2079
▁መረጋገጥ	-11.208
ጋለ	-11.208
▁አሜሪካን	-11.208
ጨምር	-11.2082
ሎስ	-11.2083
▁ለማቆየት	-11.2083
ሺያ	-11.2086
▁ኤግዚ	-11.2086
▁ገዳዎች	-11.2087
ጉባኤ	-11.2088
▁ድሉን	-11.2089
ላቀ	-11.2091
▁በማየት	-11.2093
▁ሻም	-11.2094
▁የተፈራረሙት	-11.21
▁የተሰደዱ	-11.21
የዘንድሮው	-11.2101
▁ያቀፈ	-11.2101
ካፋ	-11.2105
▁ማከፋፈያ	-11.2109
▁ማሳለፉን	-11.2112
▁የላ	-11.2113
ሜዳ	-11.2115
▁ገልፀዋልእንደ	-11.2115
▁ቅርስነት	-11.2116
ሶስተኛው	-11.2117
ሸዋ	-11.2117
▁ትራንስ	-11.2119
ውድድር	-11.212
▁ቴክኖሎጂዎች	-11.2122
ቆጥ	-11.2125
ቁት	-11.2127
▁ይጠበቃልየ	-11.2128
መንገዱ	-11.2128
▁አቀ	-11.2131
አቸውን	-11.2132
▁የእዳ	-11.2135
ሌይ	-11.2136
ነካ	-11.2141
▁የሚገነቡ	-11.2142
መርሀ	-11.2148
▁ያስቀመጠው	-11.2148
ኢንስቲትዩቱ	-11.2157
ግለሰቦቹ	-11.2159
▁በሚሊኒየ	-11.2159
ሽንፈት	-11.216
▁የሚጫወት	-11.2162
▁የተጠየቀው	-11.2162
ቀት	-11.2163
▁ተፈፅሞ	-11.2165
▁እንዳይደርስ	-11.2165
▁በመፍቀድ	-11.2166
▁አሳታፊ	-11.2166
▁ተዋናዮች	-11.2166
ሰሜኑ	-11.2166
▁ተካፋይ	-11.2166
▁ውብሸት	-11.2166
▁ያልተጠበቀ	-11.2166
▁የተሰማ	-11.2167
▁ተመርቆ	-11.2167
▁በመረጋገጡ	-11.2169
▁መከታተል	-11.2169
▁አሸነፈ	-11.2171
▁በስተያ	-11.2173
▁የነበረባቸው	-11.2173
▁እያሳዩ	-11.2173
▁እንደሚፈልግ	-11.2174
▁ሽልማቱን	-11.2175
የፖለቲካ	-11.2175
በመጀመሪያው	-11.2175
▁ብዙነህ	-11.2176
▁የመጀመሪያዎቹ	-11.2176
▁የቅርስ	-11.2178
▁የሚወስድ	-11.218
▁ለሀብረተሰቡ	-11.2182
▁ሞቱ	-11.2185
▁የሚሰጥበት	-11.2185
▁ከሳጥ	-11.2187
▁መገኘታቸው	-11.2188
▁ኩነት	-11.219
▁በመግደል	-11.2192
▁ባስቀመጠ	-11.2194
▁እንደሚኖራቸው	-11.2195
▁ከሀብረተሰቡ	-11.2195
▁ተጋላጭነት	-11.2196
▁የመታሰቢያ	-11.2196
▁ተረኛ	-11.2198
▁ለተፈጠረው	-11.2201
▁ወንጀሎችን	-11.2201
▁ከወር	-11.2208
▁ልጃቸው	-11.2209
▁አሜሪካዊ	-11.221
▁ተቃውሞው	-11.2212
▁የተቋማት	-11.2212
▁ተር	-11.2212
▁አስከባሪዎች	-11.2213
ገበታ	-11.2214
ሰራተኞች	-11.2214
ፋና	-11.2214
ሀይ	-11.2214
▁ከተለያየ	-11.2216
▁ስቃይ	-11.2221
▁የነበራት	-11.2221
▁የደረሱበት	-11.2222
እርድ	-11.2225
▁ሰለ	-11.223
ስለጨዋታው	-11.2231
▁ባለሀብቶቹ	-11.2231
የዚህ	-11.2236
የሀገር	-11.2237
▁አንዳ	-11.2237
▁የኔ	-11.2238
ሽያጭ	-11.2238
▁በደቡባዊ	-11.2239
▁ለትውልድ	-11.2245
▁ይደረግ	-11.2252
▁ከውድድር	-11.2254
ባችን	-11.2256
ቋቁ	-11.2259
መሰለፍ	-11.226
▁ዚ	-11.2263
▁የመለያ	-11.2263
▁ነግረውናል	-11.2264
▁አጣርቶ	-11.2264
▁የቪዲዮ	-11.2264
▁ፈጥኖ	-11.2264
▁አስመርቋል	-11.2264
▁ለማንሳት	-11.2264
▁አደሮቹ	-11.2264
አረ	-11.2264
▁አስቀምጠዋል	-11.2264
▁እንደምትፈልግ	-11.2265
▁የማሰባሰብ	-11.2265
▁ደንቦች	-11.2265
▁እያገለገሉ	-11.2265
▁ይገባናል	-11.2267
▁ቀጣናዊ	-11.2268
▁እንደማይኖር	-11.2268
ደርሶ	-11.2269
▁ኤታማ	-11.2269
ህዳሴው	-11.227
▁ደርቢ	-11.227
▁የተሻገረለት	-11.227
▁እንዲወሰድ	-11.2271
▁ተንታኞች	-11.2273
▁ክፍያውን	-11.2273
▁መከላከያን	-11.2275
▁ለማድረግም	-11.2275
▁አውሮፕላኖችን	-11.2276
▁ማደስ	-11.2278
▁ማይክሮ	-11.2278
መንግስቱ	-11.2279
▁ስልቶች	-11.2279
ዋች	-11.228
▁ሳላ	-11.228
▁በማስቀመጥ	-11.2281
▁እንደነበራቸው	-11.2281
▁ለማመቻቸት	-11.2283
▁እንዲቀጣ	-11.2283
▁ሰራተኛው	-11.2284
ኋ	-11.2291
ዳሽን	-11.2291
▁ከምንም	-11.2291
▁የፓርላማው	-11.2292
ግደ	-11.2293
▁ጅምር	-11.2297
ፕሪ	-11.2301
▁የስምንት	-11.2308
▁እንግ	-11.2311
▁ባለሜዳዎቹ	-11.2314
▁ቡታጅራ	-11.2315
▁በኮሚሽኑ	-11.2316
▁መመ	-11.2317
▁የታንዛኒያ	-11.2318
▁የሸ	-11.2319
▁ገልፀዋልለ	-11.2322
▁በአለ	-11.2322
▁በአስመራ	-11.2323
▁የሰሩት	-11.2327
ሙስና	-11.2331
▁በተነሳ	-11.2332
▁የሚፈጥሩ	-11.2332
▁የህዝቦች	-11.2332
ባሳለፍነ	-11.2337
ድግ	-11.2337
▁ጊዜያቸው	-11.2339
▁የመልሱ	-11.2339
▁ለከተማ	-11.2343
ኢህአዴግ	-11.2346
▁ያለንን	-11.2346
▁መነሻነት	-11.2348
▁በማድረጋቸው	-11.2348
ጉብኝቱ	-11.2348
▁የብሪታንያ	-11.2349
▁ሙስሊም	-11.2352
የህግ	-11.2353
የተለያዩ	-11.2353
▁ጠፊ	-11.2355
ታሊባን	-11.2357
▁የታሰበ	-11.2359
▁በማሳለፍ	-11.2361
▁የሚሄዱ	-11.2361
▁ልኳል	-11.2363
▁ተከታትሎ	-11.2363
▁ጳጳስ	-11.2363
▁እንዳመለከቱት	-11.2363
▁ፓሊስ	-11.2363
▁ተገንብቶ	-11.2363
▁የተውጣጣ	-11.2363
▁ወስጥ	-11.2363
▁ፈቃደኞች	-11.2363
ያሸንፉ	-11.2363
ጓደኛ	-11.2363
▁ነዋይ	-11.2363
▁አፅድቆታል	-11.2364
▁መቀበሉን	-11.2364
▁ወከፍ	-11.2364
ጥናት	-11.2367
▁ሞጆ	-11.2368
▁መግዛት	-11.2369
▁ግንኙነቱን	-11.2371
ጉን	-11.2372
ልበሻ	-11.2372
▁እንዲጠየቁ	-11.2373
▁የኪነ	-11.2374
▁የሚያሳየው	-11.2383
▁ውድነት	-11.2384
▁ስርጭቱ	-11.2386
▁በጠቅላላ	-11.2387
▁ክርስቶስ	-11.2388
▁ጥራቱን	-11.239
መደብ	-11.2394
▁እየገባ	-11.2394
▁ብና	-11.2394
▁የሚደርሰው	-11.2397
▁እንዳት	-11.2398
▁ሰብሳቢው	-11.2399
▁አጥብ	-11.2399
▁በማጎልበት	-11.2399
▁የሚሰሩት	-11.2401
▁በየካ	-11.2402
▁ዛቻ	-11.2404
▁በአራቱ	-11.2405
▁ማመቻቸት	-11.2405
▁በይፋዊ	-11.2406
▁ንጋቱ	-11.2407
▁ኮንክሪ	-11.2407
▁መሰረቱ	-11.2407
▁በኡጋንዳ	-11.241
ጠን	-11.2411
▁የወልዋሎ	-11.2412
ማሪ	-11.2417
▁ዮርዳኖስ	-11.2418
▁ህዝቦችን	-11.242
▁የሚችሉት	-11.2427
▁ከተሰጣቸው	-11.2427
ተመሳሳይ	-11.2427
▁ለንደን	-11.2428
▁ከሚያዝያ	-11.2431
▁የፈረንሳዩ	-11.2433
▁ሰራዊቱን	-11.2434
ለያዩ	-11.2434
▁የልደት	-11.2436
▁ስልጠናውን	-11.2437
ቱርክ	-11.2438
ሳለች	-11.2439
▁የተቻለው	-11.2441
▁አገራቸውን	-11.2443
▁የወጣበት	-11.2443
▁መገለፁን	-11.2447
▁ማንነትን	-11.2447
ገኘነው	-11.245
▁በኦ	-11.245
▁የሪል	-11.2452
▁ግቡን	-11.2453
አምና	-11.2454
▁ወባ	-11.2454
ሌሊቱ	-11.2458
አውሮፕላኑ	-11.2458
▁መጠየቁ	-11.2461
▁ሳይደርስ	-11.2463
▁ማገልገላቸው	-11.2463
▁ራማፎሳ	-11.2463
▁በማግስቱ	-11.2463
▁ተፈራርሟል	-11.2463
▁ዶላሩ	-11.2463
▁ገንብቶ	-11.2463
▁ተጋድሎ	-11.2463
▁እርግጥ	-11.2463
▁አጠገብ	-11.2463
▁በትጋት	-11.2464
▁ጎሳ	-11.2464
▁ለማፅደቅ	-11.2465
▁በመርሀ	-11.2465
▁መገባደጃ	-11.2465
▁ደህንነቱ	-11.2465
▁ገለፀየ	-11.2465
▁ያቀናው	-11.2466
▁እየሆኑ	-11.2466
▁የሚያበረታታ	-11.2466
▁በአስ	-11.2466
▁በመከናወ	-11.2467
ቀቀ	-11.2468
▁ጀግና	-11.247
▁ፋሶ	-11.247
▁ለኢንዱስትሪ	-11.2471
ቫይ	-11.2472
ሽርክና	-11.2472
▁ናሙናዎች	-11.2474
▁ሚኪያስ	-11.2474
▁ሊወስድ	-11.2475
ቲያ	-11.2477
▁ኢንስትራክተር	-11.2477
ኳቸው	-11.2482
▁እንደሚያገኝ	-11.2482
▁አንዋር	-11.2482
▁የተበላሸ	-11.2482
ቀላ	-11.2485
▁ተደራዳሪ	-11.2486
▁ኬላ	-11.2487
▁ውዝ	-11.249
መመሪያው	-11.249
▁ጎበኙ	-11.2491
▁አሰሳ	-11.2493
▁ተፈፃሚነት	-11.2493
▁ከባንክ	-11.2495
▁የተወ	-11.2495
አጥቂዎች	-11.2496
ተሰረዘው	-11.2497
▁የሚኒስቴር	-11.2497
ችግሩን	-11.2497
▁ገብርኤል	-11.2499
▁የሚያቀርበው	-11.2505
▁የሰራ	-11.2506
የኛ	-11.2508
▁ታው	-11.2511
በበአሉ	-11.2511
መግለጫው	-11.2512
▁ቡናው	-11.2513
▁ቼ	-11.2515
▁መመስረቻ	-11.2515
▁በውሳኔው	-11.2519
▁ደብ	-11.2519
▁አበይ	-11.2523
▁የተከፈተው	-11.2524
▁ከቻለ	-11.2525
▁መቁሰላቸውን	-11.2528
ረሳ	-11.2529
ያልቅ	-11.2529
▁የመጨረሻውን	-11.2532
ሚደረገው	-11.2532
ለፉ	-11.2535
▁የተከሰተ	-11.2538
▁ተብሏልከ	-11.2538
▁አጋጣሚዎችን	-11.2543
▁ነጋዴ	-11.2543
▁በጣሊያን	-11.2544
▁የነፍስ	-11.255
▁ዲኤታው	-11.2551
ጮች	-11.2559
▁በችግር	-11.256
አፅንኦ	-11.2561
አብዛኞቹ	-11.2561
በሬ	-11.2562
▁ለኢንቨስትመንት	-11.2564
▁መሻሻሎች	-11.2564
▁ርእሶች	-11.2564
▁ታጅቦ	-11.2564
▁እንደሚያስረዳው	-11.2564
▁ያብራራል	-11.2564
▁ይታመናል	-11.2564
▁ፍልስፍና	-11.2564
▁ሀትትሪክ	-11.2564
▁እያስከተለ	-11.2564
▁የሚያመላክት	-11.2564
▁ኮሚሽነሮች	-11.2564
▁ማኑፋክቸሪንግ	-11.2564
▁ጀምስ	-11.2564
▁ክብረወሰን	-11.2564
▁ተጠልለው	-11.2564
▁ግብረሀይል	-11.2565
▁ፆም	-11.2566
▁በመቅረብ	-11.2567
ቀዶ	-11.2567
▁ፍራንስ	-11.2569
▁እንዲያው	-11.257
ያከብሩ	-11.2571
ስተዋል	-11.2571
▁እንዲስፋፋ	-11.2573
▁በመምረጥ	-11.2574
▁መዋጮ	-11.2575
▁በኦሮሞ	-11.2576
▁ቤተልሄም	-11.2577
▁ከሰኞ	-11.2578
▁ከስልጣናቸው	-11.2578
▁ከመሀል	-11.2579
▁ተግባራቸው	-11.258
▁ኬላዎች	-11.258
▁የፍሳሽ	-11.2582
▁የድርሻው	-11.2582
▁ከቡና	-11.2583
የግድቡ	-11.2583
ሰይ	-11.2583
▁ማይ	-11.2585
▁ለግንባታው	-11.2585
▁ታክሲዎች	-11.2588
ያለው	-11.2588
▁የሚወክሉ	-11.259
▁የአደጋው	-11.259
▁ውብ	-11.2593
▁እንዲደረግላቸው	-11.2594
▁ሚድያ	-11.2595
ያኑ	-11.2596
▁የሚገልፁት	-11.2598
መክፈል	-11.26
ዊያኑ	-11.26
▁ስፔን	-11.2605
▁ትግሉ	-11.2605
▁እስረኞችን	-11.2606
▁በተሰራው	-11.2608
▁መስፈርቶችን	-11.2608
መስራት	-11.2608
ድርቁ	-11.2611
▁የመንገደኞች	-11.2612
ጡት	-11.2612
▁ደራሲ	-11.2614
▁ወሰኑ	-11.2622
ሞከሩ	-11.2622
▁የተሻገረው	-11.2623
ድሩ	-11.2625
▁ከሰል	-11.2626
ፈልጉ	-11.2627
በአል	-11.2631
▁ጊዜውን	-11.2633
▁ናይል	-11.2633
▁ያሉባቸው	-11.2638
▁ፓርኮችን	-11.2641
ገልፁ	-11.2642
▁ማእከላትን	-11.2642
ዊቷ	-11.2644
▁ከተደረጉ	-11.2659
▁የጠየቀ	-11.2663
ከኢትዮጵያ	-11.2664
▁ተጠርጥ	-11.2665
▁ሚኒ	-11.2665
▁ተቃውሟቸውን	-11.2666
▁አጀማመር	-11.2666
▁ፕሮፌሰሩ	-11.2666
▁ኦስማን	-11.2666
▁ከስደት	-11.2666
▁ዳይሬክተሮች	-11.2666
▁ጥፋቶች	-11.2666
▁ማቲያስ	-11.2666
እግርኳሱ	-11.2666
▁ንዋያቸው	-11.2666
▁ታግዞ	-11.2666
▁ለመጨመር	-11.2667
ገዥው	-11.2667
▁ማከናወኑን	-11.2667
▁አብረን	-11.2667
▁ገሚካኤል	-11.2667
▁ብትሆን	-11.2667
▁ያገናኘው	-11.2668
▁ሊጎች	-11.267
▁ቢኖረው	-11.267
ኩባንያዎቹ	-11.2671
ደቀ	-11.2672
▁መቀመጫቸውን	-11.2672
ሰፋ	-11.2672
▁ጊዮርጊሶች	-11.2673
▁ተያይዘው	-11.2674
▁የሚሆኑበት	-11.2675
▁ግንኙነቱ	-11.2675
ተረ	-11.2678
▁ስርጭቱን	-11.2681
▁እድገቱ	-11.2683
▁በጊዜያዊ	-11.2683
ንጌላ	-11.2684
▁ለመቀልበስ	-11.2686
▁መዳረሻዎች	-11.2687
▁ገልፀዋልይህ	-11.2688
▁አግሮ	-11.2689
▁ራምኬል	-11.2689
▁ተከታይ	-11.269
ወያይ	-11.2692
▁የግሉን	-11.2695
▁ገልፀዋልየኢትዮጵያ	-11.2696
▁የሚሰ	-11.2697
ሪያል	-11.2697
▁ዋሊድ	-11.2698
ጠጋ	-11.2699
ውጣ	-11.2703
የመጀመሪያው	-11.2704
▁ትኬት	-11.2705
▁አስተባባሪዎች	-11.2705
ሚያዚያ	-11.2706
▁የስጋ	-11.2709
ከፈሉ	-11.271
ህጉ	-11.2712
▁የማይችሉ	-11.2716
▁ልዩነቶችን	-11.2719
ራስ	-11.2721
ሸር	-11.2721
▁አፅ	-11.2726
▁ምንያህ	-11.2726
ወች	-11.2729
▁በወጡ	-11.2732
▁አቅርበዋልየ	-11.2733
▁በመኪና	-11.2733
ጨው	-11.2736
ኑሮ	-11.2737
ሳር	-11.275
▁በለስ	-11.275
▁የሀብረቱ	-11.275
▁በሚገቡ	-11.2756
▁ይታወሳልበ	-11.2756
ኮር	-11.2759
ወቀ	-11.276
▁ገድ	-11.276
▁አምርተዋል	-11.2763
ቸገር	-11.2765
ምታስተናግደው	-11.2769
▁ማእቀፎች	-11.2769
▁በዘለለ	-11.2769
▁ከማድረጉ	-11.2769
▁ዘግበዋል	-11.2769
▁ድምፆች	-11.2769
▁ፀሀዬ	-11.2769
▁ያሻገረው	-11.2769
▁ረጃጅ	-11.2769
▁መኝታ	-11.2769
▁የሺዋስ	-11.2769
▁ካልሆኑ	-11.2769
▁ክንውን	-11.277
ተጠናቀው	-11.277
▁ብዙዎቹ	-11.2771
▁በማፅደቅ	-11.2771
▁ለማጥቃት	-11.2771
▁የተዛባ	-11.2771
▁አሳፋሪ	-11.2772
▁እደ	-11.2773
▁መነሻው	-11.2774
▁ነግ	-11.2775
▁ወንድሜ	-11.2776
ንግዱ	-11.2779
▁በአራተኛ	-11.2779
▁ሂል	-11.278
▁የተመለሰ	-11.2781
▁እንዲለቁ	-11.2781
▁ማስታወቃቸውን	-11.2782
▁አተገባበር	-11.2783
▁ድንበሮች	-11.2783
መፍረስ	-11.2788
▁መንገደኞችን	-11.2794
▁መምከራቸውን	-11.2795
ሰየም	-11.2798
▁ብክነት	-11.2805
▁የሚገ	-11.2805
▁የተደረገባቸው	-11.2806
ምቤ	-11.2806
▁አበ	-11.2807
▁ጨፌ	-11.281
▁የሚጠይቁ	-11.2813
ያያዝ	-11.2818
▁የምትገኝ	-11.282
▁አፈፃፀሙን	-11.2821
▁በሚችል	-11.2822
▁የሚያገኙት	-11.2823
▁ብለዋልእንደ	-11.2824
ማሌ	-11.2825
▁በመወጣት	-11.2826
▁አሽከርካሪ	-11.2826
▁መካ	-11.2827
ፋቱ	-11.2828
▁ወት	-11.2828
▁ሲወጡ	-11.2834
▁ኢየሱስ	-11.2834
▁ፓስፖርት	-11.2837
▁ተረ	-11.2838
▁በጦርነቱ	-11.2842
ራዘም	-11.2844
▁ዳን	-11.2844
ፈረመ	-11.2847
ወዳደር	-11.285
▁ሚድሮክ	-11.285
▁ከተባለው	-11.2852
▁ሚናቸው	-11.2852
አሸናፊ	-11.2855
▁ሜቴክ	-11.2868
▁መቋረጡን	-11.287
ሚሊዮኖች	-11.2873
▁ኦር	-11.2873
▁ሚሳኤል	-11.2873
▁ያሰለጠናቸው	-11.2873
▁ይኖራቸዋል	-11.2873
▁እሸቴ	-11.2873
▁ወያኔ	-11.2873
▁በማሰማራት	-11.2873
▁መለዮ	-11.2873
▁አደርጋለሁ	-11.2873
▁አለቃቀቅ	-11.2873
▁መስፈርቱ	-11.2873
▁በማሳወቅ	-11.2873
ዴሞክራቲክ	-11.2874
▁ጆሴ	-11.2874
▁ይዛለች	-11.2874
▁ግዛቸው	-11.2874
▁መጓደል	-11.2875
▁በእጁ	-11.2875
▁አባይነህ	-11.2875
▁በቡራዩ	-11.2876
▁ሀሰት	-11.2877
▁አባባ	-11.2877
▁የተቀ	-11.2878
▁ወዳጆች	-11.2878
ኔዘርላንድስ	-11.2878
አልሸባብ	-11.2879
▁አገ	-11.2881
▁ተገኑ	-11.2883
ወት	-11.2884
▁ተፈናቃዮችን	-11.2884
▁ኬሪያ	-11.2886
▁ስታትስቲክስ	-11.2886
▁የክለቡን	-11.2887
ይበልጥ	-11.2888
▁ለስራው	-11.2888
▁የሚጥል	-11.2889
አጎራባች	-11.289
▁ወደዚህ	-11.2892
▁አውሮፓውያን	-11.2893
ባለች	-11.2894
ጥያቄ	-11.2896
▁የህልውና	-11.2897
▁ዲን	-11.2899
▁ሰሜናዊ	-11.2902
▁መደብ	-11.2902
▁እየወሰዱ	-11.2903
▁ከልማት	-11.2904
▁ሀላ	-11.2905
ታደሙ	-11.2909
▁ማሀ	-11.2909
ምርጫ	-11.2911
▁ሆነን	-11.2911
ወሎ	-11.2912
ቀነ	-11.2914
▁ታች	-11.2915
▁በጥይት	-11.2915
▁ተወዳዳሪነት	-11.2917
▁መስማት	-11.292
▁የአምናው	-11.292
ስፖርት	-11.2923
▁ማእ	-11.2924
ለትም	-11.2925
ልቆ	-11.2925
ሰናበቱ	-11.2925
ፈራረሙ	-11.2925
▁የራሳቸው	-11.2925
▁ያረጋገጠ	-11.2932
▁በዲ	-11.2935
▁ሮድ	-11.2936
ፌደሬሽኑ	-11.2939
ዲዮ	-11.2939
▁ጎልቶ	-11.2939
ከፋፈል	-11.2939
▁ኢት	-11.2942
▁ጁላ	-11.2943
▁ፓኪስታን	-11.2944
ዋሪ	-11.2947
መሪ	-11.2947
▁የተወሰዱ	-11.2948
▁ለፍፃሜ	-11.2949
▁አንጎላ	-11.295
ታደግ	-11.2951
ሊሰጠው	-11.2951
▁የቀጠለ	-11.2953
ሀላባ	-11.2954
ኩባንያ	-11.2955
▁ሆቴሉ	-11.2956
▁ማድረሳቸውን	-11.2957
▁እያደረግ	-11.2959
▁አሳስበዋልየ	-11.2961
ረክ	-11.2962
▁በብሄር	-11.2962
▁እድሜው	-11.2962
▁አንዱን	-11.2963
▁እራሳቸውን	-11.2964
▁የጎን	-11.2964
▁የአርባምንጭ	-11.2967
▁ፈተናውን	-11.2968
▁መልቀቃቸውን	-11.2968
▁መፍ	-11.297
▁መስርቶ	-11.297
ልጣ	-11.2972
ከጨዋታው	-11.2972
▁መቀመጡን	-11.2973
መለከተው	-11.2974
ሚኒ	-11.2976
ባስ	-11.2977
▁ዙ	-11.2977
▁ተሻሽሎ	-11.2978
▁ስብከት	-11.2978
▁የማውጣት	-11.2978
▁መከናወናቸውን	-11.2978
▁ባዛር	-11.2978
▁የደረቅ	-11.2978
▁ባልሆኑ	-11.2979
▁ገንቢ	-11.2979
▁አስታውሶ	-11.2979
ጣለች	-11.2981
▁ፀባይ	-11.2981
ሊብያ	-11.2981
▁ማስቆም	-11.2981
▁መሪነቱ	-11.2982
ግሩ	-11.2982
ወጥ	-11.2982
ረር	-11.2983
ደማቅ	-11.2983
ፈላ	-11.2984
▁ሄዶ	-11.2985
▁ይጠበቅ	-11.2985
▁እንደሚጠይቅ	-11.2987
▁ተሳ	-11.2989
▁ይጠበቃልበ	-11.2989
▁ሀራ	-11.299
ፊክ	-11.2991
▁ኤሌክትሪኮች	-11.2991
▁ባሰሙ	-11.2995
▁የሜዳው	-11.2997
▁አልኮል	-11.2998
▁የሚንቀሳቀስ	-11.2998
▁መውረድ	-11.2998
▁ይበል	-11.2998
▁እንደሚለው	-11.3007
▁ፍቅረ	-11.3007
▁ቀድሞው	-11.3008
▁የመምራት	-11.3008
▁ማጠናቀቂያ	-11.3009
▁ለሚሰሩ	-11.3012
ልማቱ	-11.3012
▁በትክክለኛ	-11.3012
በሀገር	-11.3012
▁ፍቤት	-11.3019
▁በሽብርተኝነት	-11.3019
▁በስራቸው	-11.302
▁የሚያገኘው	-11.3021
የደረጃ	-11.3021
ርቅ	-11.3025
▁ድርጅታቸው	-11.3027
▁ዋጋቸው	-11.3029
▁በባለቤትነት	-11.3031
ኮላ	-11.3033
ከሁለት	-11.3034
▁ሳይደረግ	-11.3035
▁የሚኖሩት	-11.3038
▁በጤናው	-11.3041
ገጠመ	-11.3042
▁የአርበኞች	-11.3047
ደረጓቸው	-11.305
▁ጦ	-11.3052
▁ሞቃዲሾ	-11.3055
ሬድ	-11.3055
▁ሲመጣ	-11.3055
▁መመደቡን	-11.3056
ለፈ	-11.3056
▁የተቆጠሩ	-11.3057
▁ባቀረቡበት	-11.3063
በውይይታቸው	-11.3064
ግድያው	-11.3064
ሱዳ	-11.3065
ቃለች	-11.3067
▁ፈጣሪዎች	-11.3074
መለገስ	-11.3075
▁ቆን	-11.3077
▁ርቀትን	-11.308
▁ፈት	-11.3081
▁ከቀ	-11.3083
ቀሪዎቹ	-11.3083
▁የጂ	-11.3084
▁መነሳቱን	-11.3084
▁ደካሞች	-11.3084
▁በመዘርጋት	-11.3085
▁አቋርጦ	-11.3085
▁ማሰራጫ	-11.3085
▁የይዞታ	-11.3085
▁በምትካቸው	-11.3085
▁አይነተኛ	-11.3085
▁ለመመርመር	-11.3085
▁በመቅረፍ	-11.3085
▁በየቦታው	-11.3086
▁ገብረመስቀል	-11.3086
▁ለመታገል	-11.3086
ክሩ	-11.3087
▁እንዳስላሴ	-11.3087
መሸጫ	-11.3087
ካት	-11.3088
▁ወደስራ	-11.3088
▁የመካከለኛ	-11.3088
▁የማይችል	-11.3089
▁የወልቂጤ	-11.309
▁ኮንቴ	-11.309
▁እያገኙ	-11.309
ቹን	-11.309
▁በድጋፍ	-11.3091
▁በምትኩ	-11.3091
▁ጀምረው	-11.3095
ሲቪክ	-11.3095
▁ተአማኒነት	-11.3096
▁በቱ	-11.3097
▁የሚደግፍ	-11.3097
▁በተጨባጭ	-11.3097
▁ፈፃሚዎች	-11.3097
መድሀኒት	-11.3098
▁ይቻል	-11.3099
▁ከፋና	-11.3099
▁መከበሩ	-11.3099
ቻላቸው	-11.3101
ተለመደው	-11.3101
▁ተብሏልከዚህ	-11.3102
▁ከኢ	-11.3103
▁እዛ	-11.3105
▁ካሳለፈ	-11.3106
ቦርዱ	-11.3107
▁ስርቆት	-11.3108
ደፈ	-11.3108
▁ኑር	-11.3109
▁የሚጓዙ	-11.3109
ጥቃት	-11.3109
▁ደህና	-11.311
▁የንቅናቄ	-11.3111
ርቀው	-11.3111
ሰመራ	-11.3112
▁ጌዲዮ	-11.3114
▁እንደተሰጣቸው	-11.3115
▁የኦሊምፒክ	-11.3116
ልኩ	-11.3117
ድጋሚ	-11.3118
ማሉ	-11.3118
▁የመቀሌ	-11.312
▁የተላከው	-11.3121
▁እንደሚኖርበት	-11.3124
▁በምርምር	-11.3126
▁የጀመረችውን	-11.3127
▁ቢያደርጉም	-11.3127
▁እንደሚያቀርቡ	-11.3127
▁የፈጀ	-11.3128
▁አስፈፃሚነት	-11.3129
▁የኬንያው	-11.313
▁የተቀዛቀዘ	-11.3131
ቀል	-11.3137
▁ለከተማው	-11.3138
ጠላት	-11.3138
▁ብለውታል	-11.3143
ቸን	-11.3145
▁የካናዳ	-11.3145
▁ማነቆ	-11.315
▁በደስታ	-11.3151
▁ከሆነም	-11.3151
መተ	-11.3151
ሰተ	-11.3154
መግባባት	-11.3158
ጥረት	-11.3162
ቆራ	-11.3164
▁በሂ	-11.3165
▁ናይጀሪያ	-11.3169
▁ስማቸውን	-11.3173
ፈፀሙት	-11.3178
ተመዘገበው	-11.3182
▁ለኮቪድ	-11.3183
▁ከከተማው	-11.3186
▁የፊርማ	-11.319
ወርልድ	-11.3191
ያቋርጥ	-11.3192
▁መለወጫ	-11.3192
▁በማስተማር	-11.3192
▁በዝናብ	-11.3192
▁ልምዶች	-11.3192
▁በትንሹ	-11.3192
▁የማሳደግ	-11.3192
▁የጤፍ	-11.3192
▁ለእስር	-11.3193
▁ለገ	-11.3193
▁ታዛቢ	-11.3193
▁ፋራህ	-11.3193
መተንፈሻ	-11.3194
▁በጉብኝታቸው	-11.3194
▁ስለመሆናቸው	-11.3195
▁አስቀድመው	-11.3195
▁አምባዬ	-11.3196
▁ኮድ	-11.3198
▁ኳሱ	-11.3198
▁እየተዘጋጁ	-11.32
▁አሰሪዎች	-11.3201
▁የሚያበቃ	-11.3201
ዋልታ	-11.3202
▁አለበል	-11.3202
በጅ	-11.3203
▁መፈንቅለ	-11.3203
▁ምንጮቹ	-11.3204
▁ጨረታው	-11.3205
▁መቋረጡ	-11.3206
ተፈቀደላቸው	-11.3207
ገደብ	-11.3208
▁ያቀረበችው	-11.3208
▁ፋብሪካዎችን	-11.321
ቀሰ	-11.3212
▁እንዲመጡ	-11.3213
▁የሚችሉትን	-11.3214
▁ግብሩን	-11.3214
▁ላስ	-11.3219
ኢትዮጵያውያን	-11.3219
▁ዱባይ	-11.322
▁በላቀ	-11.3221
▁ሬክ	-11.3224
▁አቅማቸውን	-11.3225
▁በውጤቱ	-11.3227
▁በጣና	-11.3229
▁ባሌ	-11.3229
ፋቂ	-11.3232
▁ተግባራዊነት	-11.3233
▁ለፓርላማው	-11.3233
ሳኡዲ	-11.3233
ነብ	-11.3234
ደላ	-11.3235
ቻምፒዮንስ	-11.3237
▁የኒውክሌር	-11.324
▁አከ	-11.324
▁ለቦርዱ	-11.3241
ጊዮርጊስ	-11.3242
ኮራ	-11.3244
▁ሲመለስ	-11.3247
▁በገ	-11.3249
▁ጎማ	-11.3251
▁በጥሬ	-11.3251
▁ኒውዮርክ	-11.3251
▁ለአየር	-11.3254
▁የቃል	-11.3256
ቲክ	-11.3257
▁ስምንተኛ	-11.3262
▁ከዩጋንዳ	-11.3262
▁መጣል	-11.3264
▁ጨረታውን	-11.3264
ግዳ	-11.3265
▁አለምቀፍ	-11.3269
▁በጠንካራ	-11.3269
▁ክሪስ	-11.327
▁ምርቃት	-11.3271
▁ጠብ	-11.3273
▁የሚገልፁ	-11.3274
▁በክረምት	-11.3274
▁ፋይ	-11.3275
▁ለኮሮናቫይረስ	-11.3275
▁በአጥቂ	-11.3278
▁እየቀረ	-11.3279
ሰበታ	-11.3279
ናደርግ	-11.328
▁እውነታ	-11.3281
ያጠናቅቅ	-11.3281
▁በሜዳቸው	-11.3285
▁በዩጋንዳ	-11.3285
▁በእጣ	-11.3288
ጀብ	-11.3291
▁ከዘጠኝ	-11.3291
▁በሆ	-11.3292
▁የሀገርን	-11.3293
መለከቱ	-11.3298
▁ሙፈሪሀት	-11.3301
▁ተስማምቶ	-11.3301
▁ተዘጋጅተዋል	-11.3301
▁አውቶብሶች	-11.3301
▁አኑሯል	-11.3301
▁ወያነ	-11.3301
▁ከወራጅ	-11.3301
▁ኦፊሰር	-11.3301
▁አመስግነው	-11.3301
▁ሳሙና	-11.3301
▁ሞክረዋል	-11.3301
▁በካሬ	-11.3301
▁የብዙ	-11.3301
▁ተጣርቶ	-11.3301
▁የመንግስቱ	-11.3302
▁የጣሰ	-11.3302
▁ሳያገኝ	-11.3303
▁መደብሮች	-11.3303
▁እንደሚያካሂድ	-11.3304
▁የቀሩት	-11.3304
▁የሚሸፈን	-11.3305
መፅሀፉ	-11.3306
▁ሳይካሄድ	-11.3308
▁ሊያደርስ	-11.3308
▁የተነገረለት	-11.331
ተፋሰሱ	-11.3311
ተጠናቀቀ	-11.3314
▁ዛፍ	-11.3315
▁የተሰጡ	-11.3315
▁በኢህአዴግ	-11.332
▁ለሰው	-11.3321
▁ሰባቱ	-11.3321
▁ታጋይ	-11.3324
▁ዘረፋ	-11.3325
▁ከብቶች	-11.3326
▁ለሙከራ	-11.3326
ወገዱ	-11.3328
በዘንድሮው	-11.3329
▁ዌ	-11.333
▁ሽመክት	-11.3331
▁ፔትሮጀት	-11.3332
▁እየተፈጠረ	-11.3334
▁ቡድኖቹ	-11.3334
▁ቅርሶችን	-11.3337
▁መግለጫቸው	-11.3338
▁ሞስኮ	-11.334
▁ማዳጋስካር	-11.3346
ሚወስደው	-11.3346
ሾሙ	-11.3346
▁ከምት	-11.3351
▁የታቀደ	-11.3353
▁ሀና	-11.3353
ዉጭ	-11.3356
▁የብአዴን	-11.3357
ድነት	-11.336
ሆኑ	-11.3362
ባታል	-11.3363
▁የከንቲባ	-11.3364
▁ሲነገር	-11.337
ፍንዳታው	-11.3373
▁የዳሰሳ	-11.3377
▁በጥቅም	-11.3377
▁በውጪ	-11.3377
▁የተሰማራው	-11.338
▁ከተያዙ	-11.338
▁ሲገኝ	-11.3381
ልድ	-11.3381
መሸሽ	-11.3383
ሱት	-11.3384
ሲያ	-11.3384
ቋቋመ	-11.3385
▁በቦርድ	-11.3387
▁እርሻዎች	-11.3388
መጀመሪያዎቹ	-11.3388
▁በኳታር	-11.339
▁በተቃራኒ	-11.3392
▁ተቃውሞዎች	-11.3393
ለቀቀ	-11.3394
▁አሻ	-11.3395
▁የሞጆ	-11.3396
▁ብለዋልለ	-11.3397
▁እንዳልቀረ	-11.3399
▁ሀብረቱ	-11.34
ጠጥ	-11.3403
▁ሳይጠቀም	-11.3404
ህጋዊ	-11.3405
ባላ	-11.3406
▁ስትራቴጂዎች	-11.3406
▁የሚስ	-11.3407
▁ያስቻለ	-11.3408
▁የሞ	-11.3409
▁ባለሞያ	-11.341
ምእራባውያን	-11.3411
ይፋዊ	-11.3411
ፓትርያርክ	-11.3411
▁ማንደፍሮ	-11.3411
▁ሱዳናውያን	-11.3411
▁ተሰብስቦ	-11.3411
▁ተነጋግረዋል	-11.3411
▁አስተናግዷል	-11.3411
▁እንዳብራሩት	-11.3411
▁ድንገት	-11.3411
▁ተጨምሯል	-11.3411
▁ኢያሱ	-11.3411
▁ኤሚሬቶች	-11.3411
▁በፅናት	-11.3411
▁ቸርነት	-11.3411
▁መካካል	-11.3411
▁መቅረፍ	-11.3412
▁ካስትሮ	-11.3413
▁የማልማት	-11.3414
▁ሲኖሩ	-11.3416
▁የማኑፋክቸሪንግ	-11.3416
▁የማስተካከያ	-11.3417
▁መሸጥ	-11.3417
▁በመጠናቀቅ	-11.3419
▁ብሩህ	-11.342
▁እየገለፀ	-11.3421
▁የወጣት	-11.3421
ሙገር	-11.3423
▁መከሰቱ	-11.3423
▁መወሰናቸውን	-11.3425
በአ	-11.3425
▁መፈታት	-11.3426
▁አማርኛ	-11.3426
▁ሙክታር	-11.3427
▁የወሰዱ	-11.3427
ድሬዷ	-11.3428
ኢቦላ	-11.3428
▁እየተሳተፈ	-11.3428
▁ሳቢ	-11.343
ፓርቲዎች	-11.3436
▁የተጫወቱት	-11.3436
▁ቢልዮ	-11.3436
▁ውጣ	-11.3437
▁ፓወር	-11.3439
▁እንዳልነበረ	-11.344
▁የዛሬውን	-11.3441
▁ማስፈረም	-11.3441
▁አዋጭ	-11.3442
ግቧ	-11.3444
▁የጣለ	-11.3444
ድንበር	-11.3445
ጊኒ	-11.3445
▁አህሊ	-11.3446
▁ከወልዋሎ	-11.3446
ምርት	-11.3447
▁በማስተላለፍ	-11.3448
ሜቴክ	-11.3449
▁ኢኮኖሚው	-11.3451
▁ፍላጎቱ	-11.3451
▁ሳውዲ	-11.3453
▁ማስታወሻ	-11.3454
▁የዘይት	-11.3461
▁በመቻሉ	-11.3462
የኮሚሽኑ	-11.3462
▁ያስከተለው	-11.3462
▁በተዘዋዋሪ	-11.3463
▁ባጫ	-11.3465
▁ከዳር	-11.3466
ቀስ	-11.3466
▁እርሱ	-11.3469
ሰማቸው	-11.347
▁አልጄርያ	-11.3475
መስሪያ	-11.3475
▁አሮጌ	-11.3476
▁ሴፍቲኔት	-11.3476
መሰል	-11.3476
▁የተከተለ	-11.3477
▁አዩ	-11.3478
▁ፓርቲውን	-11.348
▁አዋጆችን	-11.3481
▁ቤተሰቡ	-11.3483
ዘዋወር	-11.3486
▁የይቅርታ	-11.3488
▁አስመጪ	-11.349
▁በአምቦ	-11.3491
▁የሚካሄድበት	-11.3492
መጠባበቅ	-11.3496
ቢቢሲ	-11.3497
▁ታማሚ	-11.3499
▁ከለቀቀ	-11.35
▁ግድያዎች	-11.3501
ምቢ	-11.3503
▁ማካሄዱን	-11.3504
▁ሊገባ	-11.3504
ካራ	-11.3506
▁የመጫ	-11.3507
ሬሽን	-11.3507
▁ተግ	-11.3514
▁ዳና	-11.3514
ኤምባሲው	-11.3515
ይል	-11.3516
▁መሰረ	-11.3517
▁ያለመከሰ	-11.3517
▁አቦ	-11.352
ካይ	-11.3522
▁ተርባይኖች	-11.3522
▁ተከስቷል	-11.3522
▁ካቴድራል	-11.3522
▁በመካከላቸው	-11.3522
▁ተመርጧል	-11.3522
▁ጨምሯል	-11.3522
▁እንዲያከናውን	-11.3523
▁እንደምትችል	-11.3523
መላሽ	-11.3524
▁መመርመር	-11.3524
ጠንክሮ	-11.3525
ባሪ	-11.3525
ነገሩ	-11.3525
▁አድጎ	-11.3526
▁አትቷል	-11.3526
▁ሰርተው	-11.3527
▁ስለሆኑ	-11.3527
▁ስፓ	-11.3527
▁እንዲጀምሩ	-11.3527
▁ካሊድ	-11.3527
ተከሳሹ	-11.3529
ማራቶን	-11.353
ኮሚሽነሩ	-11.353
▁ኢንስቲቲዩት	-11.3531
ሎችን	-11.3532
▁እንዲደርሱ	-11.3532
▁የሚውለው	-11.3532
▁ኤክስቴንሽን	-11.3532
ማግባት	-11.3532
▁ኮል	-11.3533
▁የታክሲ	-11.3534
▁ያሳዩ	-11.3535
▁ከሞቱት	-11.3537
▁ጭካኔ	-11.3538
ላቸዉ	-11.3539
▁ተሸከርካሪዎች	-11.3541
▁የሚወጣ	-11.3542
እስልምና	-11.3543
▁መሰለፍ	-11.3546
ካን	-11.3547
▁ያረጋገጡት	-11.3548
▁ደስታቸውን	-11.3548
▁ማስቀረት	-11.3549
ጠንቀቅ	-11.3549
ፈሱ	-11.355
▁የሰለጠነ	-11.3552
▁የተሰበሰበ	-11.3552
▁የስርጭት	-11.3552
ክሬ	-11.3553
▁አክሲዮኖች	-11.3553
▁ወንጀለኛ	-11.3554
▁ከወጪ	-11.3554
▁የኑክሌር	-11.3558
▁የኢሚግሬሽን	-11.3559
▁የሚያሰ	-11.3562
▁እስካ	-11.3562
▁አቅርቦቱ	-11.3562
▁በምንም	-11.3564
▁ሞያሌ	-11.3567
ንጎ	-11.3567
▁ስፔስ	-11.3568
ሻው	-11.357
▁ባስቆጠራ	-11.3572
▁አቅርበዋልበ	-11.3572
ሻማ	-11.3573
▁በተጠቀሱት	-11.3575
▁ችላ	-11.3576
▁ማሳሰባቸውን	-11.3579
ዘርፍ	-11.3582
▁የተደረጉት	-11.3582
▁የብረት	-11.3583
▁ከተመረጡ	-11.3584
ጣጠ	-11.3585
▁የረዥም	-11.3586
ሰለፉ	-11.3587
ሎት	-11.3587
▁አሸ	-11.3587
▁ሹመቱ	-11.3588
▁ምክ	-11.359
▁ከተቋቋመ	-11.3592
ነበር	-11.3592
ጠዋል	-11.3597
ቡል	-11.3597
ጠፈር	-11.3598
▁ዳኞችን	-11.3601
▁በደሴ	-11.3604
▁የክለቦች	-11.3604
▁የወንዶች	-11.3605
▁በዩኒቨርሲቲው	-11.3606
ተጫዋቾቹ	-11.3607
▁ጣልያን	-11.3607
ሴቶች	-11.3608
▁ካለፈ	-11.3608
▁ሚኒስትሮቹ	-11.3609
▁ተፈ	-11.3611
ሻሻ	-11.3611
ለፋ	-11.3612
▁ከውይይቱ	-11.3617
▁ለቻይና	-11.3617
ያደርገው	-11.3618
ሚል	-11.3623
▁ተስማሚ	-11.3624
የፀጥታ	-11.3626
▁እንደሚፈፀም	-11.3627
▁የተሞላ	-11.3628
▁የግንባታው	-11.3629
በስምምነቱ	-11.3629
▁እንደመጣ	-11.363
ዴይ	-11.363
ቀነሱ	-11.3634
▁ለዋሚኮ	-11.3634
▁ርእዩ	-11.3634
▁ተቋቁሟል	-11.3634
▁ያነጣጠረ	-11.3634
▁ይጠቀሳል	-11.3634
▁ተቀምጦ	-11.3634
▁ካምፖች	-11.3634
▁ሀብቴ	-11.3634
▁በሆቴል	-11.3634
▁ተፈናቅለዋል	-11.3634
▁የወተት	-11.3634
▁ከመጀመርያው	-11.3635
ደራደሩ	-11.3635
▁መክሯል	-11.3635
▁ወልዱ	-11.3635
▁ግርጌ	-11.3635
ረጅሙ	-11.3636
▁ወቅቶች	-11.3636
▁አብረዋ	-11.3636
▁የማይተካ	-11.3638
▁ይታወሳልየ	-11.3638
▁ፋኪ	-11.3641
▁የተለዩት	-11.3641
ቡራዩ	-11.3641
ግምት	-11.3641
▁ደምሰው	-11.3641
ካተታቸው	-11.3642
▁በማኑፋክቸሪንግ	-11.3642
▁ለማፍረስ	-11.3643
ሊንግ	-11.3643
ገበያ	-11.3644
አቅመ	-11.3644
▁ይወጣል	-11.3644
▁በስፖርት	-11.3644
▁የዲ	-11.3645
▁ተዳዳሪዎች	-11.3646
▁የኢን	-11.3647
▁ካደረገው	-11.3647
▁አውጥተው	-11.3647
▁መሰጠቱ	-11.3648
▁ቆሞ	-11.3649
መቅረቡ	-11.3651
▁አላማዎች	-11.3651
▁ይችል	-11.3651
▁አደጋውን	-11.3651
▁ታሪካቸው	-11.3652
▁ኪሮስ	-11.3652
የገንዘብ	-11.3652
▁ጥቅማ	-11.3657
▁የተስፋ	-11.3659
▁ደንበኞቹ	-11.3661
▁የአባ	-11.3662
▁የአገሪቷ	-11.3664
▁ክፍያው	-11.3664
▁ማስፈረሙ	-11.3665
ከበ	-11.3666
▁ወዳድ	-11.3666
▁አሞ	-11.367
▁ኢኮኖሚውን	-11.3672
▁ትብብሩ	-11.3675
▁ፎርብስ	-11.3676
▁ህዝባችን	-11.3677
▁የንፋስ	-11.3677
▁ተጫዋቾቻቸው	-11.368
▁እንደገባ	-11.368
▁ወርዶ	-11.368
▁ገደቡ	-11.3681
ደጋ	-11.3682
ገጠማቸው	-11.3682
ረጋግጥ	-11.3682
▁አሸናፊዎች	-11.3684
ጋይ	-11.3684
▁ተሾሙ	-11.3685
▁የጎደለው	-11.3687
▁ደሴት	-11.3688
▁እንደሚያገኙ	-11.3688
ረጃ	-11.3691
▁አስተማሪ	-11.3691
▁የድህነት	-11.3694
▁ለሀገራቸው	-11.3694
▁ባለቤቱ	-11.3695
ማስ	-11.3695
▁በአገራቸው	-11.3697
▁ባስከተለ	-11.3697
ፈረም	-11.3698
ሯንዳ	-11.37
▁መሳሪያዎቹ	-11.37
ረጋገጡ	-11.3703
▁አካዳሚው	-11.3705
▁በሀረር	-11.3705
▁ስልጤ	-11.3707
ረባ	-11.3708
▁የለውጡ	-11.3709
▁የሚያደርጋቸው	-11.3711
አካባቢዎቹ	-11.3711
▁በማመን	-11.3713
▁በሚገኙት	-11.3713
ዞች	-11.3714
▁ያደርጉ	-11.3715
▁እያየ	-11.3716
ካለ	-11.3717
▁አሳስበዋልበ	-11.3717
▁አስፈፃሚዋ	-11.3717
▁ገጠር	-11.3718
▁ዋንጫን	-11.3719
በርሀ	-11.3719
▁መብቶችን	-11.3719
▁ግምታ	-11.3723
በስብሰባው	-11.3724
ጥረው	-11.3725
▁ምርትን	-11.3726
▁ሪፖርቱን	-11.3729
አርሲ	-11.3731
▁ከቱርክ	-11.3732
▁አተር	-11.3736
በጠቅላይ	-11.3736
ጂን	-11.3738
ፅደቅ	-11.3739
ሀሪ	-11.3742
መረጃው	-11.3743
▁የሚኖር	-11.3743
▁ፕላ	-11.3745
▁ማማ	-11.3747
▁ልምምዶች	-11.3748
▁መጠቀሚያ	-11.3748
▁ተቀናጅቶ	-11.3748
▁ተዘዋውሮ	-11.3748
▁ተዘግቶ	-11.3748
▁ቴክኒካል	-11.3748
▁አስፈርመዋል	-11.3748
▁ያስቀምጣል	-11.3748
▁ዲቪዝዮ	-11.3748
▁የፕላስቲክ	-11.3748
▁የማስተዋወቅ	-11.3748
▁ገንዘቦች	-11.3748
▁ከምንጊዜው	-11.3748
▁ጋቦን	-11.3748
ሪኮስት	-11.3748
▁ይጠበቅብናል	-11.3748
▁እያሳደረ	-11.3748
▁ወኪሎች	-11.3748
▁ከጎናቸው	-11.3749
▁በተከሰቱ	-11.3749
አላማ	-11.375
ወጣት	-11.375
ተፋ	-11.375
▁እንዲጎለብት	-11.3751
▁በማደስ	-11.3751
▁እንዲጫወቱ	-11.3752
▁የሚያገናኝ	-11.3753
▁የሚከታተል	-11.3753
▁እንዲያስገቡ	-11.3754
▁የሚወስደው	-11.3754
▁በፈጣን	-11.3754
▁ተከላው	-11.3754
ሞከረ	-11.3756
ገኛቸው	-11.3757
እምቦጭ	-11.3757
▁ተሰባስበው	-11.3758
▁መርቀው	-11.3758
▁በአመዛኙ	-11.3759
ቦንብ	-11.376
ዴራ	-11.376
▁ደንበኛ	-11.376
ዘሩ	-11.376
▁ብዟየሁ	-11.3761
ሁኔታው	-11.3762
▁ካባ	-11.3762
ኢጋድ	-11.3764
▁መዋቅሩ	-11.3764
▁ብሌ	-11.3768
ፕሮግራሙ	-11.3772
▁የቀሩ	-11.3772
ህዝቦች	-11.3772
▁የመግቢያ	-11.3773
ግንዛቤ	-11.3773
▁ለሀገራችን	-11.3773
ጠፍ	-11.3777
▁የሰንደ	-11.3777
▁ፊርማቸው	-11.3778
▁የፈተና	-11.3778
▁ሰለባዎች	-11.3781
▁የሚያካሂደው	-11.3781
▁ያንግ	-11.3782
▁ይገኛልበ	-11.3783
▁መካነ	-11.3783
▁መወያየታቸው	-11.3784
▁በአሰልጣኝነት	-11.3784
▁አወዛጋቢ	-11.3786
ቦቹ	-11.3788
▁ኦል	-11.3788
▁ምርታቸው	-11.3789
ቤቶቹ	-11.3789
ሌሎቹ	-11.379
▁ተገን	-11.379
▁ችሎታ	-11.3791
አባልነት	-11.3795
▁ሶርያ	-11.3795
▁ወጪው	-11.3796
ማራ	-11.3797
▁ጎብኝዎች	-11.38
▁በላይነህ	-11.3801
▁ሲያዙ	-11.3801
▁የቢሾፍቱ	-11.3804
▁የአገራቱ	-11.3805
▁ያልቻለው	-11.3805
ፀደቀው	-11.3806
▁ካመራ	-11.3809
▁ይሄንን	-11.3809
▁በፓ	-11.381
▁በተቀሰቀሰው	-11.3814
▁ከቀጠለ	-11.382
▁ማዘጋጃ	-11.3823
መድን	-11.3824
▁ጃኮ	-11.3825
▁አብረሀም	-11.3827
ፈቅድ	-11.3827
▁አላዛር	-11.3827
▁ገል	-11.3828
ሴፍ	-11.3833
ጠብቀው	-11.3833
▁የቀረ	-11.3836
ሰራቸው	-11.3836
▁ሁለተኛዋ	-11.3837
ዳስ	-11.384
ሰፈሩ	-11.3841
▁የኢትዮጵያዊያን	-11.3841
▁ዱላ	-11.3844
ሰንበት	-11.3845
ሰባቸው	-11.3845
▁ኪዩ	-11.3846
ቦሪስ	-11.3848
▁በሀያ	-11.3849
ስተናገደ	-11.385
▁በአስራ	-11.3851
በደ	-11.3851
▁አካታች	-11.3854
▁በተከላካይ	-11.386
▁አጋጥሞ	-11.386
▁ፌደሬሽኑ	-11.3861
ጠናከሩ	-11.3861
መረጣቸው	-11.3862
ጎበኙ	-11.3863
▁ምድቦች	-11.3863
▁በልምምድ	-11.3863
▁ተጠይቋል	-11.3863
▁አሟልተው	-11.3863
▁እንደሚመክሩ	-11.3863
▁ክብካቤ	-11.3863
▁ፍቅሬ	-11.3863
▁በጉጉት	-11.3863
▁ተክለብርሀን	-11.3863
ጎበኘ	-11.3864
▁በወሰደው	-11.3864
▁በማጣራት	-11.3864
▁እንዲጠብቁ	-11.3869
▁ሳይኖራቸው	-11.387
▁መራዘም	-11.3871
▁አያኖ	-11.3871
ዷቸው	-11.3871
መፅ	-11.3872
▁ኮንፍረንስ	-11.3872
▁አስተምህሮ	-11.3873
እስክንድር	-11.3874
በትናንትናው	-11.3874
▁በአደባባይ	-11.3875
▁ብሎኛል	-11.3876
▁በውጤት	-11.3877
▁አፈና	-11.3877
▁መመስረቱን	-11.3877
▁እንደሚመጡ	-11.3878
▁መርሆዎች	-11.3881
▁ሲታወቅ	-11.3882
▁ማንነታቸው	-11.3885
▁የዘንድሮውን	-11.3885
▁በአንደኛው	-11.3886
ጨት	-11.3886
▁ካቶሊካዊ	-11.3887
▁ምርመራዎች	-11.3888
▁መናኸሪያ	-11.3889
ጦች	-11.3893
▁ተጠናቅ	-11.3894
ቲቭ	-11.3896
ሞሮኮ	-11.3897
▁በፕሮጀክቱ	-11.3897
▁የወሳኝ	-11.3898
ኤች	-11.3899
የአየር	-11.3899
▁የፈጠሩት	-11.39
ሚባለው	-11.39
▁አቅርቦቶች	-11.3901
ነፍስ	-11.3902
ጫነ	-11.3903
▁ሀገራቸውን	-11.3906
ሸሹ	-11.3908
▁ጥቅል	-11.3909
▁የሚያገኙበት	-11.3909
▁የአልሻባብ	-11.391
ረፉ	-11.3911
ይዞ	-11.3911
▁ልጆቹ	-11.3915
▁አምሀ	-11.3915
▁የተመረጠው	-11.3917
▁ዩኔስኮ	-11.3917
ማተኮር	-11.3922
▁ሳሚ	-11.3924
▁ሳሉ	-11.3925
▁ማውጣቱን	-11.3928
ዛው	-11.3928
▁የፀዳ	-11.3929
ሶስት	-11.3929
▁ሙከራው	-11.3931
ጠጡ	-11.3931
▁ፍትሀዊነት	-11.3932
▁አጥፍቶ	-11.3934
▁ኢኮስኮ	-11.3935
ምታደርገው	-11.3936
▁የተጠቀሱት	-11.3937
ፍትሀዊ	-11.3938
▁ግንባታዎችን	-11.3939
▁ቃላት	-11.3941
▁ተግባሩን	-11.3941
▁የሚጀምር	-11.3944
ጋቸው	-11.3944
▁የሚያቀርቡት	-11.3948
▁ግር	-11.395
▁ሹመቶችን	-11.3951
አየርላንድ	-11.3951
▁ቢሉ	-11.3954
ሞከር	-11.3954
▁መሰለ	-11.3955
▁ተቀጥረ	-11.3955
ቦሌ	-11.3958
▁አምስተኛው	-11.3959
ሰነዘሩ	-11.3964
ሸጋገሩ	-11.3968
▁የሚከፈል	-11.3969
▁በተሽከርካሪ	-11.3969
▁የማሊ	-11.3969
▁ለነገ	-11.3971
በታሪክ	-11.3971
▁ልጆችን	-11.3977
ቀረቡት	-11.3978
▁ገምግሟል	-11.3979
▁ምእራፎች	-11.3979
▁ባልደረቦች	-11.3979
▁ተቀራርቦ	-11.3979
▁አሻሽሎ	-11.3979
▁ኢስማኤል	-11.3979
▁እርባታ	-11.3979
▁ወረርሺኝ	-11.3979
▁በመዋጋት	-11.3979
▁አላውቅም	-11.3979
▁እርካታ	-11.3979
▁ተልኮ	-11.3979
▁እስያ	-11.3979
▁እንዳስረዱት	-11.3979
▁እንዳልሆኑ	-11.398
▁ተጫውተዋል	-11.398
▁ብሩንዲ	-11.398
ታጣቂ	-11.398
አህጉሩ	-11.3981
▁ጠሚኒስትሩ	-11.3981
▁ላሉት	-11.3981
▁የለኝም	-11.3982
▁በኤ	-11.3982
▁ከተቻለ	-11.3983
▁ምህዳር	-11.3983
በአደጋው	-11.3986
▁እንዲያልፍ	-11.3986
▁እንዲቀላቀሉ	-11.3987
▁ሲያገኝ	-11.3987
▁ከተቀላቀለ	-11.3988
▁አቅርቦታል	-11.3989
▁አዘል	-11.3989
▁የተጠናቀቁ	-11.399
አመራሮቹ	-11.3992
ጌታነህ	-11.3992
በተያዘው	-11.3993
▁ማራዘሚያ	-11.3993
▁ጉድ	-11.3993
▁ያልፈለጉ	-11.3996
ሙስሊም	-11.3996
▁የተስማማ	-11.3996
ማቆም	-11.3998
ፖሊ	-11.4002
አስተ	-11.4004
▁አካባቢያቸው	-11.4005
ወንጀሉ	-11.4008
▁ማእቀፉ	-11.4008
▁ሲሞቱ	-11.4011
▁መመርያዎች	-11.4015
በቡ	-11.4016
ግዙ	-11.4016
ሰላሳ	-11.4018
▁አፍሮ	-11.402
▁መጫወቱ	-11.4022
▁አስታ	-11.4023
መጨረሻዎቹ	-11.4024
▁ቀንሷል	-11.4024
የስራ	-11.4026
▁ቁመና	-11.4027
▁ያለብን	-11.4027
▁በውስጥ	-11.4027
▁በማስተሳሰር	-11.4027
▁መልእክቶችን	-11.4028
▁በማውገዝ	-11.4029
▁የካንሰር	-11.4035
▁ተናግረዋልኢትዮጵያ	-11.4036
▁ከተማዋን	-11.4037
ወርድ	-11.4038
▁ሁመራ	-11.4038
▁ጠሚኒስትር	-11.4038
ተማሪዎቹ	-11.4038
▁በቀረበ	-11.4038
ሞሉ	-11.4038
▁በናይጄሪያ	-11.4039
ሪካ	-11.4041
▁የወሰዱት	-11.4043
▁ሰልፈኞቹ	-11.4043
▁ስዊድን	-11.4043
▁ገልፀ	-11.4047
▁ቁር	-11.4048
▁ያነሳው	-11.4053
ርሳ	-11.4057
▁የሀገራት	-11.406
▁የጎረቤት	-11.4062
ፈረሙ	-11.4062
▁ለሚያደርጉት	-11.4062
▁የተጠቁ	-11.4063
የዛሬው	-11.4065
ሰማው	-11.4067
▁ማግኘታቸው	-11.4071
▁የሚያሳ	-11.4071
ዘመኑ	-11.4073
▁የማይገባ	-11.4073
▁ይመ	-11.4074
▁አፀፋ	-11.4074
ዋንግ	-11.4075
▁በቀሩት	-11.4076
ገበ	-11.4078
▁መውሰዳቸውን	-11.4083
መቅ	-11.4084
ለጥ	-11.4086
▁ይታይ	-11.4093
ነቴ	-11.4094
ካሳ	-11.4094
▁የተሻሻለው	-11.4095
▁አስቆጥራ	-11.4096
▁ሙስጠፌ	-11.4097
▁ስብሀት	-11.4097
▁ሽጉጥ	-11.4097
▁ተጠይቆ	-11.4097
▁አስታውቅዋል	-11.4097
▁በተሞላበት	-11.4097
▁የማደራጀት	-11.4097
▁አንችልም	-11.4097
▁ተረክበዋል	-11.4097
▁ተረጋግጦ	-11.4097
▁እያሳለፈ	-11.4097
▁ኪዳነ	-11.4097
▁ፍልሚያ	-11.4097
▁የማእከሉ	-11.4098
መስበር	-11.4098
▁ለሚመጡ	-11.4098
▁የማይታወቅ	-11.4099
▁ኢታማ	-11.41
▁እየተገለፀ	-11.41
▁ኢንዱስትሪያል	-11.4101
▁ኢንተር	-11.4101
▁መመዝገብ	-11.4102
▁መርቷል	-11.4102
▁እንደሚጨምር	-11.4102
▁መሾሙ	-11.4105
▁ይገኛልየ	-11.4105
▁ሹመታቸው	-11.4106
▁እንዲዘጉ	-11.4106
ሪዮ	-11.4107
▁መታደግ	-11.4108
▁አርሶአደሮች	-11.411
▁አስጊ	-11.411
▁ከሌላ	-11.4111
▁ከኢራን	-11.4111
ታሪኩ	-11.4112
▁ሪከርድ	-11.4112
▁ለሚያስፈልጋቸው	-11.4113
ዳንኤል	-11.4113
▁ተሳታፊዎቹ	-11.4113
ፊዎች	-11.4114
▁ህግጋት	-11.4114
ቆሻሻ	-11.4114
ሱፐር	-11.4114
ስቴ	-11.4115
▁ላሳዩ	-11.4115
▁አደራዳሪ	-11.4115
▁ተገኘ	-11.4119
▁የሚወሰድ	-11.412
ታቸዉ	-11.412
▁መለያየታቸው	-11.4121
▁መፍጠሩ	-11.4121
▁ብዙሀኑ	-11.4123
▁በወልቂጤ	-11.4123
▁ተናግረዋልእንደ	-11.4124
▁እየሩሳሌም	-11.4125
▁ቅመማ	-11.4125
▁የአስፈፃሚ	-11.4129
ሊጉ	-11.413
▁የተካተቱበት	-11.4131
▁የታችኛው	-11.4131
▁በግቡ	-11.4131
ተፎካካሪ	-11.4132
ከናውን	-11.4132
ብሪታኒያ	-11.4132
ፖርት	-11.4132
▁በተከፈተው	-11.4133
▁ቴሌቭዥን	-11.4135
ሰጣት	-11.4135
ዘመናዊ	-11.4138
▁አሉላ	-11.4142
▁የሰአት	-11.4143
ወድቅ	-11.4144
▁ሞዛምቢክ	-11.4145
ጣው	-11.4147
▁በሞያሌ	-11.4148
▁የባለድርሻ	-11.4149
▁ኢንተርፕራይዙ	-11.4149
▁ጠረ	-11.415
▁በናይሮቢ	-11.415
▁የትም	-11.4152
▁ትንታኔ	-11.4152
ሁለት	-11.4153
▁ተቃ	-11.4153
▁የደንብ	-11.4153
▁የቅሬታ	-11.4155
ዘገየ	-11.4157
▁ከሀይማኖት	-11.4159
ራቱ	-11.4162
ኢፌዲሪ	-11.4165
▁ያሸነፈው	-11.4166
ቆመው	-11.4169
▁ወገ	-11.4172
▁በስደተኞች	-11.4173
ቀየ	-11.4174
ፐ	-11.4176
ተሩ	-11.4178
▁መግለጫዎች	-11.4179
▁ያለችበት	-11.4181
ዲቅ	-11.4181
▁ተወሰነ	-11.4186
ጓጓዝ	-11.4188
ያዎች	-11.4194
ደረሳቸው	-11.4194
▁የሚታወቁ	-11.4194
▁ስብስቡ	-11.4194
▁በሀገራዊ	-11.4198
▁መያ	-11.4199
▁ቤል	-11.4199
▁ከውሳኔ	-11.4201
▁የህ	-11.4205
▁የአዲሱ	-11.4207
▁ከሶስቱ	-11.4208
ሰላማዊ	-11.4209
▁በነዚህ	-11.421
የፕሮጀክቱ	-11.421
ከፋፈሉ	-11.4216
▁ማቅለያ	-11.4216
▁ቁፋሮ	-11.4216
▁ተጉዘው	-11.4216
▁አስመዝግበዋል	-11.4216
▁ያካትታል	-11.4216
▁የቀጠናው	-11.4216
▁ግኝቶች	-11.4216
▁ሞያ	-11.4216
▁በሰጡበት	-11.4216
▁መከፈት	-11.4216
▁አሰግድ	-11.4217
▁ሳልማን	-11.4217
▁እንደተጠበቀ	-11.4217
ራማ	-11.4218
▁ያህሉን	-11.4218
▁በማጥቃት	-11.4218
▁እየፈፀመ	-11.4221
▁በመጠኑ	-11.4222
▁ወረርሽን	-11.4222
▁ሲያስቆጥሩ	-11.4223
▁ችሎቶች	-11.4224
▁እንደተጀመረ	-11.4225
ያውቁ	-11.4226
▁ተጨዋቹ	-11.4228
▁ቶላ	-11.4229
▁እንደሚመለሱ	-11.423
▁ከአንደኛ	-11.423
▁ገልፀውላቸዋል	-11.423
አማካዮች	-11.4231
ፕሬዚዳንቷ	-11.4231
ሱሉልታ	-11.4232
▁የግቡ	-11.4232
▁በድብቅ	-11.4232
አሚሶም	-11.4233
▁የጀ	-11.4234
▁ሰራዊታችን	-11.4235
▁ጣይ	-11.4235
▁ሲከናወን	-11.4235
▁በአም	-11.4235
▁መረባረብ	-11.4235
ጎዱ	-11.4237
▁ነገሩ	-11.4239
▁ጋዲሳ	-11.4239
መሾም	-11.4242
▁አህ	-11.4244
▁ልቀት	-11.4245
▁ከረ	-11.4245
▁መጠየቃቸው	-11.4246
▁ጭስ	-11.4247
▁እየተነሳ	-11.425
▁በመጣ	-11.425
▁የፍልሰት	-11.425
ካቶ	-11.425
▁ህክምናውን	-11.4252
ሚሰጠው	-11.4258
ሰራጭ	-11.426
▁ነበርየ	-11.4262
▁ሲያቀርብ	-11.4263
▁ጀልባ	-11.4264
ለችግሩ	-11.4265
▁በፊርማ	-11.4266
▁የሰውነት	-11.4267
አካዳሚው	-11.4268
ካርታ	-11.427
ማሳለፍ	-11.4271
▁የመሳሪያ	-11.4273
▁በተጠረጠሩበት	-11.4274
▁ስለሚያ	-11.4276
ጓጓዙ	-11.4276
▁የሚጀምረው	-11.4277
ስልጣን	-11.4277
ቢክ	-11.4279
▁ሳይቶች	-11.4279
▁እየተጠቀሙ	-11.4281
በብ	-11.4281
▁መልሰው	-11.4287
▁ተመራቂ	-11.4287
▁ዲሞክራቲ	-11.4291
ራጅ	-11.4292
▁ያደ	-11.4293
▁አሜ	-11.4293
▁ተፈናቃዮቹ	-11.4294
▁ጋራ	-11.4295
▁ቶታል	-11.4295
ህንፃው	-11.4296
▁የሚሉትን	-11.4297
እሳቸው	-11.4299
▁አሰልጣኙን	-11.43
ባዶ	-11.4303
▁ተገንብተ	-11.4303
▁ያወ	-11.4304
ሳተ	-11.4316
ካፈሉ	-11.4318
▁ላንድ	-11.4319
▁ትእግስ	-11.4319
ከቅርብ	-11.4322
▁ቃሉ	-11.4324
▁ያረፈ	-11.4325
ገባበት	-11.4332
ማዛወር	-11.4333
መታዘብ	-11.4333
አፍሪካውያን	-11.4336
አማካኝ	-11.4336
▁መብራቴ	-11.4336
▁ማስወገጃ	-11.4336
▁ተቀምጠዋል	-11.4336
▁እየተስተዋለ	-11.4336
▁ያቀርባሉ	-11.4336
▁ፖምፒዮ	-11.4336
ያቋርጡ	-11.4336
▁ተሰርቶ	-11.4336
▁የሚሳኤል	-11.4336
▁ድምፁ	-11.4336
▁ዊልያም	-11.4336
▁በጥቅሉ	-11.4336
▁በተከናወነ	-11.4337
▁ለክልል	-11.4337
▁ማስተማሩ	-11.4337
▁እንደሚያምኑ	-11.4337
▁ቡሀሪ	-11.4337
▁ካልተቻለ	-11.4337
▁ለማሰልጠን	-11.4337
▁ሽኩር	-11.4337
▁ፔንስ	-11.4337
▁ምርቶቻቸውን	-11.4337
ኖችን	-11.4338
ከላ	-11.4338
▁ተከተላቸው	-11.4339
▁እውነቱ	-11.4339
▁አዘዋዋሪዎች	-11.4339
▁ቀዳሚዋ	-11.434
▁ስፔሻላይዝድ	-11.4341
▁እላፊ	-11.4341
▁አሻድ	-11.4343
▁ድርቁ	-11.4343
▁የምድር	-11.4343
▁ያደረገች	-11.4345
▁ለማስቀመጥ	-11.4345
ታጠቁ	-11.4347
▁እንዲመሰረት	-11.4348
▁ዘመዶቻቸው	-11.4348
ስታን	-11.4349
▁ከዛም	-11.4349
▁ባሳለፈ	-11.435
▁ሊያገኝ	-11.435
▁የሚያስፈልግ	-11.4352
▁መጠይቅ	-11.4352
ኮልፌ	-11.4354
ቦትስዋና	-11.4354
▁ከግራ	-11.4354
▁በሚችሉበት	-11.4355
ችግር	-11.4355
▁ከፍቶ	-11.4356
▁አብራ	-11.4357
ርሰን	-11.4357
▁ፌዴራሊስ	-11.4357
▁የሌለ	-11.4358
▁ምኞታቸውን	-11.4359
ጣሪ	-11.4361
▁ዳያስፖራዎች	-11.4362
▁ናቸውከ	-11.4363
▁የጉልበት	-11.4366
ነጭ	-11.4371
▁ኋዌ	-11.4371
▁ከጠቅላላ	-11.4375
ንግስ	-11.4376
▁የጥናቱ	-11.4378
▁የሰሊጥ	-11.4378
▁ለደረሰው	-11.4378
▁ከጋምቤላ	-11.4381
▁መስህብ	-11.4381
ሀብረቱ	-11.4381
▁ነበራቸው	-11.4382
▁የሶማልያ	-11.4382
▁የዘላቂ	-11.4382
▁የአቅርቦት	-11.4383
▁አካሄዱ	-11.4385
▁ስለነበረ	-11.4387
ሽልማት	-11.4388
▁ለዛሬ	-11.4394
▁ዴኤታዋ	-11.4395
ረዝ	-11.4396
▁ተናግረዋልለ	-11.4396
▁የሚፈታ	-11.4396
▁እየተወያዩ	-11.4398
▁ግዥው	-11.4399
▁የሰራው	-11.4401
▁ክለቦቹ	-11.4402
▁የተሰማሩት	-11.4403
▁በግለሰብ	-11.4405
▁ሊሰጡ	-11.4406
ቋረጠ	-11.4409
▁ሲኖር	-11.4412
ሰፍ	-11.4412
ወቅቱ	-11.4415
ገንዝቦ	-11.4418
ዲግ	-11.4418
▁የሸገር	-11.442
ጨመሩ	-11.4422
▁ሴካፋ	-11.4422
▁ይታ	-11.4426
ካስ	-11.4427
▁አገኘ	-11.4428
▁የሆቴሉ	-11.4428
▁ሚዲያው	-11.4429
▁ካፋ	-11.4429
መሳሰ	-11.4432
መቀላቀላቸው	-11.4433
ሬሳ	-11.4433
▁ታውቋልከ	-11.4433
ጠናከር	-11.4434
▁ሀድያ	-11.4434
ዲሴ	-11.4435
▁ያቀደው	-11.4435
▁ከሰበታ	-11.4435
ጎር	-11.4438
▁በቃሉ	-11.4439
▁የሚጀመር	-11.4439
ተፈጠረው	-11.4441
ገለፀው	-11.4442
▁በዛው	-11.4449
▁ህገመንግስቱን	-11.4452
ጳ	-11.4458
▁ምህዳሩ	-11.4458
▁ታጋዮች	-11.4458
▁ክትባቶች	-11.4458
▁ሬድዮ	-11.4458
ሰለጥኑ	-11.4458
▁ኬንያን	-11.4458
▁ኒኮላ	-11.4459
▁አድሷል	-11.4459
▁ባለማግኘቱ	-11.446
▁ከከንቲባ	-11.446
▁የለሽ	-11.4461
ከሰሱ	-11.4461
▁ተካተው	-11.4461
▁ለምለም	-11.4462
ጀመረ	-11.4463
መቻች	-11.4463
▁እንደሚጎበኙ	-11.4463
▁እንደሚያስፈልጋቸው	-11.4464
▁ተደርጎባቸዋል	-11.4466
▁ተቀናጅተው	-11.4466
▁የገቡትን	-11.4467
▁አብዱራህማ	-11.447
ተጓ	-11.4471
ጎበኙበት	-11.4471
▁የኮሪያ	-11.4473
▁እንባ	-11.4475
▁አዴ	-11.4476
▁መቀመጥ	-11.4477
ግዛት	-11.4477
▁መወሰን	-11.4477
▁ለማስወጣት	-11.4477
▁የዩጋንዳ	-11.448
▁የሰራዊት	-11.4483
▁ጥቆማዎች	-11.4484
▁መሳሪያው	-11.4485
▁ዎቹ	-11.4485
▁ለአገራቸው	-11.4487
ግሎ	-11.4489
▁በመካከለኛ	-11.449
▁ግዳጅ	-11.449
▁የመደራጀት	-11.4492
ስካ	-11.4492
▁የመጨረሻዎቹ	-11.4492
▁የመነጨ	-11.4493
▁በትእግስት	-11.4494
▁ጎር	-11.4496
▁ለቤተሰቦቻቸው	-11.4497
▁የሚጠቀሙ	-11.45
▁ደጋፊው	-11.45
▁የጎ	-11.4503
ተናገሩት	-11.4506
▁ስንል	-11.4506
ስኳር	-11.4507
ደግፈው	-11.4508
አጥቂ	-11.4508
▁አልጋዎች	-11.4508
▁በመድረሱ	-11.451
▁ፋብሪካዎቹ	-11.451
▁የምናደርገው	-11.4511
▁የድርጅት	-11.4513
▁ግምታቸው	-11.4515
▁ገበሬዎች	-11.4516
▁በማመቻቸት	-11.4517
ስልሳ	-11.4517
ተነገረ	-11.452
ውድ	-11.4521
▁መታገ	-11.4526
▁እንደተገኘ	-11.4526
መከረ	-11.4528
▁ግንባሩ	-11.4529
▁አጥፊ	-11.4529
▁ፈጥረ	-11.4531
▁ካለባቸው	-11.4535
▁ትምባሆ	-11.4535
ነዚህ	-11.4536
በቻይና	-11.4536
▁የትውልድ	-11.4539
▁እንዳገኘ	-11.454
▁መሰብሰቢያ	-11.454
▁ባዶ	-11.454
▁ባለሀብቶችና	-11.4541
▁ከአርባምንጭ	-11.4542
▁የጥሎ	-11.4542
▁በዛሬ	-11.4544
▁የኳታር	-11.4544
▁መነ	-11.4546
▁መሰረዙን	-11.4548
▁ሽር	-11.4549
▁በኢራቅ	-11.4549
▁ዳግ	-11.4549
ኮል	-11.4551
▁ተወዳጅ	-11.4553
▁የእኔ	-11.4556
አመ	-11.4557
▁የራሷን	-11.4559
ገለገሉ	-11.4563
▁ከፍለው	-11.4566
▁አስተዳዳሪዎች	-11.4571
ኮት	-11.4574
ሰራው	-11.4575
▁መምጣታቸው	-11.4575
▁አድርጓልበ	-11.4576
▁መንሸራተት	-11.4582
▁መዘርጋት	-11.4582
▁ሽጉጤ	-11.4582
▁ትርፋማ	-11.4582
▁ኢኒሼቲቭ	-11.4582
▁እናቀርባለን	-11.4582
▁ኦዶንካራ	-11.4582
▁ክርስቲያኗ	-11.4582
▁የግንኙነት	-11.4582
▁ድረገፆች	-11.4582
▁የህሊና	-11.4582
▁አያውቅም	-11.4582
▁ተረክቧል	-11.4582
▁ቆስለዋል	-11.4582
▁በራሷ	-11.4582
▁ሁነቶች	-11.4582
▁እየመረመረ	-11.4583
▁ተወያይተዋልበውይይታቸው	-11.4583
▁መፈራረማቸው	-11.4583
▁መስፈን	-11.4583
ስእል	-11.4583
▁ሽብሩ	-11.4584
▁እየተደረገበት	-11.4585
▁ከመጪው	-11.4585
▁ለመንቀሳቀስ	-11.4585
▁ፓትሪ	-11.4586
▁መገንዘብ	-11.4586
▁የሚተገበር	-11.4586
▁ሮማን	-11.4586
▁እንዲሰረዝ	-11.4588
▁ደሀ	-11.4589
▁እንዲሰናበቱ	-11.459
▁ውጤታቸው	-11.4591
▁ሊጨምር	-11.4591
▁እየተመለሱ	-11.4592
▁አፈፃፀማቸው	-11.4592
ይቱ	-11.4594
▁የሚወ	-11.4595
▁ሲጀምሩ	-11.4595
▁ማተሚያ	-11.4596
▁ማሀበረሰቦች	-11.4596
▁ከተሰማሩ	-11.4596
▁መዘጋት	-11.4597
▁ሴንትራል	-11.46
▁ለእይታ	-11.46
ስቶች	-11.4601
▁እንዲገነባ	-11.4602
ፕሬዝደንት	-11.4602
በአንፃሩ	-11.4602
ቆጠ	-11.4606
ቀንስ	-11.4606
ወልቃይት	-11.4607
▁እንቅስቃሴያቸው	-11.4608
▁በመገናኘት	-11.4608
ተከሰተበት	-11.4609
▁ከሌለ	-11.4609
▁ተቆጣጣሪዎች	-11.4611
ፈጥ	-11.4612
ኢቢሲ	-11.4613
ራቁ	-11.4615
▁እያሰ	-11.4616
▁በስልጠናው	-11.4617
▁ይሰሩ	-11.4619
▁የሚፈቅድ	-11.4622
ደራጅ	-11.4623
▁የአመለካከት	-11.4624
ሰባሰቡ	-11.4625
ደገፍ	-11.4626
▁ትንሳኤ	-11.4626
▁የኦሞ	-11.4628
አመራሩ	-11.4629
▁እንደሌለባቸው	-11.4629
ጠቀመ	-11.463
▁መፍትሄዎች	-11.4635
ኤር	-11.4635
▁የቆመ	-11.4637
ደድ	-11.4637
▁የኢዴፓ	-11.4639
▁አቅርቦትን	-11.4639
▁ስታደ	-11.464
ቴሽን	-11.464
▁ከደረጃ	-11.4644
የከተማዋ	-11.4644
▁ሊቀመንበርነት	-11.4645
▁ፏ	-11.4646
▁ያነሳ	-11.4647
ጁንታው	-11.4647
▁ቡድኔ	-11.4647
ረከብ	-11.465
▁የቢራ	-11.4652
▁ነውከዚህ	-11.4655
▁ከአስራ	-11.4657
እነሱ	-11.4657
▁አሳድ	-11.4658
▁የኢራቅ	-11.466
ጥፋቱ	-11.4661
▁ደብዳቤው	-11.4662
▁በታችኛው	-11.4663
▁በኪራይ	-11.4664
▁የስም	-11.4665
ይታወቅም	-11.4666
ተቀሩት	-11.4669
በኛ	-11.4669
▁ማላዊ	-11.4669
ሚመራው	-11.467
ግልገል	-11.4673
▁ጥያቄያቸው	-11.4674
ወጣቶች	-11.4675
አህጉሪቱ	-11.4675
▁የህዝባዊ	-11.4677
▁ውንጀላ	-11.4677
▁ፅንፈኛው	-11.468
▁መወ	-11.4683
የኢትዮ	-11.4683
▁ቦኮ	-11.4686
ሰራተኞቹ	-11.4686
ኩበት	-11.4688
ለቱ	-11.469
▁ፎረሙ	-11.4693
▁ባዩ	-11.4694
▁እየሄደ	-11.4694
▁ከአደጋ	-11.4695
መገመት	-11.4697
▁የጦርነት	-11.4698
ልሰን	-11.4702
ኮስ	-11.4703
ግብፁ	-11.4703
ለቀቅ	-11.4703
▁የአስራ	-11.4705
ዳኞች	-11.4705
▁ሴሜንት	-11.4707
▁ቀራኒዮ	-11.4707
▁ታደርጋለች	-11.4707
▁አስደንጋጭ	-11.4707
▁የተጫወትነው	-11.4707
▁ያካሂዳል	-11.4707
▁ቆጣቢ	-11.4707
▁ገደቦች	-11.4707
▁ሞገዶቹ	-11.4707
▁ጥልቀት	-11.4707
▁ብስራት	-11.4707
▁ቲፒ	-11.4707
ነሀስ	-11.4707
▁ባሳየው	-11.4707
▁ልዩነቱን	-11.4707
ላፊ	-11.471
▁ለማነጋገር	-11.471
▁ተፈርዶባቸ	-11.4711
▁የሚንቀሳቀሰው	-11.4712
▁ለሚነሱ	-11.4713
▁ያለኝ	-11.4713
▁የሚለ	-11.4715
ሚስ	-11.4715
▁ከድርጊታቸው	-11.4715
▁ፌደራላዊ	-11.4715
▁ካርታው	-11.4717
▁እንደፈጠረ	-11.4717
▁ለመምጣት	-11.4719
▁ለግንባታ	-11.4719
▁እድላቸው	-11.472
▁በእኩልነት	-11.4721
ቀጠረ	-11.4724
▁ከፋ	-11.4724
▁ሰማእታት	-11.4726
▁ኮንዶሚኒየም	-11.4728
ችግሮቹ	-11.4728
▁በሚችሉ	-11.4728
አለማቀፉ	-11.4728
አህመድ	-11.4729
ጆች	-11.473
ጎርፉ	-11.473
▁ሲፈፀም	-11.473
▁የሞሮኮ	-11.4733
▁ገለፁየ	-11.4733
▁ፌስቡክ	-11.4734
▁የተወያዩት	-11.4734
ክላ	-11.4735
▁ለማህበራዊ	-11.4737
ባረሩ	-11.4738
▁ከአቅም	-11.4738
▁ነፃነትን	-11.4738
▁ለመንገድ	-11.474
ዋሺንግተን	-11.4741
▁ባደረ	-11.4742
▁ፍሰቱ	-11.4745
▁መኪናዎች	-11.4746
▁መዳረጋቸው	-11.4746
መረቅ	-11.4748
መኛ	-11.475
▁እንዳሳ	-11.4751
▁ዋንኛ	-11.4752
ሩሲያ	-11.4752
ጠየቀው	-11.4753
▁ከምድብ	-11.4753
▁የእምነቱ	-11.4753
ዋቅሮ	-11.4754
▁በቅደም	-11.4754
▁ተጠቃሾ	-11.4754
▁ክለባቸው	-11.4755
▁ኖርዌይ	-11.4756
▁አባስ	-11.4757
▁ውህደቱ	-11.4759
▁አስታውቋልከ	-11.476
▁ለጨዋታ	-11.4761
▁ካቀረቡ	-11.4761
▁ዝዋይ	-11.4764
አርሶ	-11.4764
▁እየተሰማ	-11.4765
▁እምነታቸው	-11.4765
▁ባልደራስ	-11.4767
ድሬ	-11.4768
▁ማዳ	-11.4768
ፋይናንስ	-11.4768
ሻሸመኔ	-11.4769
▁በዘ	-11.4769
▁አየ	-11.4769
▁ከእንግሊዝ	-11.4771
▁ከተወያየ	-11.4772
▁ዝም	-11.4773
▁ከደረሰ	-11.4773
▁በስተ	-11.4775
ቃት	-11.4776
በርግ	-11.4779
▁ብታ	-11.4779
▁መድረኮችን	-11.4781
▁ብድሩን	-11.4781
▁ከአገልግሎት	-11.4781
ዋለው	-11.4783
▁የሚያገኙ	-11.4783
▁የማር	-11.4784
▁ሚሊ	-11.4786
▁ባዮ	-11.4786
▁የተወካዮች	-11.4788
▁እየገነባ	-11.4788
▁ያረጋገጠው	-11.479
ገለፀ	-11.479
▁በነጥብ	-11.4791
▁መቐለዎች	-11.4794
▁ይተ	-11.4796
▁ማክ	-11.48
▁መስመሩን	-11.48
▁መዋሉ	-11.4805
▁የመንገዱ	-11.4809
▁የግቡን	-11.4812
▁ንብ	-11.4813
ተስ	-11.4815
ፈርሙ	-11.4817
▁የተካሄዱ	-11.4818
ሽኑ	-11.4822
▁ተቋ	-11.4822
ታቸዉን	-11.4825
እግርኳስ	-11.4825
በአዲሱ	-11.4826
ቀርቡ	-11.4827
ዋሽ	-11.4828
▁ጥሰቶችን	-11.4831
ርቲ	-11.4831
ቅርንጫፎቹ	-11.4833
▁ሚደቅሳ	-11.4833
▁ተስማምተው	-11.4833
▁ኮሌጆች	-11.4833
▁ዘግናኝ	-11.4833
▁ዶክተሮች	-11.4833
▁ሰንሰለት	-11.4833
▁ተመልክተናል	-11.4833
▁አስጀምረዋል	-11.4833
▁እንዲታገድ	-11.4833
▁ዋቁማ	-11.4833
▁ፈሳሽ	-11.4833
▁ማቃሳ	-11.4833
▁በትናትና	-11.4833
▁አቅንቶ	-11.4833
▁ነጥቡን	-11.4834
▁ማውጫ	-11.4834
▁ያትታል	-11.4834
▁መንበሩ	-11.4834
▁ሊገነባ	-11.4835
▁አስተዳዳር	-11.4835
የንግድ	-11.4835
▁ሳሊሶ	-11.4836
▁ያቀረባቸው	-11.4836
▁መለስተኛ	-11.4837
▁ስሌት	-11.4837
▁በተረጋጋ	-11.4838
▁እንዲያከናውኑ	-11.4838
▁የሚቆየው	-11.4838
▁ጭኖ	-11.4838
▁ተቀራርበው	-11.4839
▁በሰፊ	-11.4839
▁ወንድማገ	-11.484
▁አይነቱን	-11.4842
▁ጉቦ	-11.4843
ግባቡ	-11.4843
▁ያወጡት	-11.4843
ሯት	-11.4844
ታገዱ	-11.4845
▁የስምምነቱ	-11.4845
▁ለቱሪዝም	-11.4846
▁ሀይድሮ	-11.4847
▁ስላልተ	-11.4847
▁ለማስገንባት	-11.4847
▁በሚካሄዱ	-11.4848
▁ይካሄድ	-11.4848
ንቀሳቀሱ	-11.4849
መዝገቡ	-11.4849
▁መተላለፊያ	-11.485
▁ኤሌክትሮኒክስ	-11.4851
መረመሩ	-11.4852
▁እንደቻሉ	-11.4852
▁አምበሉ	-11.4854
▁ሲፈፅም	-11.4855
▁ለማሳለጥ	-11.4855
▁አስተያየቱ	-11.4856
በመርሀ	-11.4856
ስደተኛ	-11.4856
ስብስቡ	-11.4857
ስታዲየም	-11.4857
ቤንች	-11.4858
▁ቡሽ	-11.486
▁በሀረሪ	-11.4861
▁ሊገቡ	-11.4862
▁ሳጅ	-11.4863
▁ሰላጤው	-11.4864
▁ፕሬዝዳን	-11.4864
▁የፈጠረው	-11.4865
▁ለሶማሊያ	-11.4865
መቻ	-11.4866
አምራች	-11.4867
▁ቴክኒካዊ	-11.4868
ከተማ	-11.487
▁ፈንዱ	-11.4871
▁ደሞ	-11.4872
▁የጠ	-11.4874
ታዬ	-11.4875
▁በተሰራ	-11.4876
ዳው	-11.4877
▁የተመጣጠነ	-11.4878
▁ከቀያቸው	-11.4879
ተለያዩ	-11.488
▁ዳግማዊ	-11.488
▁መቆ	-11.488
ክሪ	-11.4882
ጌት	-11.4887
▁ፓር	-11.4889
▁መረጃውን	-11.4889
ርጉ	-11.4892
▁ገዥዎች	-11.4893
▁ተቀብ	-11.4894
▁ምሁራኑ	-11.4896
ራሽ	-11.4897
ታሉ	-11.4899
ተሰለፈ	-11.4899
▁ከተገኘው	-11.4904
ፈጣሪ	-11.4905
ስቡ	-11.4905
ያስመዘግብ	-11.4905
▁ትህነግ	-11.4908
▁እንደሆን	-11.4908
▁ተልእኮውን	-11.4909
ድሳ	-11.4911
▁በድህነት	-11.4912
▁የራያ	-11.4913
▁በጁባ	-11.4914
ህንድ	-11.4916
መዝግ	-11.4917
ላላት	-11.4919
ብሎ	-11.492
▁ዲሪ	-11.4921
ዶቹ	-11.4921
ጠቀመው	-11.4925
▁ለእረፍት	-11.4926
▁ማድረጓ	-11.4927
▁አጥብቀ	-11.4928
▁የአቻነ	-11.493
▁ቁጭ	-11.4931
▁ተዘ	-11.4932
ሻገር	-11.4932
▁ከፍተው	-11.4937
▁ያደጉ	-11.4938
▁ተነግሯልበ	-11.4943
ኤርትራ	-11.4943
▁በረጅም	-11.4946
ዌይ	-11.4947
ፈዋል	-11.4949
በውይይት	-11.495
ከፈለው	-11.4951
▁ስታር	-11.4952
▁ኩባ	-11.4954
▁ጄም	-11.4954
በተኑ	-11.4954
▁መተላለፉን	-11.4955
▁የያዘችው	-11.4956
የኤጀንሲው	-11.4957
▁መምህሩ	-11.4961
▁ተቀላቅለው	-11.4961
▁ተቃውመዋል	-11.4961
▁ተበርክቶላቸዋል	-11.4961
▁የኮሚኒኬሽን	-11.4961
▁ያፀድቃል	-11.4961
▁ይደነግጋል	-11.4961
▁አልተገለፀም	-11.4962
▁ከመፍጠር	-11.4962
▁ተዘግተው	-11.4962
▁ትንተና	-11.4962
▁ልየታ	-11.4962
ኢፌድሪ	-11.4962
▁አውቶሞቲቭ	-11.4962
▁ተመርቋል	-11.4962
▁ውጥን	-11.4962
▁በመምከር	-11.4962
▁መጠጦች	-11.4962
ስተናገድ	-11.4962
▁መሰራታቸውን	-11.4962
▁ክንፍ	-11.4962
▁ውለታ	-11.4963
▁ከፋይ	-11.4963
▁ባህረ	-11.4963
▁አፈር	-11.4965
▁የሚፈልጉትን	-11.4966
በጉብኝቱ	-11.4966
▁የሚባሉት	-11.4966
እቅዳቸው	-11.4967
ኦኤም	-11.4967
▁ምእራባዊ	-11.4967
▁ሲመረምር	-11.4968
ሚከሰቱ	-11.4971
▁ሰመራ	-11.4972
▁ማደያዎች	-11.4972
▁ሳይሰጥ	-11.4973
▁እንዲሰጥበት	-11.4973
▁ተክለማርያም	-11.4973
ስጋት	-11.4974
▁ስንቅ	-11.4975
▁እንደሚገነባ	-11.4976
▁ያበቃ	-11.4977
▁ደደቢቶች	-11.4977
ዲፒ	-11.4978
▁እንዲሳተፍ	-11.4979
▁የማስፈፀም	-11.4979
▁ሲያጠናቅቅ	-11.4979
▁እንደሚጫወት	-11.498
መልሱ	-11.498
▁በህዳር	-11.4982
▁አለመቻላቸውን	-11.4983
▁ሊኖሩ	-11.4985
ህልፈተ	-11.4986
አፀፋ	-11.4986
ሴኔጋል	-11.4987
▁ዲያስፖራ	-11.4987
▁የትኛውን	-11.4987
አመታዊ	-11.4989
▁ራያ	-11.4989
ተሳታፊዎቹ	-11.499
▁በወንጀለኛ	-11.499
ሰነዱ	-11.4991
▁በሚጠበቀው	-11.4997
▁ከመከላከል	-11.4999
ጠብቁ	-11.5
ሚያዝያ	-11.5001
▁በሰነድ	-11.5001
ያስከትል	-11.5002
▁ተሞክሮዎችን	-11.5002
ነፍ	-11.5003
▁ተጫዋቾቻችን	-11.5004
▁ለህፃናት	-11.5004
▁በማግኘቱ	-11.5004
▁መቁሰላቸው	-11.5007
▁በማሰራጨት	-11.5008
ሆች	-11.5011
▁ጎፋ	-11.5011
▁ኤታ	-11.5012
ሞላው	-11.5012
ተኞቹ	-11.5015
▁አደራዳሪነት	-11.5017
▁ማገዝ	-11.5017
▁በማገዝ	-11.5018
▁ማለ	-11.5018
▁የበሽታ	-11.5019
▁መቃ	-11.502
በሱዳን	-11.502
መንግስታቱ	-11.5021
▁በሚዲያ	-11.5021
ደርሳቸው	-11.5022
ዳታ	-11.5023
▁እንደደረሱ	-11.5023
▁ኔ	-11.5023
▁ዜጎቹ	-11.5023
▁ከጎ	-11.5026
ህዝባዊ	-11.5033
▁በአንዱ	-11.5034
▁ይቅር	-11.5035
በአንድ	-11.5035
▁የሚከ	-11.5038
▁ዴሞክራሲን	-11.5041
መላክ	-11.5041
▁ተቆጣጥረ	-11.5042
▁የሚመጡት	-11.5042
ወልድያ	-11.5043
መንግስታዊ	-11.5045
ኒስ	-11.5048
▁ከወጡ	-11.5048
▁በላቸው	-11.505
ሚሰራው	-11.505
▁ቪዲዮ	-11.5051
▁የተቀበለው	-11.5055
ልጠው	-11.5055
▁በአሶሳ	-11.5055
ከሰተ	-11.5062
▁የሚፈፅሙ	-11.5062
▁ሀዋሳዎች	-11.5063
▁ብል	-11.5064
ሻይ	-11.5067
ራይ	-11.5068
ጠበ	-11.5068
ቀዳማዊ	-11.5068
▁ተጠያቂነትን	-11.5073
▁በሚሰሩ	-11.5073
▁የገጠማቸው	-11.5077
▁ዋሉ	-11.5077
ማገድ	-11.5078
▁ቴክኖሎጂን	-11.5078
▁አግቢ	-11.5079
▁በእግርኳስ	-11.5081
▁ለታ	-11.5082
አሰ	-11.5083
ቃወም	-11.5083
▁በሞሮኮ	-11.5089
▁ብረታ	-11.5091
አጠቃላዩ	-11.5091
▁ቤንጃሚን	-11.5091
▁ቭላድ	-11.5091
▁ተወያይተው	-11.5091
▁ትቀጥላለች	-11.5091
▁አረጋግጠው	-11.5091
▁አወጋገድ	-11.5091
▁አግልግሎት	-11.5091
▁የማረጋጋት	-11.5091
▁መሙላት	-11.5091
▁ኢሚሬቶች	-11.5091
▁ቀውሶች	-11.5091
▁በመርዳት	-11.5091
▁የእህል	-11.5091
▁ገልፃ	-11.5091
▁መቀበያ	-11.5091
▁በታማኝነት	-11.5091
መድሀኒቱ	-11.5091
▁ተናግራለች	-11.5091
እንቦጭ	-11.5091
▁ጉጉት	-11.5091
▁ለማሳወቅ	-11.5092
▁መድሀን	-11.5092
▁ቁጥሮች	-11.5092
▁ያልጠበቀ	-11.5092
▁በመመርመር	-11.5093
▁የሚያገናኘው	-11.5093
▁የማጠናከር	-11.5093
ሀኒ	-11.5094
▁መንከባከብ	-11.5094
▁ተመርጠው	-11.5094
ግኝ	-11.5095
ልአተ	-11.5095
▁አሰልጣኞችን	-11.5096
▁በማከል	-11.5097
▁እንዲንቀሳቀሱ	-11.5098
▁እንዲደርሳቸው	-11.5098
▁የዘ	-11.5099
ቫን	-11.5099
▁እንደሚከናወኑ	-11.5099
▁ፅሁፎችን	-11.51
በውድድሩ	-11.5101
ራችሁ	-11.5101
ገናኙ	-11.5101
▁ሲጠይቁ	-11.5103
▁ክብደት	-11.5103
ነታችንን	-11.5104
▁ገበያውን	-11.5104
ዲላ	-11.5105
▁አምባቸው	-11.5107
▁የሚገለፅ	-11.5108
በላሽ	-11.5108
ፖላንድ	-11.5108
▁ተጫራቾች	-11.5109
▁ሜትሮች	-11.5109
▁ሜዲካ	-11.511
መጨረሻ	-11.5111
ቆጣጠሩ	-11.5112
▁ደጀን	-11.5113
▁ሪፈራል	-11.5114
▁ለአንድነት	-11.5115
የሀገራቱ	-11.5115
ፍተ	-11.5116
▁የቆሙ	-11.5118
የኦሮሞ	-11.5118
▁የተሀድሶ	-11.5119
ክፍል	-11.5119
▁አንዳንዶች	-11.512
▁አንዳርጋቸውን	-11.5123
▁ፍልሰት	-11.5123
▁ቅብብል	-11.5127
ዲፕሎማቲክ	-11.5127
ነበሩበት	-11.5128
ሀድያ	-11.5129
ተት	-11.5131
▁እየመጣ	-11.5131
እነዚህን	-11.5132
ከላከል	-11.5133
▁በመጎብኘት	-11.5133
በአሰልጣኝ	-11.5133
ስፖርቱ	-11.5136
▁አሰራሩን	-11.5136
ቶሪ	-11.5137
▁መስማማት	-11.5138
▁ከተጠቀሱት	-11.5138
ነገረ	-11.5139
▁ንብረቶችን	-11.514
▁መድሀኒቶችን	-11.514
▁የፓለቲካ	-11.5141
▁አወ	-11.5141
▁ፈራሚዎች	-11.5142
▁ቲቪ	-11.5143
በውጭ	-11.5144
▁ሮቤ	-11.5146
▁አደጋዎችን	-11.5147
▁ለተጫዋቾቹ	-11.5148
▁ለሚለው	-11.5149
▁ከሚገኝ	-11.515
ሆቴሉ	-11.5152
ናይጀሪያ	-11.5152
ንቅናቄው	-11.5152
▁ከተመለሱ	-11.5155
▁የረመዳን	-11.5156
▁በተነሳው	-11.5157
▁ውሎው	-11.5157
▁የጅምላ	-11.5162
▁ተሰማር	-11.5163
ዬር	-11.5165
▁የተከሰሱት	-11.5167
ሀላፊው	-11.5167
ትናንቱ	-11.5167
▁መጋ	-11.5167
ፊታችን	-11.5168
ሰረዝ	-11.5169
▁ይሰማ	-11.5171
▁ቂርቆስ	-11.5171
▁ትን	-11.5172
ቻድ	-11.5184
▁ድሬ	-11.5189
ደረሰው	-11.5191
▁በግለሰቦች	-11.5193
▁ሲሸልስ	-11.5193
ፈነዳ	-11.5194
▁በሴካፋ	-11.5194
ለውጥ	-11.5194
መመከት	-11.5195
የኢህአዴግ	-11.5195
▁አሊያ	-11.5195
ፎርድ	-11.5196
▁ተናግረዋልይህ	-11.5197
ፋቸውን	-11.5198
ሰጧቸው	-11.5199
ኬሽን	-11.5199
▁ያደገ	-11.52
▁በጎረቤት	-11.52
ስላ	-11.5202
▁ከፍሎ	-11.5205
▁ሊዮ	-11.5214
▁ፕ	-11.5214
▁ቤንች	-11.5215
ታሪክ	-11.5215
ገጠሙ	-11.5216
▁ለፌደራል	-11.5216
ጨመር	-11.5218
▁በነ	-11.5218
ተፋጠነ	-11.5223
▁ማሳደጊያ	-11.5223
▁ሽጉጦች	-11.5223
▁ቅራኔ	-11.5223
▁ባለፀጋ	-11.5223
▁ትንኮሳ	-11.5223
▁አውቶቡስ	-11.5223
▁ይታያሉ	-11.5223
▁ይጨምራል	-11.5223
▁ይፈልጋል	-11.5223
▁ለማደራጀት	-11.5223
▁ማደራጀት	-11.5223
▁አድርጓቸዋል	-11.5223
▁ነብያት	-11.5223
▁ሻንቆ	-11.5223
▁ይበልጣል	-11.5223
▁በተሻሻለው	-11.5223
▁ያሳለፉት	-11.5223
▁ታስረዋል	-11.5223
▁አከናውነዋል	-11.5224
▁እንዳልነበር	-11.5224
▁አድንቀው	-11.5224
▁በምታደርገው	-11.5224
▁ወራጅ	-11.5225
▁እስኪጠናቀቅ	-11.5225
▁ባልተለመደ	-11.5225
▁ጣሪያ	-11.5225
▁ደርቤ	-11.5225
▁በማጥናት	-11.5226
▁ወሩ	-11.5227
ኘት	-11.5228
ፓርቲ	-11.5228
▁ገቡ	-11.5228
▁ወደነበረበት	-11.5229
▁እንዲፈፅሙ	-11.5229
▁አስተላለፈ	-11.5229
▁የሚደግፉ	-11.523
▁እየተጠናቀቀ	-11.523
▁ያለችውን	-11.5235
▁ካደገ	-11.5237
▁ብዙዎችን	-11.5237
▁እንዲረዳ	-11.5238
▁የሚበረታታ	-11.5239
▁እንደተጠናቀቀ	-11.524
▁በስህተት	-11.5241
▁በአማርኛ	-11.5243
▁ይገዙ	-11.5243
▁ዉይይት	-11.5243
▁ባህልን	-11.5244
ቀደሙት	-11.5245
በመቀጠል	-11.5245
▁መነጋገሪያ	-11.5246
▁የሆነች	-11.5246
ካሄዳቸው	-11.5247
▁ለጥቃቱ	-11.5247
▁እየመጡ	-11.5248
▁እንዲጫወት	-11.525
ተጓዳኝ	-11.525
ተወዳዳሪ	-11.5252
▁ሲረጋገጥ	-11.5252
▁ወዲያው	-11.5253
▁ለራሱ	-11.5253
▁መክፈት	-11.5254
ቧቸው	-11.5254
▁ተነግሯልየ	-11.5255
▁በቋሚ	-11.5257
▁የወጣቱ	-11.5257
ወንጀል	-11.5257
ወሰነው	-11.5258
ያለ	-11.526
▁ቻምፒዮና	-11.526
▁ሰብሎችን	-11.5261
▁ኤክስፖ	-11.5263
▁ህንፃው	-11.5263
▁ቀረ	-11.5265
▁አፍራሽ	-11.5267
▁ተፈፀመ	-11.5267
ቀሩት	-11.5271
▁ሴና	-11.5271
▁የሎጂስቲክስ	-11.5272
▁ፍላጎታቸውን	-11.5272
▁መስራታቸውን	-11.5272
▁ለእኔ	-11.5273
▁የሚያከናውነው	-11.5274
▁የእቃ	-11.5274
▁ጃኮብ	-11.5276
▁የሚያስችላቸው	-11.5277
▁መቅረቱ	-11.5277
▁በአስተዳደሩ	-11.5278
ተቀመጠለት	-11.5279
ካሄደ	-11.5283
▁ባንኮቹ	-11.5283
አማራ	-11.5285
ቦይንግ	-11.5285
ተከናወነው	-11.5285
▁ከሚል	-11.5286
▁የሚሆንበት	-11.529
የባለስልጣኑ	-11.529
▁እንዲያጣ	-11.5291
መብራት	-11.5292
ድሀ	-11.5292
▁በዩኔስኮ	-11.5293
▁የታለመ	-11.5294
▁ለቋሚ	-11.5297
ኩር	-11.5297
▁ከኢንዱስትሪ	-11.5297
የመንገዱ	-11.5297
▁እያስመዘገበች	-11.5298
ገመት	-11.5299
ሁኑ	-11.5301
ተውጣጡ	-11.5302
▁መወሰኛ	-11.5302
▁ራይ	-11.5304
▁መታሰራቸው	-11.5305
▁አጠናክረ	-11.5307
▁ማበረታቻ	-11.5308
▁በመቶዎቹ	-11.531
▁በካናዳ	-11.531
▁ዩኒ	-11.5312
ፊልድ	-11.5313
▁ከተነሳ	-11.5314
▁አቋማቸውን	-11.5317
▁ቸ	-11.5318
ወንዶች	-11.532
▁ለተቃውሞ	-11.5325
ፊፋ	-11.5328
▁በህፃናት	-11.5328
▁አላስ	-11.533
መሰማራት	-11.533
ቷቸዋል	-11.5331
▁አለፈ	-11.5331
▁ውስ	-11.5333
▁በሮች	-11.5335
ሆነው	-11.5338
▁የጉ	-11.5341
▁ባደረሰ	-11.5343
▁ማድ	-11.5345
▁ተስፋሁ	-11.5345
ብሬ	-11.5349
ወለዱ	-11.5349
▁ዘላቂነት	-11.5352
▁ፍትሀ	-11.5353
ወርዱ	-11.5354
ፍልስጤ	-11.5355
ፀድቁ	-11.5355
▁ማብራርያ	-11.5356
▁ትሪፖሊ	-11.5356
▁ኡጁሉ	-11.5356
▁የማበረታቻ	-11.5356
▁የተጋነነ	-11.5356
▁ዩሱፍ	-11.5356
▁ይመስለኛል	-11.5356
▁የሚያመለክተው	-11.5356
▁ሸለቆ	-11.5356
▁ፌዴሬሽኖች	-11.5356
▁ስማርት	-11.5356
▁ኢድሪስ	-11.5356
ሰቆጣ	-11.5357
▁አግኝታለች	-11.5357
▁ፈርመዋል	-11.5357
▁ላለመውረድ	-11.5357
ዩጋንዳ	-11.5357
▁ተፈርሞ	-11.5357
▁ይፈፀማል	-11.5357
▁ለተወሰኑ	-11.5358
▁ወራሽ	-11.5358
▁ሙያተኞች	-11.5358
▁ተመድበው	-11.5358
ሳድ	-11.5358
▁አወጣጥ	-11.5359
▁ያሰብነው	-11.5359
▁ይመራሉ	-11.5359
▁ተሸንፈ	-11.5359
▁ስታደርግ	-11.536
▁ከፊት	-11.536
▁አካቷል	-11.536
▁የመልማት	-11.536
▁ወጥተናል	-11.536
▁እንዲይዙ	-11.536
▁ሲያገኙ	-11.5361
▁ገብረህይወት	-11.5361
▁እንደሚቀንስ	-11.5361
▁በመቋቋም	-11.5364
ታሰሩ	-11.5364
ሚድሮክ	-11.5365
ጨረስ	-11.5365
▁የተከሰሱ	-11.5366
▁የሞተር	-11.5367
▁እዲ	-11.5369
▁አደራጅ	-11.5369
▁የሚሰማሩ	-11.537
▁መከተል	-11.5371
▁ፓርቲዎችን	-11.5371
▁የተገዙ	-11.5372
ካቸው	-11.5372
▁ከተያዘው	-11.5372
▁አገልገሎት	-11.5373
▁እንዲይዝ	-11.5374
ክለቦች	-11.5375
▁የኔትወርክ	-11.5378
▁እንዲገኙ	-11.5378
▁ቀዶ	-11.5379
▁የሚይዝ	-11.538
ትድ	-11.538
▁መሪዎችን	-11.538
▁የከረመው	-11.5381
▁የተተከሉ	-11.5382
ሁከቱ	-11.5382
ባለስልጣን	-11.5382
▁እንዲያውቁ	-11.5383
▁የመላ	-11.5384
በመግለጫው	-11.5385
ሚኒስትሮቹ	-11.5386
ፈቃዳቸው	-11.5386
ሲሸልስ	-11.5387
በዞኑ	-11.5387
▁ማምራቱ	-11.5387
ዘጠኙ	-11.5387
▁አሜሪካዊያን	-11.5389
▁ሳራ	-11.5389
ዎቿ	-11.5389
ተላላፊ	-11.539
▁ለፖለቲካ	-11.539
የግብርና	-11.5395
ካሂድ	-11.5395
▁የተመደበ	-11.5397
እዚህ	-11.5398
ሰዎች	-11.54
▁ከሰብአዊ	-11.54
▁ለማቋረጥ	-11.54
ከማ	-11.5402
▁ሲኤንኤን	-11.5403
ፈረንሳይ	-11.5403
▁መጤ	-11.5404
ማድረጋቸው	-11.5405
▁አድርጎናል	-11.5407
▁የአቻ	-11.5408
▁በአረንጓዴ	-11.541
▁ህንፃዎችን	-11.5411
▁ባሳ	-11.5411
ዘዙ	-11.5414
▁ኢቲ	-11.5415
ላይን	-11.5418
▁በዳኝነት	-11.5418
▁ማሸነፉ	-11.5418
▁ያዳ	-11.5418
▁የሚቻልበት	-11.5422
▁አምርተ	-11.5422
ብልፅግና	-11.5424
ግብይት	-11.5425
ራድ	-11.5425
ሰልፉ	-11.5425
ወደቡ	-11.5429
▁ተነጥ	-11.5429
▁የወለድ	-11.543
▁ከፀደቀ	-11.5431
▁ወንድማማችነት	-11.5434
▁የሰለጠኑ	-11.5434
▁መውደሙን	-11.5437
▁ግድያውን	-11.5438
ነሮች	-11.5438
ማፍሰስ	-11.5443
▁ለኔ	-11.5444
▁በብር	-11.5447
ያውያን	-11.5447
▁በልደታ	-11.5448
ነቀል	-11.5448
ሜዳችን	-11.5452
▁አስፈ	-11.5453
▁የደርግ	-11.5454
▁ግለ	-11.5457
▁ግሪን	-11.5461
▁አስረ	-11.5462
እኔ	-11.5463
▁ከፍርድ	-11.5465
ወያዩ	-11.5467
ተላለፍ	-11.5468
▁ለሀዋሳ	-11.5468
▁አቤቱታዎች	-11.547
▁ያጠናቀቁ	-11.547
እርስ	-11.5471
ጥብ	-11.5474
ሚያደርግ	-11.5475
▁እያገኘ	-11.5476
▁ድሬዷ	-11.5484
ያስመዘግቡ	-11.5485
ቡት	-11.5485
▁የቀድሞዋ	-11.5489
ጂኦተርማል	-11.5491
▁ለማገናኘት	-11.5491
▁ለነበረው	-11.5491
▁ሰብስቦ	-11.5491
▁በአሰቃቂ	-11.5491
▁ተመዝግቦ	-11.5491
▁እርከኖች	-11.5491
▁ኮማንደሩ	-11.5491
▁የመቁሰል	-11.5491
▁ይወሰዳል	-11.5491
▁ይወስዳል	-11.5491
▁ፖለቲከኛ	-11.5491
▁ለመታደም	-11.5491
▁አልሆነም	-11.5492
▁አመኔታ	-11.5492
▁ሰነዱን	-11.5492
▁የምንችለው	-11.5492
▁ንግስት	-11.5493
▁ለመጨረስ	-11.5493
▁በማስፈን	-11.5493
▁ማስተዳደር	-11.5493
▁በማፍራት	-11.5493
▁የተቀመጡት	-11.5493
▁የሚሸፍነው	-11.5493
▁ምርምራ	-11.5493
▁ምስክሮቹን	-11.5494
▁እነሆ	-11.5494
▁የማሻሻል	-11.5495
▁ተራሮች	-11.5495
▁ውሎች	-11.5495
▁ዘካሪያስ	-11.5496
▁ባሁኑ	-11.5496
▁የመሰረተባቸው	-11.5496
▁ከገቢዎች	-11.5496
▁መነሳታቸውን	-11.5497
▁ሸሽተ	-11.5497
▁መቆጠብ	-11.5499
▁ብድሩ	-11.5502
▁ተቀባይ	-11.5504
ህዋ	-11.5506
▁ለማርገብ	-11.5506
▁ለማትረፍ	-11.5507
▁የነቃ	-11.5507
▁ደሞዛቸው	-11.551
▁የረድኤት	-11.5512
ተጠርጣሪዎች	-11.5512
▁ረድኤት	-11.5513
ታቀደው	-11.5513
▁የሚነገረው	-11.5513
▁ድህረ	-11.5513
▁ቢኖራቸው	-11.5514
▁ለውስጥ	-11.5515
▁የቆየችው	-11.5515
ዋሉት	-11.5516
▁የሚያስችላት	-11.5516
▁ማንን	-11.5516
▁የሚፈጠር	-11.5517
▁ቀሪዎቹን	-11.5522
▁አጋሮቹ	-11.5522
▁በካፒታል	-11.5522
ድርጊት	-11.5524
▁ማፅደቁን	-11.5526
▁ቴአትር	-11.5527
▁ብለዋልበዚህ	-11.5527
ሚከበረው	-11.5528
▁ሊባል	-11.5529
▁በደን	-11.5529
ገጥመው	-11.553
በምስራቅ	-11.5532
ሰማሩ	-11.5535
▁የሚተ	-11.5535
▁ከመድረሱ	-11.5535
ረቱ	-11.5537
▁አስገድዶ	-11.5537
ልደት	-11.5537
▁ከቻይናው	-11.5538
▁እየቀረቡ	-11.5539
▁የኮን	-11.554
▁ገልፀዋልበኢትዮጵያ	-11.5543
▁እኛን	-11.5544
▁በመጠለያ	-11.5544
▁መካተት	-11.5544
▁ያሸነፈ	-11.5546
▁ቀዬአቸው	-11.5546
▁የአነስተኛ	-11.5546
▁የተቀላቀሉት	-11.5549
▁ማውጣቱ	-11.5551
ተከ	-11.5552
▁ማስተላለፋቸውን	-11.5556
የሰሜን	-11.5556
ጨረ	-11.5557
ርሶ	-11.5558
▁ከየመን	-11.556
መንግስታት	-11.5562
ለገጣፎ	-11.5562
ፋፈ	-11.5563
▁የሀዲያ	-11.5564
▁ትር	-11.5564
▁አልሚ	-11.5569
▁መፈጠሩ	-11.557
▁ቴክኖሎጂው	-11.5571
ሀላ	-11.5571
ሞሪ	-11.5575
▁መርሀግብሩ	-11.5576
▁ጠሚ	-11.5577
▁ሀያል	-11.5578
በሰሜን	-11.558
▁ይደ	-11.5581
▁አንስተዋልበ	-11.5582
▁ጠይቀዋልየ	-11.5582
ያዛቸው	-11.5582
ዩኒቨርስቲው	-11.5583
ቀረበበት	-11.5583
▁ለቅዱስ	-11.5585
ወይን	-11.5585
አውሮፕላን	-11.5585
▁ለመፈረ	-11.5589
▁ተልእኮዎች	-11.5594
▁ከቦሌ	-11.5594
▁ኤሪክ	-11.5595
ታለመለት	-11.5596
▁ለባለ	-11.5597
▁የአር	-11.5597
▁የተፈቀደ	-11.5598
ቋቸው	-11.5598
የምርጫ	-11.5599
▁የተሽከርካሪዎች	-11.5599
▁የሀገራቱ	-11.5599
ማጣት	-11.56
▁ዘጠነኛ	-11.5604
ድጋፍ	-11.5605
▁በገባ	-11.5606
ባራ	-11.5608
▁በላ	-11.5609
▁ከአል	-11.5612
▁ከደረሱ	-11.5612
▁የማሳ	-11.5612
በናትናኤል	-11.5613
ዘመናት	-11.5615
▁አንድምታ	-11.5617
▁እሳቱ	-11.562
▁ተከፋፍ	-11.5627
▁የወጣባቸው	-11.5628
አመቱ	-11.5628
በእነዚህ	-11.5628
▁ይመልከቱ	-11.5628
▁መስተንግዶ	-11.5628
▁መደሰታቸውን	-11.5628
▁ማእቀቦች	-11.5628
▁አራዝሟል	-11.5628
▁እፈልጋለው	-11.5628
▁ይመለሳሉ	-11.5628
▁ይመክራል	-11.5628
▁ፈጌሳ	-11.5628
▁ለቀጠናው	-11.5628
▁መርዳሳ	-11.5628
▁ወስኖ	-11.5628
▁መወያየት	-11.5628
▁መዝሙ	-11.5629
ተባባር	-11.5629
▁አስተባብለዋል	-11.5629
▁ትረስት	-11.5629
▁ኪዳነማርያም	-11.5629
▁አቅርባለች	-11.5629
▁ባስተላለፈው	-11.5629
▁ፎፋና	-11.5629
▁ሄዷል	-11.5629
▁የመመርመር	-11.5629
▁ማረፍያ	-11.5629
▁እንዳያደርስ	-11.5629
ብሄር	-11.563
▁እያጋጠሙ	-11.563
▁ቁሶች	-11.563
▁ማሳየታቸውን	-11.563
▁እንደሚያከናውን	-11.563
▁ፈጥረዋል	-11.5631
▁በማለቱ	-11.5631
▁ቤታቸውን	-11.5632
▁ደህንነታቸው	-11.5632
አለ	-11.5632
▁ቶጎ	-11.5634
▁በማስተካከል	-11.5634
▁የሚያጣራ	-11.5634
ሀገራዊ	-11.5634
▁ከመሰረቱ	-11.5635
ደሰ	-11.5635
▁እየተወሰዱ	-11.5636
▁ድሮ	-11.5636
▁ለማውረድ	-11.5636
▁አመሀ	-11.5638
▁የድርድሩ	-11.564
▁ከተነሱ	-11.564
▁ለካፒታል	-11.5641
▁አይታወቅም	-11.5643
▁ባገኙ	-11.5643
▁አገባ	-11.5644
▁ሲመልሱ	-11.5644
▁የመጫወቻ	-11.5645
ቃሉ	-11.5645
▁ሚሊሻዎች	-11.5646
▁የሚገናኝ	-11.5648
▁ለመገኘት	-11.5648
▁በአስቸጋሪ	-11.5649
▁የተከ	-11.5649
ልኛል	-11.565
▁አስሩ	-11.565
▁ጠቀሜታው	-11.5651
▁ነውየኢትዮጵያ	-11.5653
▁የተከታተሉት	-11.5653
▁የሆ	-11.5653
▁ከጋና	-11.5657
ኮሮ	-11.5657
ቆጠራው	-11.5658
ተፈለገው	-11.5658
▁መውጣታቸውን	-11.5658
የወቅቱ	-11.5659
ጎሮ	-11.5659
▁ይገ	-11.5661
▁የሚጀመረው	-11.5661
▁መግለጫውን	-11.5662
▁የመወያያ	-11.5662
መንገዶች	-11.5663
ፕሮጀክቶች	-11.5663
▁በመደበኛው	-11.5665
▁የፍተሻ	-11.5669
▁ቴሌ	-11.5669
ያስችል	-11.567
መረቱ	-11.567
ቲስ	-11.567
▁ዜጎቻቸው	-11.5671
▁እያካሄደች	-11.5671
የሁ	-11.5674
▁ማእቀቡ	-11.5675
▁ነዋሪው	-11.5676
ሰባዊ	-11.5677
የልኡካን	-11.5677
ፈልገው	-11.5679
▁ከዚ	-11.568
በቫይረሱ	-11.5682
▁ክርክሩ	-11.5683
▁ሌት	-11.5685
▁ትምህር	-11.5686
ፈለገው	-11.5686
▁አፍሪካዊያን	-11.5686
ዴፓ	-11.5689
▁ፋታ	-11.5692
▁ስፖንሰር	-11.5692
▁ለጉዳት	-11.5692
▁መቻቻል	-11.5693
▁መመረጥ	-11.5694
ሰፈረ	-11.5695
▁አለመቻሉ	-11.5696
ሰሞኑ	-11.5696
▁ሀብረተሰቡን	-11.5698
▁ምድቡ	-11.57
▁የተናገሩ	-11.5701
▁የማይቻል	-11.5705
▁ለፕሬዚዳንት	-11.5705
ቃሊቲ	-11.5706
▁ሰመጉ	-11.5711
▁መቋቋሙ	-11.5712
▁ልኡኩ	-11.5713
መረት	-11.5714
አሸናፊነት	-11.5714
▁በተሰኘ	-11.5718
ገጥም	-11.5721
▁ጉባኤዎች	-11.5722
ሊዝ	-11.5722
▁የዘርፉን	-11.5723
ርሳቸው	-11.5725
ስጋ	-11.5725
▁ይደርስ	-11.5727
ለጠ	-11.573
▁በማቋረጥ	-11.5732
▁እያበረከተ	-11.5732
ጀምሩ	-11.5733
▁ተገልጿልከ	-11.5734
▁በአምላክ	-11.5734
▁ዋይ	-11.5738
▁ቅኝ	-11.5742
መጀመርያዎቹ	-11.5742
▁ተክ	-11.5744
ነፃነት	-11.5745
▁ዴፖ	-11.5745
ፕሬ	-11.5746
▁ከወሰዱ	-11.5748
▁አሚሶም	-11.5748
▁የቆዩትን	-11.575
▁አማካዮች	-11.575
ሮቻቸው	-11.5754
▁ተጠየቀ	-11.5755
ጋለጥ	-11.5755
▁በሚደርስ	-11.5757
▁የጥቃት	-11.5758
መርጥ	-11.5763
▁ሊፈታ	-11.5764
ሰቃዩ	-11.5765
▁ጠርቶ	-11.5767
▁ለማሀበራዊ	-11.5767
▁መፃኢ	-11.5767
▁በፈቃደኝነት	-11.5767
▁ከትራንስፖርት	-11.5767
▁ይሰጣቸዋል	-11.5767
▁ግማሹ	-11.5767
▁ፍርደኞች	-11.5767
▁እናውቃለን	-11.5767
▁ወስነዋል	-11.5767
▁የቅንጅት	-11.5767
▁አስመረቀ	-11.5767
▁ምሁር	-11.5767
ስታድየሙ	-11.5767
▁አልችልም	-11.5767
▁በቆሎ	-11.5768
ታቀፉ	-11.5768
▁ህልም	-11.5768
▁አውጥተዋል	-11.5768
መሰንዘር	-11.5768
▁ገዝተው	-11.5768
▁ሜዳልያ	-11.5768
▁ብሏልበ	-11.5769
▁የዱር	-11.5769
▁ለማጓጓዝ	-11.577
▁እንዲያከብር	-11.577
▁ሰአረ	-11.577
ዋጉ	-11.577
▁ቆቦ	-11.5772
መፈረማቸው	-11.5772
▁እንዲያቆም	-11.5773
▁አልፈዋል	-11.5773
ኮንግረሱ	-11.5773
▁እያጣራ	-11.5775
ቶቿ	-11.5776
▁የበለፀገች	-11.5778
▁የኒው	-11.578
▁ሰርተፊኬት	-11.578
▁እፀገነት	-11.578
ደረገው	-11.578
▁መምረጥ	-11.578
▁እንዲከፈል	-11.5781
እንጅባራ	-11.5781
▁መዛግብት	-11.5781
▁ከቤኒሻንጉል	-11.5783
▁ለሌላቸው	-11.5783
ቻን	-11.5783
▁ማበርከት	-11.5785
▁የምታገኘው	-11.5786
▁የኢነርጂ	-11.5787
▁የባንኮች	-11.5789
▁በመማር	-11.5789
▁ከሀረሪ	-11.579
▁ያጋጠማቸው	-11.579
▁ማስጀመሪያ	-11.5792
▁እስክ	-11.5792
▁ዲፕሎማት	-11.5792
ክሽን	-11.5793
ኮሚሽነር	-11.5794
ቤታቸው	-11.5796
▁ተቋሙን	-11.5796
▁ለሚገነባው	-11.5797
▁መመለሱ	-11.5797
▁የሚበልጥ	-11.5799
▁እኩለ	-11.5799
▁ማስቻል	-11.58
▁ደርሶባቸው	-11.58
ስርአቱ	-11.58
▁የተመሰረተበት	-11.5802
ተከለ	-11.5803
▁ፕር	-11.5803
ፕሬዚደንቱ	-11.5803
ተደረገባቸው	-11.5803
ካፈል	-11.5803
የዞኑ	-11.5804
▁በዱባይ	-11.5804
ድምፃዊ	-11.5804
ሞጣ	-11.5805
▁ዛንዚባር	-11.5808
ዳችን	-11.5811
ዋለሁ	-11.5812
▁ዳሰሳ	-11.5812
ታጣቂዎች	-11.5812
▁የሚታዩት	-11.5813
▁የታጀበ	-11.5817
▁የአልጄሪያ	-11.5818
▁መብቱን	-11.5819
የሶማሊያ	-11.5819
በቀል	-11.5819
▁ማነቆዎች	-11.5823
ከመ	-11.5823
▁ወላጅ	-11.5825
ቀጠለ	-11.5825
▁በእንግሊዝኛ	-11.5825
▁ጎዳናዎች	-11.5826
ሊባኖስ	-11.5826
አለምአቀፍ	-11.5827
▁ገጠም	-11.5829
▁የመቻቻል	-11.583
በምክትል	-11.5831
ጦሩ	-11.5834
▁በዴሞክራሲ	-11.5836
▁የኪነጥበብ	-11.584
ደለል	-11.584
ገፅ	-11.5841
▁ቀይረው	-11.5842
▁ከየት	-11.5845
የጨዋታው	-11.5847
▁በፕሮግራሙ	-11.5848
መዱ	-11.5853
▁የጥበብ	-11.5853
▁አዘ	-11.5854
▁ደባርቅ	-11.5854
▁ካቀረበ	-11.5855
ቀድሞ	-11.586
ሜሪክ	-11.586
▁ከሞላ	-11.5862
▁ከፍያለ	-11.5864
ኮረ	-11.5865
▁እምነታቸውን	-11.5865
▁ሲመጡ	-11.5866
▁መዋል	-11.5866
ገቢው	-11.5869
▁የሚነሳው	-11.587
▁የነበረች	-11.5873
▁ቄ	-11.5873
▁ከዋናው	-11.5874
▁ከሯንዳ	-11.5875
▁ደጋግ	-11.5876
▁እንዳደረጉ	-11.5878
▁በተማሪዎች	-11.5881
▁አዳማዎች	-11.5882
▁መንደ	-11.5884
ቆር	-11.589
▁የሰዎችን	-11.5891
▁ፋይዳው	-11.5892
ያረጋግጡ	-11.5892
ፈጥሩ	-11.5894
▁የኤሌክትሮኒክ	-11.5896
ያገግሙ	-11.5902
ሌላ	-11.5902
ተዘራ	-11.5902
ፈፅሙ	-11.5905
▁ከአሰልጣኙ	-11.5906
ጠበቀ	-11.5907
ሀረማያ	-11.5908
▁መክፈያ	-11.5908
▁መጠናቀቂያ	-11.5908
▁ሪፖብሊክ	-11.5908
▁በሌለበት	-11.5908
▁ትሪቡን	-11.5908
▁ትርኢቶች	-11.5908
▁ትርጓሜ	-11.5908
▁አረጋግጣለች	-11.5908
▁ጊዚያት	-11.5908
▁አበርክቶ	-11.5908
▁ያሳረፈው	-11.5908
▁ድምቀት	-11.5908
▁አልነበሩም	-11.5908
▁አብዱላዚዝ	-11.5908
▁እንዲጠቀም	-11.5908
▁ማህበረሰቦች	-11.5908
▁መጥሪያ	-11.5908
▁ተቆጥረዋል	-11.5908
▁መማክርት	-11.5908
▁ፈቃደኝነት	-11.5908
▁ያሻማው	-11.5909
▁ይመጣል	-11.5909
▁ኩነቶች	-11.5909
▁የሚጠቅም	-11.5909
▁መመዝገባቸውን	-11.5909
▁በመደወል	-11.591
▁በመንከባከብ	-11.591
▁ለመናድ	-11.591
▁በአይነቱ	-11.591
▁ምሽቱ	-11.591
▁ሳያደርጉ	-11.5911
▁ረድ	-11.5911
▁ለማከም	-11.5911
▁ክፍለከተማ	-11.5911
▁መስተጓጎል	-11.5913
▁ለውሀ	-11.5913
▁አልማዝ	-11.5915
▁ለመኖር	-11.5916
▁ማኒ	-11.5916
▁ሞተዋል	-11.5917
▁መከፋፈል	-11.5918
ለካ	-11.5918
▁ኡሞ	-11.5919
ሚያከናውናቸው	-11.5921
▁ሂላ	-11.5923
ጎረቤት	-11.5925
▁ዉሳኔ	-11.5925
ጣሊያን	-11.5926
▁የኖሩ	-11.5926
▁አውጭ	-11.5926
▁ለመጎብኘት	-11.5927
▁ኢላማው	-11.5928
▁በታዳጊ	-11.5929
▁እንዲጀምር	-11.5929
ኳታር	-11.5929
▁እንዳለብን	-11.5929
▁እስረኛ	-11.593
▁እንደሚኖርባቸው	-11.593
ወታደራዊ	-11.5931
በምረቃ	-11.5931
▁የተወለዱት	-11.5932
▁ውድቀት	-11.5933
▁ምህንድስና	-11.5935
▁ማስተላለፉን	-11.5935
▁ለማዳመጥ	-11.5938
▁በመጣል	-11.5938
▁ሴናተር	-11.5939
▁ነውለ	-11.5939
▁በዚ	-11.594
▁በኮንትሮባንድ	-11.5941
▁በማለታቸው	-11.5941
▁ሊሰጣቸው	-11.5941
ክትባቱ	-11.5946
ሄክታር	-11.5946
▁የሚነሳ	-11.5947
▁በሚያደርጉ	-11.5949
▁ሚዲያና	-11.5951
▁ብሮ	-11.5951
ሀዳሴ	-11.5951
▁ስሞሀ	-11.5951
▁ሶፍትዌር	-11.5951
ማዞር	-11.5954
ተሰናበቱ	-11.5954
ጉራጌ	-11.5955
▁የከርሰ	-11.5955
▁ዘመድ	-11.5956
▁ዘመቻዎች	-11.5957
▁እየደረሱ	-11.5961
▁የተማረ	-11.5962
ዩኒቲ	-11.5963
▁የተካተቱት	-11.5963
መራው	-11.5963
▁የሚሄድ	-11.5965
▁ተመራቂዎች	-11.5969
▁ከጀርመን	-11.5971
▁የተሰባሰቡ	-11.5972
ግሪክ	-11.5974
▁ከራሳቸው	-11.5976
▁የፈጠሩ	-11.5977
▁ካፒታሉ	-11.598
▁በመስ	-11.5982
▁ከባለ	-11.5982
አማኑኤል	-11.5983
ድቻ	-11.5984
ቀይር	-11.5985
▁ምእ	-11.5988
ያስገቡ	-11.5991
▁በተሰኘው	-11.5992
▁እንደየ	-11.5992
▁ከጣሊያን	-11.5995
▁ያደረ	-11.5995
ሳተፈ	-11.5997
▁አስተባባሪው	-11.6002
▁ተግዳሮቶችን	-11.6002
አሰላ	-11.6003
ሸገር	-11.6004
▁በዴሞክራሲያዊ	-11.6008
▁ለአዳማ	-11.6011
ብራዚል	-11.6016
ድሪ	-11.6016
ቦኮ	-11.6017
▁የተከሰቱ	-11.6017
▁ላበረከቱ	-11.6017
ይቅርታ	-11.6017
▁ባለስልጣናትን	-11.6022
▁ተዳም	-11.6022
▁ተከላካይነት	-11.6022
▁ከጥቃት	-11.6026
▁የጠራ	-11.6026
▁ፓን	-11.6026
▁የምክትል	-11.6028
▁ይል	-11.603
▁ቦትስዋና	-11.603
ባለሙያዎች	-11.6031
▁በአባ	-11.6032
▁በመንግስታቱ	-11.6032
አገሩ	-11.6034
▁ግብፅን	-11.6036
▁የቢቢሲ	-11.6036
ፃፈ	-11.6036
▁ያመራ	-11.6037
▁መሳተፋቸው	-11.6039
የከተማው	-11.6039
▁የፌደራሉ	-11.6041
▁ኢቦላ	-11.6043
▁መፅሀፉ	-11.6044
ስተካከሉ	-11.6044
ማሊ	-11.6045
ሽር	-11.6046
▁ገቢያቸው	-11.6051
▁ተከራክረዋል	-11.6051
▁በመመልመል	-11.6051
▁ተሰርቷል	-11.6051
▁ተብራርቷል	-11.6051
▁አሰባሳቢ	-11.6051
▁ወረቀቶች	-11.6051
▁የተሳሳቱ	-11.6051
▁ያማከለ	-11.6051
▁ይካሄዳሉ	-11.6051
▁ድልድዮች	-11.6051
ችለው	-11.6051
▁ሰይፈ	-11.6051
▁ተረክበው	-11.6051
▁ለማስተዳደር	-11.6052
▁ስላልሆነ	-11.6052
▁ብራንድ	-11.6052
▁ሟ	-11.6052
▁ለሚሰማሩ	-11.6052
መጭዎቹ	-11.6053
▁ተገዥ	-11.6053
▁ቢያገኙ	-11.6053
በሚኒስቴሩ	-11.6053
▁የተላለፈ	-11.6053
ዛምቢያ	-11.6053
▁እየተተገበረ	-11.6054
ፌደራሉ	-11.6055
▁ሄለን	-11.6055
ተከሰሱ	-11.6055
ቾቹ	-11.6055
▁ሰርጌ	-11.6056
▁አፈታት	-11.6056
▁የኤች	-11.6056
▁ሴንት	-11.6056
▁እንዲያቆሙ	-11.6057
▁እንየው	-11.6057
ሚሰጣቸው	-11.6059
▁አልበ	-11.6059
ጥሎ	-11.6059
መሰርት	-11.6061
▁የአቪዬሽን	-11.6061
▁ወረ	-11.6061
ንድፈ	-11.6061
▁በማሊ	-11.6063
ማለ	-11.6064
ከተለው	-11.6065
▁በዞን	-11.6065
▁የሚማሩ	-11.6066
▁ተመዝጋቢዎች	-11.6069
▁ከሚጠቀሱ	-11.6069
▁ኦዲንጋ	-11.607
▁በከፋ	-11.607
ዞር	-11.607
▁ቅርንጫፎችን	-11.6071
ሶስተኛ	-11.6072
ሴራ	-11.6072
▁እየተመዘገበ	-11.6073
▁ያስገቡት	-11.6076
▁ማሳየቱ	-11.6077
▁እንደቆዩ	-11.6078
የፓርቲው	-11.6079
▁ኢሰመኮ	-11.6079
▁የሚነገርለት	-11.6079
▁ለማስለቀቅ	-11.6079
ሚታወቀው	-11.6079
ተከል	-11.608
ረጂ	-11.608
▁ማገ	-11.6081
▁ፈንጂ	-11.6082
▁ኤርፖርቶች	-11.6082
▁ለመሬት	-11.6083
ዝምታ	-11.6085
▁አጠር	-11.6085
▁ከተፈጠረ	-11.6086
ስኪ	-11.6087
▁ኮላ	-11.6088
▁የብዙሀን	-11.6088
▁ተመረቀ	-11.609
ወንጀለኞች	-11.6091
▁ተጠቅማ	-11.6091
ምርቃት	-11.6091
ቡድናቸው	-11.6091
▁በብዙዎች	-11.6091
ሞቃዲሾ	-11.6091
ተሸከርካሪ	-11.6092
▁የሸማቾች	-11.6093
▁ጋርዲያን	-11.6096
ክብረ	-11.6097
▁የማስበው	-11.6097
▁ነውበዚህ	-11.6097
አንጎላ	-11.6099
ጊቤ	-11.61
▁ከተሰጠው	-11.61
▁የተቆጠረ	-11.6101
▁ሪያድ	-11.6101
በስነ	-11.6104
▁የኤክስፖርት	-11.6105
▁ከሚባሉት	-11.6107
ሄደው	-11.6108
▁ከወደ	-11.6109
▁በሀብረተሰቡ	-11.6109
▁ላሊበላ	-11.6112
▁የጥቃቱ	-11.6112
ጣሱ	-11.6112
ተማሪዎች	-11.6115
ጉል	-11.6115
▁ብሄርን	-11.6117
▁ከብዙ	-11.6119
▁ሉሲዎቹ	-11.6122
▁ህጋዊነት	-11.6122
ተወለደ	-11.6123
▁ኑሯቸውን	-11.6125
▁ኢስት	-11.6129
መጠቀሙ	-11.6129
▁ድሎች	-11.613
▁ቤንዚን	-11.613
ባህርዳር	-11.6133
▁ያለች	-11.6133
ለተ	-11.6134
▁በሚያስ	-11.6135
▁ሲንጋፖር	-11.6137
▁ተጨ	-11.6137
ሀገራት	-11.6137
ያልፍ	-11.6138
▁ቻይናውያን	-11.6138
▁በመዘዋወር	-11.614
መናገር	-11.6144
▁ካምፓኒ	-11.6146
▁ካሊፎርኒያ	-11.615
▁እስካለፈ	-11.615
▁እለቱ	-11.6152
▁ጠቋሚ	-11.6153
መካከ	-11.6156
▁ከሊጉ	-11.6156
▁ታቦ	-11.6156
ዘመቻው	-11.6157
▁አክብሮ	-11.616
▁መጣሉን	-11.6161
▁የሚድሮክ	-11.6163
▁አንስተዋልየ	-11.6165
ጠል	-11.6168
▁የሚጀምሩ	-11.6168
በሉ	-11.617
አበባ	-11.617
▁በባለሙያዎች	-11.6171
ጎደል	-11.6174
▁ተደርጎበት	-11.6175
▁ዋናዎቹ	-11.6175
▁ይረዳ	-11.6177
ምስሉ	-11.6179
▁ከሙስና	-11.618
▁በሚያዝያ	-11.6182
▁የጨዋታውን	-11.6183
አገልግሎት	-11.6186
ገጠር	-11.6188
▁ካላት	-11.6189
▁እዚያ	-11.6189
▁የህመም	-11.6189
ማለት	-11.6191
▁የሚቆዩ	-11.6192
▁ኢዮ	-11.6193
ቆጠብ	-11.6193
መፅደቁ	-11.6194
ሰራጨ	-11.6194
▁ክሬ	-11.6195
▁ምህረቴ	-11.6196
▁በመመካከር	-11.6196
▁በብቸኝነት	-11.6196
▁ተመዝግበዋል	-11.6196
▁ተዘጋጅተናል	-11.6196
▁ተዛማጅ	-11.6196
▁ተደንግጓል	-11.6196
▁አብዱልቃድር	-11.6196
▁አድጓል	-11.6196
▁ኢንቨስትመንቶች	-11.6196
▁ያከናውናል	-11.6196
▁ጉድጓዶች	-11.6196
▁ተከፍቷል	-11.6196
▁የማማከር	-11.6196
▁ጠፍቷል	-11.6196
▁የስደት	-11.6196
▁አሰምቷል	-11.6196
▁ይቆያል	-11.6196
ደሀ	-11.6196
▁አስማማው	-11.6196
▁መዳከም	-11.6196
▁ማስተዋወቅ	-11.6196
▁ወድሟል	-11.6196
▁እንደምትደግፍ	-11.6197
▁በተተኮሰ	-11.6197
▁የመግባት	-11.6197
▁ነበረብን	-11.6197
▁ባይቻል	-11.6198
ቀጡ	-11.6199
▁አሌክስ	-11.6199
▁የሚመክር	-11.62
ከብረው	-11.6201
▁እንደራሴዎች	-11.6203
▁መትከል	-11.6204
ተመዘገቡ	-11.6204
▁ሰርተፍኬት	-11.6204
▁የኮከብ	-11.6204
▁እንዲጎበኙ	-11.6205
▁በግፍ	-11.6205
▁የሚተላለፍ	-11.6205
ማረጋገጡ	-11.6205
▁እንደሚቆዩ	-11.6206
▁እየጠበቁ	-11.6206
አገሮቹ	-11.6206
▁ወጥቶበታል	-11.6206
▁ሲያከናውኑ	-11.6207
▁ሲያገለግል	-11.6207
▁ቤዛ	-11.6208
▁ከስር	-11.6211
▁አክራሪነት	-11.6212
▁ሜዳውን	-11.6213
ነጩ	-11.6214
ርቁ	-11.6215
ተሳታፊ	-11.6216
ተጫወቱ	-11.6216
▁ባለችበት	-11.6217
▁አቋሙን	-11.6217
ታተመ	-11.6218
▁ሀያላን	-11.622
▁ብሉ	-11.6221
አገራዊ	-11.6221
▁አልጀር	-11.6226
ኢታ	-11.6226
▁ከሚሆኑ	-11.6227
▁እንደሚታይ	-11.6227
ሸራተ	-11.6228
▁ባሳተፈ	-11.6228
▁ሶስቱን	-11.623
▁እየፈፀሙ	-11.623
▁እንዲሳካ	-11.6232
▁በህብረት	-11.6234
▁የሚተካ	-11.6234
▁ያፀደቀ	-11.6235
ጣቢያው	-11.6237
ረፋዱ	-11.6237
እውነተኛ	-11.6238
▁የተሰማራ	-11.6238
ቅድስት	-11.6239
▁ለሺ	-11.6239
ያሉበት	-11.624
▁ይወ	-11.624
▁በሚባሉ	-11.6241
ኮትዲ	-11.6242
እነ	-11.6243
▁ምልመላ	-11.6243
▁ሲኖሩት	-11.6245
▁አብራሪ	-11.6248
▁የሳውዲ	-11.6249
▁በግሌ	-11.6249
ካሽ	-11.6249
አሸናፊዎች	-11.625
▁አሳሳቢነት	-11.6253
መጡት	-11.6253
▁በመጡ	-11.6255
▁የፈፀመ	-11.6257
ብሪታንያ	-11.6257
▁ድርጅቱን	-11.626
እሱ	-11.626
▁ከምእራብ	-11.6261
ቆች	-11.6262
ሀይቁ	-11.6263
▁በቤተሰብ	-11.6268
▁ቶክ	-11.6269
▁ስኬታማነት	-11.6269
መመ	-11.6271
ህፃናት	-11.6271
ጠየቁት	-11.6271
▁ለሶስቱ	-11.6272
ተሳታፊዎች	-11.6272
አምስቱ	-11.6273
ምርቱ	-11.6275
▁ከቤተሰቦቻቸው	-11.6279
ገጠማት	-11.6279
▁ለከተማዋ	-11.6281
▁ዋች	-11.6282
▁ፌድሬሽኑ	-11.6282
▁ማስመዝገቡን	-11.6284
ተመድ	-11.6285
▁እንዳለፈ	-11.6285
ትረምፕ	-11.6286
▁ርምጃዎች	-11.6286
▁ለኬንያ	-11.6289
ኔል	-11.6289
ጥላቻ	-11.6289
ቀሪው	-11.6289
ይታ	-11.629
ገንባ	-11.6291
▁በአራዳ	-11.6292
ሀት	-11.6293
▁ጥምረቱ	-11.6296
▁ጄፍ	-11.6298
▁ማቋረጥ	-11.63
▁በተመ	-11.63
▁ያካተተው	-11.6301
▁ትስስርን	-11.6303
መገኘቱ	-11.6305
▁ከሌሎቹ	-11.6308
▁ማሳለፉ	-11.6308
▁የሚወሰዱ	-11.6308
[...]
